{
  "version": "1.0",
  "truncation": null,
  "padding": null,
  "added_tokens": [
    {
      "id": 0,
      "content": "<pad>",
      "single_word": false,
      "lstrip": false,
      "rstrip": false,
      "normalized": false,
      "special": true
    },
    {
      "id": 1,
      "content": "<s>",
      "single_word": false,
      "lstrip": false,
      "rstrip": false,
      "normalized": false,
      "special": true
    },
    {
      "id": 2,
      "content": "</s>",
      "single_word": false,
      "lstrip": false,
      "rstrip": false,
      "normalized": false,
      "special": true
    },
    {
      "id": 3,
      "content": "<unk>",
      "single_word": false,
      "lstrip": false,
      "rstrip": false,
      "normalized": false,
      "special": true
    },
    {
      "id": 4,
      "content": "<mask>",
      "single_word": false,
      "lstrip": false,
      "rstrip": false,
      "normalized": false,
      "special": true
    }
  ],
  "normalizer": {
    "type": "Sequence",
    "normalizers": [
      {
        "type": "NFKC"
      }
    ]
  },
  "pre_tokenizer": {
    "type": "ByteLevel",
    "add_prefix_space": false,
    "trim_offsets": true,
    "use_regex": true
  },
  "post_processor": {
    "type": "TemplateProcessing",
    "single": [
      {
        "SpecialToken": {
          "id": "<s>",
          "type_id": 0
        }
      },
      {
        "Sequence": {
          "id": "A",
          "type_id": 0
        }
      },
      {
        "SpecialToken": {
          "id": "</s>",
          "type_id": 0
        }
      }
    ],
    "pair": [
      {
        "SpecialToken": {
          "id": "<s>",
          "type_id": 0
        }
      },
      {
        "Sequence": {
          "id": "A",
          "type_id": 0
        }
      },
      {
        "SpecialToken": {
          "id": "</s>",
          "type_id": 0
        }
      },
      {
        "Sequence": {
          "id": "B",
          "type_id": 1
        }
      },
      {
        "SpecialToken": {
          "id": "</s>",
          "type_id": 1
        }
      }
    ],
    "special_tokens": {
      "</s>": {
        "id": "</s>",
        "ids": [
          2
        ],
        "tokens": [
          "</s>"
        ]
      },
      "<s>": {
        "id": "<s>",
        "ids": [
          1
        ],
        "tokens": [
          "<s>"
        ]
      }
    }
  },
  "decoder": {
    "type": "ByteLevel",
    "add_prefix_space": true,
    "trim_offsets": true,
    "use_regex": true
  },
  "model": {
    "type": "BPE",
    "dropout": null,
    "unk_token": "<unk>",
    "continuing_subword_prefix": null,
    "end_of_word_suffix": null,
    "fuse_unk": false,
    "byte_fallback": false,
    "ignore_merges": false,
    "vocab": {
      "<pad>": 0,
      "<s>": 1,
      "</s>": 2,
      "<unk>": 3,
      "<mask>": 4,
      "!": 5,
      "\"": 6,
      "#": 7,
      "$": 8,
      "%": 9,
      "&": 10,
      "'": 11,
      "(": 12,
      ")": 13,
      "*": 14,
      "+": 15,
      ",": 16,
      "-": 17,
      ".": 18,
      "/": 19,
      "0": 20,
      "1": 21,
      "2": 22,
      "3": 23,
      "4": 24,
      "5": 25,
      "6": 26,
      "7": 27,
      "8": 28,
      "9": 29,
      ":": 30,
      ";": 31,
      "<": 32,
      "=": 33,
      ">": 34,
      "?": 35,
      "@": 36,
      "A": 37,
      "B": 38,
      "C": 39,
      "D": 40,
      "E": 41,
      "F": 42,
      "G": 43,
      "H": 44,
      "I": 45,
      "J": 46,
      "K": 47,
      "L": 48,
      "M": 49,
      "N": 50,
      "O": 51,
      "P": 52,
      "Q": 53,
      "R": 54,
      "S": 55,
      "T": 56,
      "U": 57,
      "V": 58,
      "W": 59,
      "X": 60,
      "Y": 61,
      "Z": 62,
      "[": 63,
      "\\": 64,
      "]": 65,
      "^": 66,
      "_": 67,
      "`": 68,
      "a": 69,
      "b": 70,
      "c": 71,
      "d": 72,
      "e": 73,
      "f": 74,
      "g": 75,
      "h": 76,
      "i": 77,
      "j": 78,
      "k": 79,
      "l": 80,
      "m": 81,
      "n": 82,
      "o": 83,
      "p": 84,
      "q": 85,
      "r": 86,
      "s": 87,
      "t": 88,
      "u": 89,
      "v": 90,
      "w": 91,
      "x": 92,
      "y": 93,
      "z": 94,
      "{": 95,
      "|": 96,
      "}": 97,
      "~": 98,
      "¡": 99,
      "¢": 100,
      "£": 101,
      "¤": 102,
      "¥": 103,
      "¦": 104,
      "§": 105,
      "¨": 106,
      "©": 107,
      "ª": 108,
      "«": 109,
      "¬": 110,
      "®": 111,
      "¯": 112,
      "°": 113,
      "±": 114,
      "²": 115,
      "³": 116,
      "´": 117,
      "µ": 118,
      "¶": 119,
      "·": 120,
      "¸": 121,
      "¹": 122,
      "º": 123,
      "»": 124,
      "¼": 125,
      "½": 126,
      "¾": 127,
      "¿": 128,
      "À": 129,
      "Á": 130,
      "Â": 131,
      "Ã": 132,
      "Ä": 133,
      "Å": 134,
      "Æ": 135,
      "Ç": 136,
      "È": 137,
      "É": 138,
      "Ê": 139,
      "Ë": 140,
      "Ì": 141,
      "Í": 142,
      "Î": 143,
      "Ï": 144,
      "Ð": 145,
      "Ñ": 146,
      "Ò": 147,
      "Ó": 148,
      "Ô": 149,
      "Õ": 150,
      "Ö": 151,
      "×": 152,
      "Ø": 153,
      "Ù": 154,
      "Ú": 155,
      "Û": 156,
      "Ü": 157,
      "Ý": 158,
      "Þ": 159,
      "ß": 160,
      "à": 161,
      "á": 162,
      "â": 163,
      "ã": 164,
      "ä": 165,
      "å": 166,
      "æ": 167,
      "ç": 168,
      "è": 169,
      "é": 170,
      "ê": 171,
      "ë": 172,
      "ì": 173,
      "í": 174,
      "î": 175,
      "ï": 176,
      "ð": 177,
      "ñ": 178,
      "ò": 179,
      "ó": 180,
      "ô": 181,
      "õ": 182,
      "ö": 183,
      "÷": 184,
      "ø": 185,
      "ù": 186,
      "ú": 187,
      "û": 188,
      "ü": 189,
      "ý": 190,
      "þ": 191,
      "ÿ": 192,
      "Ā": 193,
      "ā": 194,
      "Ă": 195,
      "ă": 196,
      "Ą": 197,
      "ą": 198,
      "Ć": 199,
      "ć": 200,
      "Ĉ": 201,
      "ĉ": 202,
      "Ċ": 203,
      "ċ": 204,
      "Č": 205,
      "č": 206,
      "Ď": 207,
      "ď": 208,
      "Đ": 209,
      "đ": 210,
      "Ē": 211,
      "ē": 212,
      "Ĕ": 213,
      "ĕ": 214,
      "Ė": 215,
      "ė": 216,
      "Ę": 217,
      "ę": 218,
      "Ě": 219,
      "ě": 220,
      "Ĝ": 221,
      "ĝ": 222,
      "Ğ": 223,
      "ğ": 224,
      "Ġ": 225,
      "ġ": 226,
      "Ģ": 227,
      "ģ": 228,
      "Ĥ": 229,
      "ĥ": 230,
      "Ħ": 231,
      "ħ": 232,
      "Ĩ": 233,
      "ĩ": 234,
      "Ī": 235,
      "ī": 236,
      "Ĭ": 237,
      "ĭ": 238,
      "Į": 239,
      "į": 240,
      "İ": 241,
      "ı": 242,
      "Ĳ": 243,
      "ĳ": 244,
      "Ĵ": 245,
      "ĵ": 246,
      "Ķ": 247,
      "ķ": 248,
      "ĸ": 249,
      "Ĺ": 250,
      "ĺ": 251,
      "Ļ": 252,
      "ļ": 253,
      "Ľ": 254,
      "ľ": 255,
      "Ŀ": 256,
      "ŀ": 257,
      "Ł": 258,
      "ł": 259,
      "Ń": 260,
      "Ġt": 261,
      "Ġa": 262,
      "he": 263,
      "in": 264,
      "er": 265,
      "on": 266,
      "Ġthe": 267,
      "re": 268,
      "Ġo": 269,
      "en": 270,
      "Ġs": 271,
      "at": 272,
      "an": 273,
      "or": 274,
      "is": 275,
      "Ġw": 276,
      "es": 277,
      "Ġc": 278,
      "ed": 279,
      "it": 280,
      "Ġof": 281,
      "Ġp": 282,
      "Ġd": 283,
      "Ġb": 284,
      "Ġan": 285,
      "al": 286,
      "Ġf": 287,
      "Ġm": 288,
      "Ġin": 289,
      "ar": 290,
      "ing": 291,
      "ion": 292,
      "ic": 293,
      "Ġand": 294,
      "ro": 295,
      "le": 296,
      "Ġto": 297,
      "as": 298,
      "ent": 299,
      "ou": 300,
      "Ġh": 301,
      "Ġe": 302,
      "ct": 303,
      "Ġn": 304,
      "el": 305,
      "Ġth": 306,
      "Ġre": 307,
      "et": 308,
      "om": 309,
      "Ġ1": 310,
      "st": 311,
      "Ġl": 312,
      "ĠT": 313,
      "ĠS": 314,
      "ie": 315,
      "il": 316,
      "Ġv": 317,
      "Ġg": 318,
      "ĠA": 319,
      "id": 320,
      "ĠC": 321,
      "Ġis": 322,
      "im": 323,
      "ur": 324,
      "ation": 325,
      "âĢ": 326,
      "Ġbe": 327,
      "ol": 328,
      "ĠI": 329,
      "ig": 330,
      "ot": 331,
      "ce": 332,
      "ut": 333,
      "ĠM": 334,
      "Ġ2": 335,
      "Ġon": 336,
      "Ġfor": 337,
      "iv": 338,
      "ra": 339,
      "Ġu": 340,
      "ly": 341,
      "Ġ(": 342,
      "ch": 343,
      "ir": 344,
      "se": 345,
      "..": 346,
      "ĠP": 347,
      "ow": 348,
      "ul": 349,
      "ay": 350,
      "am": 351,
      "Ġcon": 352,
      "ĠB": 353,
      "Ġas": 354,
      "Ġst": 355,
      "em": 356,
      "Ġhe": 357,
      "ad": 358,
      "ter": 359,
      "ith": 360,
      "ĠD": 361,
      "od": 362,
      "Ġthat": 363,
      "ĠF": 364,
      "ĠH": 365,
      "00": 366,
      "Ġpro": 367,
      "ers": 368,
      "ĠThe": 369,
      "Ġwith": 370,
      "if": 371,
      "ag": 372,
      "Ġor": 373,
      "Ġal": 374,
      "Ġwh": 375,
      "os": 376,
      "ĠW": 377,
      "ĠR": 378,
      "Ġby": 379,
      "Ġde": 380,
      "and": 381,
      "Ġsu": 382,
      "res": 383,
      "ĠE": 384,
      "Ġse": 385,
      "nd": 386,
      "ĠN": 387,
      "Ġen": 388,
      "her": 389,
      "pp": 390,
      "ab": 391,
      "ate": 392,
      "ĠL": 393,
      "Ġdie": 394,
      "Ġat": 395,
      "ver": 396,
      "ve": 397,
      "est": 398,
      "Ġcom": 399,
      "ment": 400,
      "ect": 401,
      "ri": 402,
      "Ġit": 403,
      "ess": 404,
      "us": 405,
      "Ġex": 406,
      "qu": 407,
      "ĠG": 408,
      "ĠâĢ": 409,
      "Ġk": 410,
      "Ġwas": 411,
      "ant": 412,
      "ĠO": 413,
      "ill": 414,
      "th": 415,
      "ac": 416,
      "um": 417,
      "rom": 418,
      "ain": 419,
      "ist": 420,
      "ĠJ": 421,
      "Ġ3": 422,
      "ies": 423,
      "Ġare": 424,
      "ore": 425,
      "ity": 426,
      "ure": 427,
      "ak": 428,
      "Ġr": 429,
      "ort": 430,
      "ich": 431,
      "oc": 432,
      "art": 433,
      "nt": 434,
      "op": 435,
      "Ġy": 436,
      "Ġfrom": 437,
      "Ġnot": 438,
      "ive": 439,
      "ud": 440,
      "Ġsh": 441,
      "our": 442,
      "end": 443,
      "igh": 444,
      "ld": 445,
      "Ġha": 446,
      "un": 447,
      "ord": 448,
      "ated": 449,
      "ction": 450,
      "pt": 451,
      "....": 452,
      "Ġwhich": 453,
      "ge": 454,
      "Ġ4": 455,
      "Ġle": 456,
      "per": 457,
      "pl": 458,
      "ond": 459,
      "ard": 460,
      "ell": 461,
      "ik": 462,
      "Ġj": 463,
      "01": 464,
      "ans": 465,
      "ial": 466,
      "pe": 467,
      "all": 468,
      "Ġthis": 469,
      "Ġ5": 470,
      "ther": 471,
      "ĠIn": 472,
      "Ġne": 473,
      "Ġcomp": 474,
      "Ġwe": 475,
      "Ġcont": 476,
      "ff": 477,
      "ru": 478,
      "Ġch": 479,
      "ĠV": 480,
      "og": 481,
      "cc": 482,
      "ice": 483,
      "ine": 484,
      ".,": 485,
      "cl": 486,
      "te": 487,
      "ire": 488,
      "ĠK": 489,
      "Ġ-": 490,
      "ical": 491,
      "ight": 492,
      "ere": 493,
      "Ġwhe": 494,
      "age": 495,
      "ber": 496,
      "Ġpl": 497,
      "ens": 498,
      "Ġad": 499,
      "Ġmay": 500,
      "Ġme": 501,
      "ust": 502,
      "able": 503,
      "Ġvan": 504,
      "rou": 505,
      "orm": 506,
      "fer": 507,
      "Ġte": 508,
      "ould": 509,
      "ap": 510,
      "ition": 511,
      "Ġhave": 512,
      "Ġ6": 513,
      "ast": 514,
      "iz": 515,
      "Ġres": 516,
      "ous": 517,
      "ence": 518,
      "ry": 519,
      "ĠU": 520,
      "Ġapp": 521,
      "gh": 522,
      "ide": 523,
      "Ġus": 524,
      "Ġall": 525,
      "ind": 526,
      "Ġim": 527,
      "Ġhis": 528,
      "Ġdis": 529,
      "we": 530,
      "du": 531,
      "Ġver": 532,
      "ip": 533,
      "ary": 534,
      "are": 535,
      "ost": 536,
      "ance": 537,
      "Ġso": 538,
      "ĠSt": 539,
      ").": 540,
      "ia": 541,
      "Ġone": 542,
      "ase": 543,
      "Ġ\"": 544,
      "Ġper": 545,
      "Ġcl": 546,
      "act": 547,
      "aar": 548,
      "Ġcan": 549,
      "ome": 550,
      "Ġ.": 551,
      "Ġmet": 552,
      "Ġab": 553,
      "ub": 554,
      "ep": 555,
      "ach": 556,
      "ib": 557,
      "ong": 558,
      "ign": 559,
      "Ġpre": 560,
      "ations": 561,
      "ok": 562,
      "Ġar": 563,
      "ang": 564,
      "form": 565,
      "ork": 566,
      "ass": 567,
      "to": 568,
      "Ġpart": 569,
      "Ġsa": 570,
      "ult": 571,
      "ue": 572,
      "Ġwill": 573,
      "Ġdat": 574,
      "'s": 575,
      "Ġ'": 576,
      "Ġop": 577,
      "ek": 578,
      "âĢĻ": 579,
      "Ġwere": 580,
      "Ġun": 581,
      "Ġ7": 582,
      "Ġ0": 583,
      "ĠTh": 584,
      "ents": 585,
      "Ġ8": 586,
      "ater": 587,
      "ear": 588,
      "Ġhas": 589,
      "ace": 590,
      "erm": 591,
      "de": 592,
      "ress": 593,
      "Ġsy": 594,
      "ount": 595,
      "out": 596,
      "Ġman": 597,
      "ĠØ": 598,
      "),": 599,
      "ions": 600,
      "Ġdo": 601,
      "Ġother": 602,
      "10": 603,
      "ne": 604,
      "Ġsp": 605,
      "Ġ19": 606,
      "Ġthere": 607,
      "Ġ10": 608,
      "ely": 609,
      "Ġbut": 610,
      "Ġhet": 611,
      "lect": 612,
      "Ġem": 613,
      "irst": 614,
      "Ġacc": 615,
      "iss": 616,
      "ite": 617,
      "ose": 618,
      "one": 619,
      "nder": 620,
      "ors": 621,
      "Ġsub": 622,
      "Ġnie": 623,
      "Ġtr": 624,
      "ple": 625,
      "Ġi": 626,
      "ame": 627,
      "av": 628,
      "ov": 629,
      "ings": 630,
      "erv": 631,
      "Ġup": 632,
      "........": 633,
      "ood": 634,
      "Ġyou": 635,
      "Ġinter": 636,
      "Ġge": 637,
      "ime": 638,
      "ied": 639,
      "ys": 640,
      "lic": 641,
      "Ġro": 642,
      "own": 643,
      "Ġout": 644,
      "ack": 645,
      "der": 646,
      "Ġ201": 647,
      "Ġtheir": 648,
      "ER": 649,
      "Ġag": 650,
      "ĠCh": 651,
      "âĢĿ": 652,
      "Ġdes": 653,
      "Ġbeen": 654,
      "Ġ;": 655,
      "Ġfirst": 656,
      "Ġany": 657,
      "of": 658,
      "clud": 659,
      "Ġsec": 660,
      "Ġhad": 661,
      "rib": 662,
      "Ġam": 663,
      "Ġqu": 664,
      "Ġ[": 665,
      "ll": 666,
      "ates": 667,
      "Ġ9": 668,
      "Ġom": 669,
      "low": 670,
      "ile": 671,
      "ph": 672,
      "cess": 673,
      "Ġsuch": 674,
      "int": 675,
      "Ġ18": 676,
      "ĠâĢľ": 677,
      "ĠY": 678,
      "so": 679,
      "au": 680,
      "ric": 681,
      "Ġmore": 682,
      "Ġdev": 683,
      "Ġgen": 684,
      "Ġbet": 685,
      "yl": 686,
      "Ġcomm": 687,
      "Ġsaid": 688,
      "Ġreg": 689,
      "Ġno": 690,
      "ces": 691,
      "ont": 692,
      "the": 693,
      "ual": 694,
      "20": 695,
      "Ġits": 696,
      "Ġthey": 697,
      "ons": 698,
      "Ġwat": 699,
      "ating": 700,
      "Ġform": 701,
      "ock": 702,
      "ier": 703,
      "ĠâĢĶ": 704,
      "ject": 705,
      "ec": 706,
      "wo": 707,
      "ific": 708,
      "ail": 709,
      "resent": 710,
      "ke": 711,
      "ĠCom": 712,
      "Ġprov": 713,
      "ew": 714,
      "ON": 715,
      "Ġass": 716,
      "Ġtrans": 717,
      "pos": 718,
      "Ġob": 719,
      "Ġwhere": 720,
      "Ġ$": 721,
      "vent": 722,
      "ory": 723,
      "Ġwho": 724,
      "port": 725,
      "Ġaf": 726,
      "itt": 727,
      "ÙĦ": 728,
      "ree": 729,
      "Ġunder": 730,
      "IG": 731,
      "over": 732,
      "Ġinclud": 733,
      "ert": 734,
      "Ġrec": 735,
      "Ġ12": 736,
      "ĠIt": 737,
      "Ġ11": 738,
      "reat": 739,
      "hed": 740,
      "Ġra": 741,
      "Ġ200": 742,
      "Ġpr": 743,
      "ound": 744,
      "ish": 745,
      "Ġtime": 746,
      "red": 747,
      "Ġmod": 748,
      "pec": 749,
      "The": 750,
      "Ġ20": 751,
      "stem": 752,
      "ake": 753,
      "pect": 754,
      "Ġthan": 755,
      "old": 756,
      "Ġsc": 757,
      "Ġmy": 758,
      "Ġpos": 759,
      "rough": 760,
      "IN": 761,
      "âĢĶ": 762,
      "Ġbl": 763,
      "ty": 764,
      "Ġdet": 765,
      "Ġwhen": 766,
      "ments": 767,
      "ike": 768,
      "Ġind": 769,
      "Ġdata": 770,
      "Ġev": 771,
      "âĪ": 772,
      "ĠMr": 773,
      "ks": 774,
      "Ġsecond": 775,
      "ft": 776,
      "ale": 777,
      "ade": 778,
      "ular": 779,
      "Ġcons": 780,
      "ise": 781,
      "ced": 782,
      "Ġinto": 783,
      "Ġrel": 784,
      "EN": 785,
      "Ġac": 786,
      "ĠÂ": 787,
      "000": 788,
      "ath": 789,
      "Ġvir": 790,
      "Ġalso": 791,
      "âĢĵ": 792,
      "Ġsome": 793,
      "ram": 794,
      "Ġif": 795,
      "__": 796,
      "11": 797,
      "Ġwould": 798,
      "wn": 799,
      "ious": 800,
      "ally": 801,
      "ob": 802,
      "Ġthem": 803,
      "ng": 804,
      "ween": 805,
      "tern": 806,
      "ement": 807,
      "ES": 808,
      "Ġhim": 809,
      "Ġinc": 810,
      "Ġla": 811,
      "Ġour": 812,
      "Ġet": 813,
      "Ġdif": 814,
      "ian": 815,
      "els": 816,
      "iew": 817,
      "Ġher": 818,
      "ss": 819,
      "oth": 820,
      "19": 821,
      "ÙĨ": 822,
      "ĠRe": 823,
      "io": 824,
      "Ġtwo": 825,
      "ution": 826,
      "Ġsur": 827,
      "Ġtra": 828,
      "ĠâĢĺ": 829,
      "elf": 830,
      "ient": 831,
      "ix": 832,
      "--": 833,
      "dition": 834,
      "ark": 835,
      "pro": 836,
      "Ġact": 837,
      "12": 838,
      "ased": 839,
      "eld": 840,
      "ĠHe": 841,
      "Ġeach": 842,
      "Ġword": 843,
      "ink": 844,
      "Ġsign": 845,
      "fore": 846,
      "Ġover": 847,
      "Ġsystem": 848,
      "les": 849,
      "oe": 850,
      "Ġval": 851,
      "Ġyear": 852,
      "ative": 853,
      "ough": 854,
      "Ġbetween": 855,
      "its": 856,
      "ample": 857,
      "Ġfe": 858,
      "Ġrem": 859,
      "ank": 860,
      "ien": 861,
      "Ġrece": 862,
      "ays": 863,
      "lu": 864,
      "ns": 865,
      "ffect": 866,
      "ex": 867,
      "ract": 868,
      "AN": 869,
      "hod": 870,
      "Ġpresent": 871,
      "Ġ=": 872,
      "Ġmem": 873,
      "Ġent": 874,
      "mer": 875,
      "50": 876,
      "ck": 877,
      "tt": 878,
      "Ġatt": 879,
      "bod": 880,
      "Ø§": 881,
      "formation": 882,
      "Ġcol": 883,
      "ower": 884,
      "Ġ13": 885,
      "Ġonly": 886,
      "Ġwork": 887,
      "ited": 888,
      "ined": 889,
      "Ã©": 890,
      "cy": 891,
      "AT": 892,
      "oor": 893,
      "Ġsupp": 894,
      "ollow": 895,
      "ities": 896,
      "Ġthrough": 897,
      "ove": 898,
      "oy": 899,
      "ident": 900,
      "Ġgener": 901,
      "ĠÎ": 902,
      "be": 903,
      "AR": 904,
      "Ġthese": 905,
      "ĠThis": 906,
      "Ġoff": 907,
      "Ġ14": 908,
      "OR": 909,
      "ps": 910,
      "Ġdef": 911,
      "Ġinst": 912,
      "urn": 913,
      "oint": 914,
      "ook": 915,
      "com": 916,
      "ĠPro": 917,
      "Ġused": 918,
      "Ġkn": 919,
      "Ġcontro": 920,
      "olog": 921,
      "AL": 922,
      "Ġdist": 923,
      "Ġrequ": 924,
      "ris": 925,
      "arg": 926,
      "Ġmade": 927,
      "13": 928,
      "Ġabout": 929,
      "ĠWe": 930,
      "ures": 931,
      "Ġext": 932,
      "Ġcor": 933,
      "Ġma": 934,
      "Ġend": 935,
      "Ġ16": 936,
      "Ġdit": 937,
      "Ġvol": 938,
      "ange": 939,
      "ug": 940,
      "ible": 941,
      "ission": 942,
      "aim": 943,
      "und": 944,
      "uring": 945,
      "Ġset": 946,
      "ility": 947,
      "ool": 948,
      "ii": 949,
      "Ġpol": 950,
      "Ġspec": 951,
      "ts": 952,
      "Ġprocess": 953,
      "ner": 954,
      "Ġ:": 955,
      "Ġnet": 956,
      "Ġafter": 957,
      "ward": 958,
      "201": 959,
      "Ġshould": 960,
      "ature": 961,
      "ĠSe": 962,
      "Ġ15": 963,
      "bodim": 964,
      "15": 965,
      "ring": 966,
      "In": 967,
      "22": 968,
      "Ġport": 969,
      "put": 970,
      "Ġoper": 971,
      "Ġfollow": 972,
      "hes": 973,
      "hen": 974,
      "Ġhand": 975,
      "Ġshe": 976,
      "Ġprodu": 977,
      "ild": 978,
      "Ġ|": 979,
      "ĠUn": 980,
      "als": 981,
      "Ġuse": 982,
      "Ġdevice": 983,
      "air": 984,
      "Ġ&": 985,
      "Ġhy": 986,
      "Ġ*": 987,
      "Ġsame": 988,
      "ins": 989,
      "Ġbeing": 990,
      "Ġserv": 991,
      "ene": 992,
      "uch": 993,
      "Ġdiffer": 994,
      "Ġbel": 995,
      "30": 996,
      "IS": 997,
      "irc": 998,
      "Ġthen": 999,
      "ick": 1000,
      "ning": 1001,
      "Ġmo": 1002,
      "Ġ17": 1003,
      "Ġint": 1004,
      "Ġnum": 1005,
      "Ġmethod": 1006,
      "Ġdesc": 1007,
      "Ġdi": 1008,
      "Ġembodim": 1009,
      "ving": 1010,
      "aan": 1011,
      "ption": 1012,
      "ĠAn": 1013,
      "nect": 1014,
      "Ġpers": 1015,
      "ĠÙ": 1016,
      "Ġpat": 1017,
      "14": 1018,
      "Ġph": 1019,
      "ause": 1020,
      "Ġelect": 1021,
      "Ġaan": 1022,
      "Ġsk": 1023,
      "ized": 1024,
      "oci": 1025,
      "inal": 1026,
      "Ġvar": 1027,
      "ble": 1028,
      "ĠAl": 1029,
      "Ġ,": 1030,
      "Ġins": 1031,
      "Ġpur": 1032,
      "iver": 1033,
      "rit": 1034,
      "ruct": 1035,
      "Ġinformation": 1036,
      "ĠDe": 1037,
      "Ġcar": 1038,
      "Ġupon": 1039,
      "ublic": 1040,
      "IC": 1041,
      "ful": 1042,
      "ĠFor": 1043,
      "ants": 1044,
      "ict": 1045,
      "oh": 1046,
      "Ġclaim": 1047,
      "Ġever": 1048,
      "vention": 1049,
      "Ġprovid": 1050,
      "Ġdire": 1051,
      "any": 1052,
      "Ġmin": 1053,
      "other": 1054,
      "Ġhere": 1055,
      "ulle": 1056,
      "face": 1057,
      "Ġexp": 1058,
      "me": 1059,
      "Ġnew": 1060,
      "land": 1061,
      "anc": 1062,
      "led": 1063,
      "ĠAs": 1064,
      "16": 1065,
      "Ġexample": 1066,
      "ĠFIG": 1067,
      "lo": 1068,
      "ural": 1069,
      "Ġwell": 1070,
      "Ġresult": 1071,
      "................": 1072,
      "Ġaut": 1073,
      "arge": 1074,
      "Ġret": 1075,
      "up": 1076,
      "ording": 1077,
      "Ġconf": 1078,
      "round": 1079,
      "ann": 1080,
      "ets": 1081,
      "ider": 1082,
      "Ġstud": 1083,
      "18": 1084,
      "Ġinv": 1085,
      "âĪĴ": 1086,
      "Ġpar": 1087,
      "Ġpartic": 1088,
      "Ġsm": 1089,
      "urther": 1090,
      "Ġsal": 1091,
      "ron": 1092,
      "row": 1093,
      "ton": 1094,
      "HE": 1095,
      "Ġco": 1096,
      "Ġons": 1097,
      "Ġest": 1098,
      "Ġloc": 1099,
      "Ġgr": 1100,
      "Ġyour": 1101,
      "ctions": 1102,
      "ines": 1103,
      "ense": 1104,
      "ĠNo": 1105,
      "ste": 1106,
      "Ġrep": 1107,
      "23": 1108,
      "ired": 1109,
      "Ġcell": 1110,
      "ren": 1111,
      "Ġty": 1112,
      "Ġele": 1113,
      "Ġcour": 1114,
      "ator": 1115,
      "vel": 1116,
      "erk": 1117,
      "Ãª": 1118,
      "ational": 1119,
      "ics": 1120,
      "ven": 1121,
      "Ġ30": 1122,
      "ÙĬ": 1123,
      "Ġpe": 1124,
      "17": 1125,
      "ages": 1126,
      "Ġlay": 1127,
      "Ġbo": 1128,
      "ained": 1129,
      "ax": 1130,
      "ices": 1131,
      "Ġsl": 1132,
      "Ġagain": 1133,
      "Ġcould": 1134,
      "ived": 1135,
      "Ġthose": 1136,
      "Ġ?": 1137,
      "aint": 1138,
      "Ġbec": 1139,
      ".\"": 1140,
      "Ġvery": 1141,
      "Ġcirc": 1142,
      "ues": 1143,
      "ically": 1144,
      "Ġfil": 1145,
      "Ġterm": 1146,
      "ness": 1147,
      "Ġsim": 1148,
      "aw": 1149,
      "Ġfl": 1150,
      "ĠComm": 1151,
      "21": 1152,
      "Ġconnect": 1153,
      "ured": 1154,
      "Ġeffect": 1155,
      "ĠNew": 1156,
      "Ġgo": 1157,
      "eng": 1158,
      "ĠAr": 1159,
      "ouse": 1160,
      "ily": 1161,
      ".;": 1162,
      "Ġsol": 1163,
      "Ġgra": 1164,
      "Ġhigh": 1165,
      "ION": 1166,
      "ND": 1167,
      "Ġmon": 1168,
      "Ġcontrol": 1169,
      "Ġwhat": 1170,
      "sh": 1171,
      "Ġcount": 1172,
      "Ġmost": 1173,
      "ute": 1174,
      "Ġkan": 1175,
      "ield": 1176,
      "Ġcase": 1177,
      "Ġhow": 1178,
      "ĠAnd": 1179,
      "alth": 1180,
      "af": 1181,
      "ved": 1182,
      "ases": 1183,
      "...": 1184,
      "ule": 1185,
      "Ġorder": 1186,
      "man": 1187,
      "work": 1188,
      "eth": 1189,
      "uss": 1190,
      "25": 1191,
      "Ġadd": 1192,
      "arch": 1193,
      "pr": 1194,
      "Ġcur": 1195,
      "ĠX": 1196,
      "iven": 1197,
      "ci": 1198,
      "ever": 1199,
      "lik": 1200,
      "24": 1201,
      "Ġbu": 1202,
      "Ġart": 1203,
      "ĠWh": 1204,
      "gen": 1205,
      "ribed": 1206,
      "ting": 1207,
      "Ġleast": 1208,
      "ull": 1209,
      "ige": 1210,
      "ĠZ": 1211,
      "Ġmed": 1212,
      "Ġhaving": 1213,
      "Ġyears": 1214,
      "Ġshow": 1215,
      "ED": 1216,
      "ane": 1217,
      "ief": 1218,
      "ah": 1219,
      "Ġboth": 1220,
      "Ġfact": 1221,
      "Ġdeterm": 1222,
      "gan": 1223,
      "Ġrefer": 1224,
      "Ġusing": 1225,
      "Ġnumber": 1226,
      "Ġek": 1227,
      "Ġview": 1228,
      "ively": 1229,
      "Ġgreat": 1230,
      "less": 1231,
      "arm": 1232,
      "ified": 1233,
      "ĠDie": 1234,
      "Ġgood": 1235,
      "ife": 1236,
      "ĠOF": 1237,
      "Ġsubst": 1238,
      "atter": 1239,
      "Ġlight": 1240,
      "ode": 1241,
      "ination": 1242,
      "Ġnow": 1243,
      "Ġke": 1244,
      "par": 1245,
      "Ġbefore": 1246,
      "Ġshall": 1247,
      "Ġwater": 1248,
      "hem": 1249,
      "//": 1250,
      "Ġdec": 1251,
      "ished": 1252,
      "ĠQ": 1253,
      "Ġconst": 1254,
      "Ġjy": 1255,
      "Ġdep": 1256,
      "ash": 1257,
      "aterial": 1258,
      "Ġdifferent": 1259,
      "uc": 1260,
      "Ġlong": 1261,
      "ĠâĢĻ": 1262,
      "let": 1263,
      "Ġwithin": 1264,
      "Ġdr": 1265,
      "Ġappro": 1266,
      "Ġopen": 1267,
      "con": 1268,
      "ĠEx": 1269,
      "ium": 1270,
      "Ġ24": 1271,
      "Ġproper": 1272,
      "ross": 1273,
      "rent": 1274,
      "ffic": 1275,
      "ision": 1276,
      "Ġequ": 1277,
      "by": 1278,
      "ĠLe": 1279,
      "ives": 1280,
      "yn": 1281,
      "Ġpass": 1282,
      "ave": 1283,
      "Ġser": 1284,
      "ĠCl": 1285,
      "Ġel": 1286,
      "Ġlike": 1287,
      "Ġer": 1288,
      "ember": 1289,
      "Ġsurface": 1290,
      "Ùħ": 1291,
      "ially": 1292,
      "ization": 1293,
      "ared": 1294,
      "Ġapplic": 1295,
      "Ġstre": 1296,
      "uit": 1297,
      "Ġdisc": 1298,
      "Ġdel": 1299,
      "Ġcap": 1300,
      "orn": 1301,
      "pond": 1302,
      "cept": 1303,
      "Ġmust": 1304,
      "heid": 1305,
      "____": 1306,
      "60": 1307,
      "Ġvers": 1308,
      "200": 1309,
      "ox": 1310,
      "Ġwherein": 1311,
      "Ġevery": 1312,
      "Ġside": 1313,
      "Ġges": 1314,
      "Ġinf": 1315,
      "ĠAd": 1316,
      "Ġincre": 1317,
      "Ġtem": 1318,
      "Ġinvention": 1319,
      "AC": 1320,
      "Ġuit": 1321,
      "Ã«": 1322,
      "Ġtot": 1323,
      "wer": 1324,
      "Ġposition": 1325,
      "Ġcommun": 1326,
      "Ġfun": 1327,
      "Ġjou": 1328,
      "ms": 1329,
      "Ġpoint": 1330,
      "ĠCon": 1331,
      "ize": 1332,
      "Ġrespect": 1333,
      "40": 1334,
      "rate": 1335,
      "Ġperform": 1336,
      "Ġposs": 1337,
      "ĠTHE": 1338,
      "Ġvo": 1339,
      "28": 1340,
      "Ġportion": 1341,
      "Ġna": 1342,
      "Ġstat": 1343,
      "Ġline": 1344,
      "Ġmeans": 1345,
      "Ġbr": 1346,
      "ather": 1347,
      "Ġ25": 1348,
      "ai": 1349,
      "iqu": 1350,
      "Ġconc": 1351,
      "ende": 1352,
      "ration": 1353,
      "iet": 1354,
      "Ġâ": 1355,
      "Ġ^": 1356,
      "ĠSh": 1357,
      "Ġbes": 1358,
      "ret": 1359,
      "IT": 1360,
      "Ġwithout": 1361,
      "Ġill": 1362,
      "iron": 1363,
      "Ġanal": 1364,
      "ING": 1365,
      "Ġocc": 1366,
      "Ġbest": 1367,
      "Ġtak": 1368,
      "Ġsignal": 1369,
      "app": 1370,
      "Ġknow": 1371,
      "26": 1372,
      "Ġabove": 1373,
      "Ġshown": 1374,
      "Ġdescribed": 1375,
      "gram": 1376,
      "Ġmaterial": 1377,
      "overn": 1378,
      "Ġoor": 1379,
      "Ġreport": 1380,
      "UR": 1381,
      "eral": 1382,
      "Ġduring": 1383,
      "Ġcompris": 1384,
      "ivers": 1385,
      "OL": 1386,
      "Ġfurther": 1387,
      "Ġhulle": 1388,
      "ET": 1389,
      "ertain": 1390,
      "ott": 1391,
      "Ġown": 1392,
      "oun": 1393,
      "mb": 1394,
      "Ġ23": 1395,
      "Ġlo": 1396,
      "Ġdid": 1397,
      "chn": 1398,
      "Ġlayer": 1399,
      "uro": 1400,
      "Ġcall": 1401,
      "Ġmeas": 1402,
      "way": 1403,
      "Ġnetwork": 1404,
      "Ġthree": 1405,
      "amp": 1406,
      "://": 1407,
      "ody": 1408,
      "Ġright": 1409,
      "Ġconsider": 1410,
      "ĠPh": 1411,
      "ird": 1412,
      "ENT": 1413,
      "Ġread": 1414,
      "hor": 1415,
      "Ġfound": 1416,
      "ended": 1417,
      "day": 1418,
      "ĠIf": 1419,
      "Ġpower": 1420,
      "ister": 1421,
      "AS": 1422,
      "Ġref": 1423,
      "ulation": 1424,
      "Ġmake": 1425,
      "orth": 1426,
      "Ġneed": 1427,
      "ĠAf": 1428,
      "sc": 1429,
      "Ġed": 1430,
      "li": 1431,
      "ee": 1432,
      "Ġgu": 1433,
      "Ġstruct": 1434,
      "Ġmany": 1435,
      "Ġaccording": 1436,
      "ital": 1437,
      "iving": 1438,
      "Ùĩ": 1439,
      "read": 1440,
      "80": 1441,
      "ivid": 1442,
      "oi": 1443,
      "sp": 1444,
      "ĠInd": 1445,
      "icle": 1446,
      "Ġuser": 1447,
      "Ġday": 1448,
      "ral": 1449,
      "Ġdaar": 1450,
      "Ġnon": 1451,
      "FIG": 1452,
      "Ġeven": 1453,
      "Ġ100": 1454,
      "med": 1455,
      "Ġcent": 1456,
      "nal": 1457,
      "IL": 1458,
      "eg": 1459,
      "Ġlim": 1460,
      "EC": 1461,
      "Ġdown": 1462,
      "ably": 1463,
      "Ġanother": 1464,
      "Ġgro": 1465,
      "Ġsupport": 1466,
      "xt": 1467,
      "ĠCo": 1468,
      "ĠOn": 1469,
      "for": 1470,
      "Ġstate": 1471,
      "].": 1472,
      "Ġinterest": 1473,
      "Ġcondition": 1474,
      "ĠRes": 1475,
      "Ġsens": 1476,
      "min": 1477,
      "outh": 1478,
      "inc": 1479,
      "Ġpublic": 1480,
      "Ġfore": 1481,
      "Ġsection": 1482,
      "27": 1483,
      "Ġimp": 1484,
      "org": 1485,
      "Ġvalue": 1486,
      "die": 1487,
      "Ġpres": 1488,
      "Ġdra": 1489,
      "Ġear": 1490,
      "ery": 1491,
      "ĠBut": 1492,
      "ason": 1493,
      "ĠFr": 1494,
      "ĠThere": 1495,
      "Ġ199": 1496,
      "ople": 1497,
      "ince": 1498,
      "ining": 1499,
      "Ġadv": 1500,
      "iff": 1501,
      "Ġsw": 1502,
      "Ġmak": 1503,
      "rist": 1504,
      "Ġca": 1505,
      "Ġembodiment": 1506,
      "Ø¨": 1507,
      "rik": 1508,
      "Ġaddition": 1509,
      "ism": 1510,
      "ĠJoh": 1511,
      "oss": 1512,
      "erg": 1513,
      "Ġfollowing": 1514,
      "posed": 1515,
      "oon": 1516,
      "acter": 1517,
      "por": 1518,
      "EL": 1519,
      "Ġgrou": 1520,
      "Ġmot": 1521,
      "val": 1522,
      "ĠCO": 1523,
      "imes": 1524,
      "ification": 1525,
      "Ġdoes": 1526,
      "Ġinclude": 1527,
      "iness": 1528,
      "Ġland": 1529,
      "Ġ/": 1530,
      "Ġ26": 1531,
      "duct": 1532,
      "----": 1533,
      "33": 1534,
      "iod": 1535,
      "29": 1536,
      "Ġant": 1537,
      "ĠØ§": 1538,
      "ering": 1539,
      "II": 1540,
      "Ġstand": 1541,
      "Ø¯": 1542,
      "Ġtri": 1543,
      "Ġopt": 1544,
      "sk": 1545,
      "CH": 1546,
      "ĠAt": 1547,
      "Ġ50": 1548,
      "eb": 1549,
      "not": 1550,
      "Ġlaw": 1551,
      "Ġprovided": 1552,
      "Ġsee": 1553,
      "Ġagainst": 1554,
      "Ġident": 1555,
      "ances": 1556,
      "Ġhier": 1557,
      "idence": 1558,
      "ĠPl": 1559,
      "Ġspe": 1560,
      "Ġgiven": 1561,
      "Ġgl": 1562,
      "Ġplace": 1563,
      "Ġwhile": 1564,
      "Ġobject": 1565,
      "gg": 1566,
      "Ø±": 1567,
      "Ġ28": 1568,
      "Ġmuch": 1569,
      "ource": 1570,
      "ĠSu": 1571,
      "ploy": 1572,
      "Ġassoci": 1573,
      "Ġmen": 1574,
      "Ġindic": 1575,
      "Ġtest": 1576,
      "ves": 1577,
      "TR": 1578,
      "ither": 1579,
      "ters": 1580,
      "Â«": 1581,
      "ĠIN": 1582,
      "ples": 1583,
      "Ġcourt": 1584,
      "Ġkind": 1585,
      "ection": 1586,
      "Ġdirect": 1587,
      "Ġbus": 1588,
      "Ġbased": 1589,
      "Ġav": 1590,
      "Ġcost": 1591,
      "Ġfin": 1592,
      "Ġway": 1593,
      "ï¿": 1594,
      "Ġback": 1595,
      "Ġbro": 1596,
      "mm": 1597,
      "ĠØ§ÙĦ": 1598,
      "Ġdeur": 1599,
      "ology": 1600,
      "Ġstep": 1601,
      "ĠTo": 1602,
      "att": 1603,
      "Ġrev": 1604,
      "ains": 1605,
      ",\"": 1606,
      "ï¿½": 1607,
      "Ġperson": 1608,
      "Ġparticular": 1609,
      "AM": 1610,
      "ĠØ¹": 1611,
      "Ġchar": 1612,
      "ĠGod": 1613,
      "Ġjust": 1614,
      "get": 1615,
      "ĠEng": 1616,
      "az": 1617,
      ".âĢĿ": 1618,
      "Ġfour": 1619,
      "ars": 1620,
      "RO": 1621,
      "ote": 1622,
      "Ġallow": 1623,
      "Ġhead": 1624,
      "ole": 1625,
      "ately": 1626,
      "Ġlast": 1627,
      "bers": 1628,
      "ĠâĢ¢": 1629,
      "like": 1630,
      "Ġservice": 1631,
      "ify": 1632,
      "viron": 1633,
      "ury": 1634,
      "estion": 1635,
      "Ġsmall": 1636,
      "35": 1637,
      "gin": 1638,
      "Ġredu": 1639,
      "aining": 1640,
      "Î±": 1641,
      "Ġook": 1642,
      "rict": 1643,
      "Ġbecause": 1644,
      "Ġvis": 1645,
      "Ġget": 1646,
      "oms": 1647,
      "Ġadj": 1648,
      "ability": 1649,
      "_{": 1650,
      "ceed": 1651,
      "na": 1652,
      "Ġless": 1653,
      "Ġeng": 1654,
      "Â»": 1655,
      "ĠEn": 1656,
      "Ġtransm": 1657,
      "iese": 1658,
      "ĠFig": 1659,
      "itted": 1660,
      "ww": 1661,
      "Ġincluding": 1662,
      "here": 1663,
      ".)": 1664,
      "Ġ27": 1665,
      "alk": 1666,
      "Ġpa": 1667,
      "ior": 1668,
      "elop": 1669,
      "Ġrest": 1670,
      "br": 1671,
      "su": 1672,
      "Ġprot": 1673,
      "ality": 1674,
      "Ġthough": 1675,
      "ĠCol": 1676,
      "lish": 1677,
      "eter": 1678,
      "Ġamount": 1679,
      "aring": 1680,
      "Ġcontin": 1681,
      "Ġ40": 1682,
      "Ġcommunic": 1683,
      "ences": 1684,
      "omm": 1685,
      "ern": 1686,
      "ĠÏ": 1687,
      "ĠSc": 1688,
      "Ġgeb": 1689,
      "lected": 1690,
      "alf": 1691,
      "ending": 1692,
      "45": 1693,
      "EP": 1694,
      "ĠMrs": 1695,
      "ĠSp": 1696,
      "uted": 1697,
      "raph": 1698,
      "ittle": 1699,
      "'t": 1700,
      "Ġlarge": 1701,
      "ently": 1702,
      "Ġexper": 1703,
      "ray": 1704,
      "ĠHow": 1705,
      "Ġ21": 1706,
      "Ġprof": 1707,
      "ression": 1708,
      "ĠComp": 1709,
      "respond": 1710,
      "ĠIs": 1711,
      "Ġ!": 1712,
      "NA": 1713,
      "ata": 1714,
      "Ġlet": 1715,
      "play": 1716,
      "Ġsit": 1717,
      "Ġpay": 1718,
      "ĠBe": 1719,
      "Ġcle": 1720,
      "Ġfind": 1721,
      "ention": 1722,
      "isc": 1723,
      "ĠSch": 1724,
      "ĠØ¨": 1725,
      "Ġsever": 1726,
      "ĠState": 1727,
      "Ġbody": 1728,
      "Ġillust": 1729,
      "Ġmark": 1730,
      "Ġrecord": 1731,
      "Ġresp": 1732,
      "bl": 1733,
      "rag": 1734,
      "Ġx": 1735,
      "Ġpeople": 1736,
      "Ġmov": 1737,
      "Ġactiv": 1738,
      "75": 1739,
      "Ġcompon": 1740,
      "aat": 1741,
      "atic": 1742,
      "Ġarr": 1743,
      "ĠAmer": 1744,
      "Ġmaar": 1745,
      "Ġdevelop": 1746,
      "ĠPr": 1747,
      "ency": 1748,
      "Ġmult": 1749,
      "Ġflow": 1750,
      "Ġbas": 1751,
      "Die": 1752,
      "ef": 1753,
      "Ġlow": 1754,
      "Ġnear": 1755,
      "Ġsubject": 1756,
      "Ġz": 1757,
      "Ġba": 1758,
      "aal": 1759,
      "ĠOr": 1760,
      ");": 1761,
      "Ġfre": 1762,
      "ysis": 1763,
      "ilar": 1764,
      "hip": 1765,
      "reg": 1766,
      "Ġcertain": 1767,
      "Ġconfig": 1768,
      "ĠAll": 1769,
      "LE": 1770,
      "Ġ22": 1771,
      "ĠGen": 1772,
      "Ġmember": 1773,
      "serv": 1774,
      "ĠAND": 1775,
      "Ġauthor": 1776,
      "une": 1777,
      "Ġobt": 1778,
      "Ġ29": 1779,
      "Ġter": 1780,
      "Ġunit": 1781,
      "Ġperiod": 1782,
      "Ġprogram": 1783,
      "Ġcomput": 1784,
      "Ġimage": 1785,
      "36": 1786,
      "dro": 1787,
      "Ġaccess": 1788,
      "Ġdem": 1789,
      "Ġembodiments": 1790,
      "Ġleg": 1791,
      "Ġincludes": 1792,
      "38": 1793,
      "Ġcal": 1794,
      "Ġreceived": 1795,
      "Ġmil": 1796,
      "lex": 1797,
      "ĠApp": 1798,
      "ted": 1799,
      "Ġste": 1800,
      "70": 1801,
      "Ġcurrent": 1802,
      "ĠâĢĵ": 1803,
      "Ġbeh": 1804,
      "Ġtru": 1805,
      "Ġunt": 1806,
      "Ġtake": 1807,
      "Ġtre": 1808,
      "ĠBl": 1809,
      "ĠChrist": 1810,
      "Ġstudy": 1811,
      "ends": 1812,
      "rans": 1813,
      "uur": 1814,
      "Ġmoet": 1815,
      "Ġopp": 1816,
      "Ġrepresent": 1817,
      "Ġwaar": 1818,
      "Ġve": 1819,
      "ried": 1820,
      "ope": 1821,
      "osed": 1822,
      "34": 1823,
      "urg": 1824,
      "ĠMar": 1825,
      "ley": 1826,
      "Ġfunction": 1827,
      "Ġtemper": 1828,
      "agement": 1829,
      "ised": 1830,
      "Ġhum": 1831,
      "Ġmight": 1832,
      "Ġblock": 1833,
      "overnment": 1834,
      "ĠMe": 1835,
      "Ġacid": 1836,
      "Ġstr": 1837,
      "ĠGe": 1838,
      "vironment": 1839,
      "Ġcomb": 1840,
      "Ġhtt": 1841,
      "Ġgre": 1842,
      "Ġreference": 1843,
      "Ġclass": 1844,
      "99": 1845,
      "ĠStates": 1846,
      "agn": 1847,
      "Ġes": 1848,
      "pper": 1849,
      "Ġ60": 1850,
      "Ġair": 1851,
      "Ġche": 1852,
      "ĠÃ": 1853,
      "Ġcre": 1854,
      "atch": 1855,
      "Ġple": 1856,
      "Ġfac": 1857,
      "Ġvoor": 1858,
      "artment": 1859,
      "Ġself": 1860,
      "âĢ¢": 1861,
      "Ġhealth": 1862,
      "55": 1863,
      "Ġformed": 1864,
      "48": 1865,
      "ĸł": 1866,
      "Ġder": 1867,
      "ides": 1868,
      "Ġpress": 1869,
      "Ġconduct": 1870,
      "ID": 1871,
      "Ġapplication": 1872,
      "vol": 1873,
      "xim": 1874,
      "Ġlife": 1875,
      "Ġproduct": 1876,
      "Ġhel": 1877,
      "St": 1878,
      "ling": 1879,
      "ually": 1880,
      "ctor": 1881,
      "Ġsing": 1882,
      "stand": 1883,
      "Ġcells": 1884,
      "ĠThey": 1885,
      "di": 1886,
      "Ġlower": 1887,
      "oek": 1888,
      "Ġorgan": 1889,
      "Ġwr": 1890,
      "ists": 1891,
      "semb": 1892,
      "):": 1893,
      "Ġsent": 1894,
      "Ġmodel": 1895,
      "US": 1896,
      "Ġwant": 1897,
      "Ġthird": 1898,
      "orld": 1899,
      "ges": 1900,
      "Ġdesign": 1901,
      "Ġimport": 1902,
      "urs": 1903,
      "46": 1904,
      "90": 1905,
      "Ġsha": 1906,
      "Ġnecess": 1907,
      "Ġresults": 1908,
      "Ġprovide": 1909,
      "Ġlittle": 1910,
      "Ġcharacter": 1911,
      "rel": 1912,
      "rated": 1913,
      "Ġtreat": 1914,
      "ï¿½ï¿½": 1915,
      "ken": 1916,
      "with": 1917,
      "Ġcorrespond": 1918,
      "ware": 1919,
      "Ġ\\": 1920,
      "atis": 1921,
      "Ġstructure": 1922,
      "Ġimpro": 1923,
      "Ġbase": 1924,
      "Î¿": 1925,
      "Â°": 1926,
      "ĠSy": 1927,
      "Ġtaken": 1928,
      "ĠWhen": 1929,
      "ĠJohn": 1930,
      "cent": 1931,
      "Ġrate": 1932,
      "Ġemploy": 1933,
      "Ġcircuit": 1934,
      "ma": 1935,
      "ÙĪ": 1936,
      "Ġwhether": 1937,
      "ads": 1938,
      "lied": 1939,
      "ccess": 1940,
      "Ġweek": 1941,
      "Ġcover": 1942,
      "Ġamong": 1943,
      "Ġgroup": 1944,
      "Ġaccount": 1945,
      "ĠAmeric": 1946,
      "self": 1947,
      "iol": 1948,
      "Ġonder": 1949,
      "ker": 1950,
      "Ġgeneral": 1951,
      "ential": 1952,
      "Ġris": 1953,
      "Ġlook": 1954,
      "Ġ48": 1955,
      "lished": 1956,
      "Ġprefer": 1957,
      "ele": 1958,
      "78": 1959,
      "Ġ+": 1960,
      "Ġfr": 1961,
      "onder": 1962,
      "itor": 1963,
      "urch": 1964,
      "Ġvarious": 1965,
      "cul": 1966,
      "Ġdisplay": 1967,
      "oot": 1968,
      "Ġfam": 1969,
      "Th": 1970,
      "ĠWill": 1971,
      "fe": 1972,
      "ĠNO": 1973,
      "ength": 1974,
      "Ġassociated": 1975,
      ",âĢĿ": 1976,
      "AP": 1977,
      "ĠDr": 1978,
      "vers": 1979,
      "enc": 1980,
      "ards": 1981,
      "ĠâĪ": 1982,
      "Ġtechn": 1983,
      "Ġold": 1984,
      "ĠMan": 1985,
      "ĠMay": 1986,
      "Ġarea": 1987,
      "ats": 1988,
      "ĠAm": 1989,
      "ina": 1990,
      "wh": 1991,
      "la": 1992,
      "ung": 1993,
      "action": 1994,
      "idd": 1995,
      "ask": 1996,
      "Î¹": 1997,
      "vious": 1998,
      "Ġdistrib": 1999,
      "itive": 2000,
      "itte": 2001,
      "Ġpri": 2002,
      "Ġquestion": 2003,
      "Ġdue": 2004,
      "ames": 2005,
      "37": 2006,
      "gor": 2007,
      "Ġgive": 2008,
      "TER": 2009,
      "Ġmonth": 2010,
      "Ġbusiness": 2011,
      "Ġknown": 2012,
      "Ġcommon": 2013,
      "uis": 2014,
      "Ġ31": 2015,
      "Ġhome": 2016,
      "Ġnever": 2017,
      "unt": 2018,
      "ĠCommission": 2019,
      "Ġrequired": 2020,
      "Ġvari": 2021,
      "Ġregion": 2022,
      "iam": 2023,
      "Ġmeet": 2024,
      "ĠThat": 2025,
      "inn": 2026,
      "Ġstor": 2027,
      "Ġpred": 2028,
      "Ġsource": 2029,
      "Ġhierdie": 2030,
      "39": 2031,
      "ume": 2032,
      "Ġtop": 2033,
      "ession": 2034,
      "Ġindivid": 2035,
      "Ġjud": 2036,
      "44": 2037,
      "05": 2038,
      "uf": 2039,
      "Ġeen": 2040,
      "Ġflu": 2041,
      "31": 2042,
      "ten": 2043,
      "Ġpossible": 2044,
      "ument": 2045,
      "oud": 2046,
      "osp": 2047,
      "fficient": 2048,
      "pre": 2049,
      "ext": 2050,
      "ĠSec": 2051,
      "ĠRep": 2052,
      "eds": 2053,
      "Ġ<": 2054,
      "Ġsch": 2055,
      "89": 2056,
      "Ġtw": 2057,
      "Ġpost": 2058,
      "Ġfull": 2059,
      "Ġproble": 2060,
      "Ġchang": 2061,
      "gment": 2062,
      "ĠDep": 2063,
      "ĠAct": 2064,
      "apt": 2065,
      "Ġprom": 2066,
      "Ġsay": 2067,
      "oll": 2068,
      "Ġreturn": 2069,
      "uk": 2070,
      "uation": 2071,
      "Ġaff": 2072,
      "Ġname": 2073,
      "atus": 2074,
      "Ġproject": 2075,
      "ĠUnited": 2076,
      "Ġ)": 2077,
      "Ġcountry": 2078,
      "ĠØ¨ÙĨ": 2079,
      "ĠCar": 2080,
      "plement": 2081,
      "ĠYork": 2082,
      "erc": 2083,
      "aut": 2084,
      "Ġalong": 2085,
      "Ġexpl": 2086,
      "used": 2087,
      "67": 2088,
      "Ġobserv": 2089,
      "Ġdays": 2090,
      "Ġexam": 2091,
      "Ġbre": 2092,
      "Ġhard": 2093,
      "ĠGr": 2094,
      "rop": 2095,
      "sequ": 2096,
      "leg": 2097,
      "enn": 2098,
      "Ġhig": 2099,
      "Ġappear": 2100,
      "Ġconnected": 2101,
      "ways": 2102,
      "ored": 2103,
      "Ġcou": 2104,
      "Ġleft": 2105,
      "line": 2106,
      "Ġput": 2107,
      "Ġstill": 2108,
      "aces": 2109,
      "Ġoperation": 2110,
      "Ġcases": 2111,
      "ription": 2112,
      "ension": 2113,
      "Ġbegin": 2114,
      "cont": 2115,
      "Ġli": 2116,
      "ements": 2117,
      "Ġsequ": 2118,
      "Î½": 2119,
      "Ø³": 2120,
      "Ġdeg": 2121,
      "atory": 2122,
      "lection": 2123,
      "ĠBro": 2124,
      "Ġinvest": 2125,
      "ĠRo": 2126,
      "ety": 2127,
      "ruik": 2128,
      "ĠEuro": 2129,
      "ĠBy": 2130,
      "Ġeither": 2131,
      "Ġ{": 2132,
      "Ġseveral": 2133,
      "Ġhelp": 2134,
      "74": 2135,
      "ĠAss": 2136,
      "lor": 2137,
      "icro": 2138,
      "RI": 2139,
      "Ġreason": 2140,
      "Ġwa": 2141,
      "ered": 2142,
      "arent": 2143,
      "Ġont": 2144,
      "Ġlater": 2145,
      "Ġdu": 2146,
      "Ġthus": 2147,
      "Ġden": 2148,
      "Ġcare": 2149,
      "arn": 2150,
      "Ġcontact": 2151,
      "Ġsil": 2152,
      "RE": 2153,
      "Ġinput": 2154,
      "Ġproperty": 2155,
      "Ġcomprising": 2156,
      "Ġorig": 2157,
      "Ġestab": 2158,
      "oog": 2159,
      "ĠThese": 2160,
      "Ġavail": 2161,
      "Ġ2013": 2162,
      "Ġabs": 2163,
      "Ġelement": 2164,
      "Ġsom": 2165,
      "ĠSo": 2166,
      "Ġlevel": 2167,
      "**": 2168,
      "Ġoutput": 2169,
      "son": 2170,
      "Ġfield": 2171,
      "ĠCor": 2172,
      "ĠAug": 2173,
      "aps": 2174,
      "Ġtemperature": 2175,
      "ries": 2176,
      "Ġdiff": 2177,
      "iek": 2178,
      "ĠBr": 2179,
      "chan": 2180,
      "Ġbaie": 2181,
      "AD": 2182,
      "hib": 2183,
      "âĢľ": 2184,
      "Ġinstru": 2185,
      "iversity": 2186,
      "Ġann": 2187,
      "ĠShe": 2188,
      "lig": 2189,
      "ources": 2190,
      "32": 2191,
      "Ġthink": 2192,
      "77": 2193,
      "Ġmatter": 2194,
      "Ġlead": 2195,
      "ĠNov": 2196,
      "Ġuntil": 2197,
      "Ġgaan": 2198,
      "Ġcontent": 2199,
      "Ġpot": 2200,
      "ĠCompany": 2201,
      "Ġut": 2202,
      "ĠAg": 2203,
      "ogn": 2204,
      "Ġfew": 2205,
      "100": 2206,
      "49": 2207,
      ".âĢĶ": 2208,
      "ience": 2209,
      "aced": 2210,
      "ĠØ£": 2211,
      "Ġlocal": 2212,
      "Ġcity": 2213,
      "Ġmar": 2214,
      "Ġhowever": 2215,
      "iting": 2216,
      "Ġsimilar": 2217,
      "Ġ35": 2218,
      "Ġchild": 2219,
      "Ġbi": 2220,
      "Ġaddress": 2221,
      "Ġmeer": 2222,
      "Ġoffic": 2223,
      "Ġwhole": 2224,
      "ament": 2225,
      "Ġmill": 2226,
      "Ġhour": 2227,
      "Ġreal": 2228,
      "Ġheld": 2229,
      "Ġten": 2230,
      "asie": 2231,
      "ĠCour": 2232,
      "Ġrequire": 2233,
      "OS": 2234,
      "88": 2235,
      "eling": 2236,
      "Ġiss": 2237,
      "vo": 2238,
      "Ġherein": 2239,
      "ems": 2240,
      "ĠDit": 2241,
      "Ġbed": 2242,
      "Ġhom": 2243,
      "42": 2244,
      "ients": 2245,
      "Ġsingle": 2246,
      "Ġpract": 2247,
      "66": 2248,
      "vey": 2249,
      "Ġvolt": 2250,
      "Ġing": 2251,
      "Ġevidence": 2252,
      "Ġrele": 2253,
      "TION": 2254,
      "Ġwees": 2255,
      "ixed": 2256,
      "ĠST": 2257,
      "Ġmean": 2258,
      "ĠRev": 2259,
      "Ġnat": 2260,
      "pes": 2261,
      "Ġtimes": 2262,
      "ideo": 2263,
      "ificant": 2264,
      "âĢĺ": 2265,
      "ror": 2266,
      "ots": 2267,
      "Ġneg": 2268,
      "iple": 2269,
      "Ġanalysis": 2270,
      "Ġbene": 2271,
      "ĠJan": 2272,
      "Ġchange": 2273,
      "Ġprocessing": 2274,
      "Ġelectro": 2275,
      "Ġplural": 2276,
      "medi": 2277,
      "ÏĦ": 2278,
      "ids": 2279,
      "utions": 2280,
      "Ġkom": 2281,
      "Ġcalled": 2282,
      "ĠNe": 2283,
      "ĠMiss": 2284,
      "________": 2285,
      "ĠMed": 2286,
      "Ġsoos": 2287,
      "Ġcontroll": 2288,
      "Ġpriv": 2289,
      "Ġdirection": 2290,
      "Ġvia": 2291,
      "iment": 2292,
      "ittee": 2293,
      "Ġwind": 2294,
      "Ġaction": 2295,
      "Ġmeasure": 2296,
      "Ġwar": 2297,
      "den": 2298,
      "pose": 2299,
      "Ġgas": 2300,
      "Ġpop": 2301,
      "usion": 2302,
      "Ġexist": 2303,
      "Ġhouse": 2304,
      "Ġax": 2305,
      "Ġmor": 2306,
      "lement": 2307,
      "ĠPar": 2308,
      "Ġwire": 2309,
      "Ġbar": 2310,
      "Ø¹": 2311,
      "oney": 2312,
      "ĠTe": 2313,
      "use": 2314,
      "ae": 2315,
      "Ġrot": 2316,
      "Ġfar": 2317,
      "Ġfrequ": 2318,
      "Ġmemory": 2319,
      "abor": 2320,
      "_(": 2321,
      "van": 2322,
      "onse": 2323,
      "Ġindividual": 2324,
      "Ġetc": 2325,
      "Ġremov": 2326,
      "ĠEk": 2327,
      "ules": 2328,
      "EM": 2329,
      "itud": 2330,
      "Ġdetect": 2331,
      "Ġged": 2332,
      "Ġcome": 2333,
      "ison": 2334,
      "Ġou": 2335,
      "pri": 2336,
      "inter": 2337,
      "Ġyet": 2338,
      "65": 2339,
      "des": 2340,
      "ony": 2341,
      "Ġtype": 2342,
      "Ġplurality": 2343,
      "ĠHy": 2344,
      "Ġtub": 2345,
      "Ġmain": 2346,
      "OM": 2347,
      "Ġfri": 2348,
      "aratus": 2349,
      "aak": 2350,
      "part": 2351,
      "Ġtoo": 2352,
      "Ġestim": 2353,
      "47": 2354,
      "Ġwall": 2355,
      "Ġ>": 2356,
      "augh": 2357,
      "ournal": 2358,
      "ĠSte": 2359,
      "Ġregard": 2360,
      "utes": 2361,
      "ĠCH": 2362,
      "izing": 2363,
      "Ġbelow": 2364,
      "Ġdeliver": 2365,
      "Ġmount": 2366,
      "ye": 2367,
      "sembly": 2368,
      "Ġpattern": 2369,
      "Ġfree": 2370,
      "ĠSouth": 2371,
      "Ġspecific": 2372,
      "ipp": 2373,
      "85": 2374,
      "Ġhold": 2375,
      "Ġhaar": 2376,
      "Ġprob": 2377,
      "02": 2378,
      "Ġang": 2379,
      "ille": 2380,
      "Ġtherefore": 2381,
      "Ġpoly": 2382,
      "Îµ": 2383,
      "43": 2384,
      "As": 2385,
      "Ġinit": 2386,
      "idge": 2387,
      "though": 2388,
      "Ġhuman": 2389,
      "69": 2390,
      "bon": 2391,
      "co": 2392,
      "Ġimplement": 2393,
      "ached": 2394,
      "ney": 2395,
      "aster": 2396,
      "Ġmer": 2397,
      "Ø§ÙĦ": 2398,
      "Ġcannot": 2399,
      "Ġhalf": 2400,
      "ĠHowever": 2401,
      "Ġcause": 2402,
      "bed": 2403,
      "Ġsince": 2404,
      "ino": 2405,
      "Ġcross": 2406,
      "Ġcy": 2407,
      "ett": 2408,
      "Ġcontract": 2409,
      "Ãªre": 2410,
      "ari": 2411,
      "ster": 2412,
      "rm": 2413,
      "Ġlength": 2414,
      "Ġexec": 2415,
      "Ġdiscl": 2416,
      "ÙĨØ§": 2417,
      "Ġarrang": 2418,
      "Ġshort": 2419,
      "ĠApr": 2420,
      "wing": 2421,
      "Ġalm": 2422,
      "rodu": 2423,
      "ĠCount": 2424,
      "Ġworld": 2425,
      "ls": 2426,
      "Ġground": 2427,
      "Ġsize": 2428,
      "Ġhist": 2429,
      "OD": 2430,
      "now": 2431,
      "Ġsepar": 2432,
      "ological": 2433,
      "ØŃ": 2434,
      "Ġfail": 2435,
      "Ġsuit": 2436,
      "Ġconditions": 2437,
      "Ġplan": 2438,
      "âĢ²": 2439,
      "Ġtreatment": 2440,
      "ha": 2441,
      "ieve": 2442,
      "Ġnext": 2443,
      "Af": 2444,
      "ĠYou": 2445,
      ".-": 2446,
      "eal": 2447,
      "Ġpack": 2448,
      "ĠOff": 2449,
      "ĠCourt": 2450,
      "Ġdevices": 2451,
      "hing": 2452,
      "rim": 2453,
      "ĠEurope": 2454,
      "ference": 2455,
      "Ġbuild": 2456,
      "Ġgel": 2457,
      "bo": 2458,
      "omen": 2459,
      "Ġsuccess": 2460,
      "Ġtoe": 2461,
      "ĠOne": 2462,
      "elling": 2463,
      "elt": 2464,
      "Ġturn": 2465,
      "OT": 2466,
      "ĠMy": 2467,
      "Fig": 2468,
      "Ġdefend": 2469,
      "Ïģ": 2470,
      "Ġapparatus": 2471,
      "Ġvoltage": 2472,
      "reen": 2473,
      "EE": 2474,
      "ches": 2475,
      "Ġdom": 2476,
      "Ġdetail": 2477,
      "oop": 2478,
      "UL": 2479,
      "ĠBo": 2480,
      "ustom": 2481,
      "Ġprior": 2482,
      "ĠGu": 2483,
      "Ġarm": 2484,
      "IR": 2485,
      "Ġinvol": 2486,
      "hold": 2487,
      "stit": 2488,
      "Ġvert": 2489,
      "Ġhttps": 2490,
      "Ġadjust": 2491,
      "ograph": 2492,
      "Ġnecessary": 2493,
      "86": 2494,
      "ĠAb": 2495,
      "ript": 2496,
      "Ġdou": 2497,
      "Ġavailable": 2498,
      "etic": 2499,
      "ĠMc": 2500,
      "Ġrun": 2501,
      "Ġtax": 2502,
      "ĠJu": 2503,
      "ĠReg": 2504,
      "Ġcomprises": 2505,
      "itle": 2506,
      "uration": 2507,
      "Ġmense": 2508,
      "inary": 2509,
      "osition": 2510,
      "wards": 2511,
      "Ġperm": 2512,
      "Ġschool": 2513,
      "71": 2514,
      "Ġmaak": 2515,
      "................................": 2516,
      "oph": 2517,
      "lt": 2518,
      "Ġpressure": 2519,
      "Ġlang": 2520,
      "Ġplay": 2521,
      "ĠStre": 2522,
      "OC": 2523,
      "ĠMet": 2524,
      "Ġphys": 2525,
      "Ġhul": 2526,
      "Ġcontinu": 2527,
      "cer": 2528,
      "ĠMa": 2529,
      "Ġrequest": 2530,
      ")(": 2531,
      "iding": 2532,
      "Ġcomputer": 2533,
      "Ġander": 2534,
      "teg": 2535,
      "Ġmodule": 2536,
      "Ġhydro": 2537,
      "Ġsuper": 2538,
      "Ġagre": 2539,
      "Ġfram": 2540,
      "Ġheat": 2541,
      "icy": 2542,
      "ĠPa": 2543,
      "Î·": 2544,
      "Ġox": 2545,
      "ĠWith": 2546,
      "yk": 2547,
      "Ġdone": 2548,
      "endent": 2549,
      "que": 2550,
      "ĠII": 2551,
      "Ġprevious": 2552,
      "Ġvalues": 2553,
      "Ġmembers": 2554,
      "Â¬": 2555,
      "Ġsignificant": 2556,
      "Ġterms": 2557,
      "Ġchann": 2558,
      "ĠCont": 2559,
      "Ġpath": 2560,
      "Ġobtained": 2561,
      "Ġsale": 2562,
      "Ġmach": 2563,
      "Ġgate": 2564,
      "Ġsem": 2565,
      "Ġdig": 2566,
      "Ġfilm": 2567,
      "Ġcommunication": 2568,
      "95": 2569,
      "ibility": 2570,
      "04": 2571,
      "ler": 2572,
      "ĠWilliam": 2573,
      "itting": 2574,
      "ij": 2575,
      "Ġdise": 2576,
      "Ġthereof": 2577,
      "END": 2578,
      "Re": 2579,
      "ders": 2580,
      "Ġbott": 2581,
      "ĠSee": 2582,
      "ede": 2583,
      "AB": 2584,
      "Ġentire": 2585,
      "64": 2586,
      "doi": 2587,
      "Ġ32": 2588,
      "Ġgenerally": 2589,
      "itch": 2590,
      "asing": 2591,
      "Ġmechan": 2592,
      "mp": 2593,
      "acy": 2594,
      "vironmental": 2595,
      "PP": 2596,
      "ift": 2597,
      "go": 2598,
      "Ġide": 2599,
      "Ġtoget": 2600,
      "],": 2601,
      "Ġhoe": 2602,
      "Ġmanner": 2603,
      "Ġprim": 2604,
      "Ġdoc": 2605,
      "ĠCal": 2606,
      "Ġaccord": 2607,
      "Ġaffect": 2608,
      "ĠTra": 2609,
      "aintiff": 2610,
      "ruction": 2611,
      "Ġbetter": 2612,
      "Ġwerk": 2613,
      "Ġstart": 2614,
      "Ġtogether": 2615,
      "Ġpub": 2616,
      "illed": 2617,
      "Ġincrease": 2618,
      "Ġtotal": 2619,
      "Ġcut": 2620,
      "Ġeff": 2621,
      "ĠQu": 2622,
      "UT": 2623,
      "minist": 2624,
      "Ġcorresponding": 2625,
      "Ġfront": 2626,
      "Ġenc": 2627,
      "ĠOct": 2628,
      "cle": 2629,
      "Ġdiv": 2630,
      "Ġsix": 2631,
      "79": 2632,
      "inder": 2633,
      "ores": 2634,
      "onst": 2635,
      "ables": 2636,
      "^^": 2637,
      "Ġstorage": 2638,
      "jor": 2639,
      "Ġothers": 2640,
      "Ġask": 2641,
      "gy": 2642,
      "Ġexc": 2643,
      "iers": 2644,
      "Ġstreet": 2645,
      "Ġpet": 2646,
      "Ġmaint": 2647,
      "Ġapplied": 2648,
      "elik": 2649,
      "ival": 2650,
      "Ġselected": 2651,
      "ucle": 2652,
      "opy": 2653,
      "Ġgebruik": 2654,
      "itation": 2655,
      "aste": 2656,
      "Ġhimself": 2657,
      "ones": 2658,
      "ands": 2659,
      "Ġoffer": 2660,
      "Ġcompl": 2661,
      "Ġrese": 2662,
      "bt": 2663,
      "ulf": 2664,
      "bs": 2665,
      "cing": 2666,
      "Ġfund": 2667,
      "Ġund": 2668,
      "Ġshows": 2669,
      "Ġstock": 2670,
      "aged": 2671,
      "Ġdecl": 2672,
      "iter": 2673,
      "Ġconfigured": 2674,
      "It": 2675,
      "Ġvideo": 2676,
      "che": 2677,
      "mo": 2678,
      "ened": 2679,
      "Ġmat": 2680,
      "rol": 2681,
      "irm": 2682,
      "Ġcompound": 2683,
      "Ġregul": 2684,
      "Ġparty": 2685,
      "position": 2686,
      "ĠSept": 2687,
      "Ġbenef": 2688,
      "osure": 2689,
      "Ġdetermined": 2690,
      "06": 2691,
      "ĠâĪĴ": 2692,
      "Ġ34": 2693,
      "ĠAmerican": 2694,
      "Ġmm": 2695,
      "ĠApril": 2696,
      "Ġans": 2697,
      "ington": 2698,
      "Ġexpect": 2699,
      "AY": 2700,
      "Ġgroot": 2701,
      "ethyl": 2702,
      "Ġloss": 2703,
      "Ġsolution": 2704,
      "Ġalways": 2705,
      "Ġconsist": 2706,
      "CC": 2707,
      "kt": 2708,
      "Ġtown": 2709,
      "Ġweight": 2710,
      "ternal": 2711,
      "Ġforce": 2712,
      "Ġcorre": 2713,
      "Ġaud": 2714,
      "Ġwil": 2715,
      "Ġeas": 2716,
      "Ġlines": 2717,
      "Ġrule": 2718,
      "Ã¤": 2719,
      "Ġsubstant": 2720,
      "Ġoccur": 2721,
      "ĠFeb": 2722,
      "ham": 2723,
      "omp": 2724,
      "Ġcred": 2725,
      "aard": 2726,
      "Ġinde": 2727,
      "Ġreview": 2728,
      "Ġclear": 2729,
      "atisf": 2730,
      "dra": 2731,
      "82": 2732,
      "Ġsou": 2733,
      "Ġ00": 2734,
      "ĠPer": 2735,
      "rical": 2736,
      "ĠEd": 2737,
      "81": 2738,
      "76": 2739,
      "off": 2740,
      "sy": 2741,
      "Ġdiscuss": 2742,
      "Ġmanagement": 2743,
      ".:": 2744,
      "Ġanim": 2745,
      "iction": 2746,
      "ĠHar": 2747,
      "Î¼": 2748,
      "Ġproceed": 2749,
      "59": 2750,
      "ergy": 2751,
      "eks": 2752,
      "atively": 2753,
      "ilities": 2754,
      "ians": 2755,
      "Ġpurch": 2756,
      "Ġ36": 2757,
      "Ġmass": 2758,
      "ĠDepartment": 2759,
      "Ġlist": 2760,
      "Ġ2019": 2761,
      ".'": 2762,
      "ires": 2763,
      "ided": 2764,
      "ales": 2765,
      "ĠJune": 2766,
      "Ġrange": 2767,
      "sel": 2768,
      "Ġseen": 2769,
      "arget": 2770,
      "ators": 2771,
      "aging": 2772,
      "Ġcourse": 2773,
      "istance": 2774,
      "Ġrecogn": 2775,
      "Ġhigher": 2776,
      "ÙĦÙĩ": 2777,
      "Ġperformed": 2778,
      "73": 2779,
      "Ġcontrib": 2780,
      "54": 2781,
      "Ġgem": 2782,
      "Ġmess": 2783,
      "ronic": 2784,
      "ĠSm": 2785,
      "oper": 2786,
      "ĠÙĪ": 2787,
      "bert": 2788,
      "Ġcapac": 2789,
      "ĠHouse": 2790,
      "Øª": 2791,
      "00000": 2792,
      "ST": 2793,
      "fect": 2794,
      "cem": 2795,
      "Ġsum": 2796,
      "Ġreceive": 2797,
      "load": 2798,
      "OW": 2799,
      "Ġveh": 2800,
      "ĠEl": 2801,
      "xx": 2802,
      "Ġprice": 2803,
      "83": 2804,
      "ĠSen": 2805,
      "Ġadditional": 2806,
      "uel": 2807,
      "Ġassess": 2808,
      "--------": 2809,
      "oen": 2810,
      "Ġnog": 2811,
      "Ġgrow": 2812,
      "ĠPart": 2813,
      "ĠFigure": 2814,
      "ondu": 2815,
      "ressed": 2816,
      "htt": 2817,
      "ĠOf": 2818,
      "ĠUniversity": 2819,
      "venue": 2820,
      "hy": 2821,
      "ira": 2822,
      "Ġmaking": 2823,
      "Ġcomponent": 2824,
      "Ġupper": 2825,
      "uth": 2826,
      "ancial": 2827,
      "ged": 2828,
      "ĠDIS": 2829,
      "Ġir": 2830,
      "Ġmethods": 2831,
      "ĠInt": 2832,
      "uture": 2833,
      "}\\": 2834,
      "ĠBar": 2835,
      "aking": 2836,
      "ĠChar": 2837,
      "03": 2838,
      "Ġrelated": 2839,
      "Ġmoney": 2840,
      "Ġable": 2841,
      "Ġlarg": 2842,
      "Ġgovernment": 2843,
      "ĠID": 2844,
      "asion": 2845,
      "ĠCan": 2846,
      "eters": 2847,
      "IV": 2848,
      "ero": 2849,
      "ĠCent": 2850,
      "ĠJuly": 2851,
      "Ġstra": 2852,
      "ander": 2853,
      "Ch": 2854,
      "atures": 2855,
      "ĠPat": 2856,
      "ATION": 2857,
      "ÂŃ": 2858,
      "Ġhor": 2859,
      "men": 2860,
      "âĸł": 2861,
      "Ġonce": 2862,
      "ufact": 2863,
      "Ġnou": 2864,
      "section": 2865,
      "Ġpast": 2866,
      "87": 2867,
      "ĠLi": 2868,
      "SA": 2869,
      "enz": 2870,
      "Ġhous": 2871,
      "ĠAugust": 2872,
      "ĠHis": 2873,
      "Ġarg": 2874,
      "Ġlimited": 2875,
      "ĠVol": 2876,
      "see": 2877,
      "Ġ80": 2878,
      "Ġsugg": 2879,
      "Ġpurpose": 2880,
      "Ġstrong": 2881,
      "Ġcompany": 2882,
      "Ġaccordance": 2883,
      "Ġelements": 2884,
      "tic": 2885,
      "Ġmix": 2886,
      "ding": 2887,
      "isions": 2888,
      "Ġaccept": 2889,
      "41": 2890,
      "Ġoften": 2891,
      "eterm": 2892,
      "omic": 2893,
      "cil": 2894,
      "ĠAcc": 2895,
      "Ġselect": 2896,
      "Ġcomponents": 2897,
      "Ġaway": 2898,
      "ĠTO": 2899,
      "ĠWhat": 2900,
      "ĠStreet": 2901,
      "Ġdon": 2902,
      "ĠFOR": 2903,
      "ryf": 2904,
      "Ġ%": 2905,
      "Ġage": 2906,
      "Ġfive": 2907,
      "rought": 2908,
      "SS": 2909,
      "ĠNot": 2910,
      "ops": 2911,
      "alle": 2912,
      "Ġmicro": 2913,
      "Ġouter": 2914,
      "Ġprinc": 2915,
      "Ġsite": 2916,
      "Ġtyd": 2917,
      "Ġservices": 2918,
      "Ġrat": 2919,
      "Ġopening": 2920,
      "Ġtrial": 2921,
      "CHO": 2922,
      "Ã¡": 2923,
      "TS": 2924,
      "Ġred": 2925,
      "Ġtransfer": 2926,
      "Ġtable": 2927,
      "Ġfav": 2928,
      "oes": 2929,
      "ĠPol": 2930,
      "Ġmotion": 2931,
      "Ġsoft": 2932,
      "Ġconnection": 2933,
      "Ġlik": 2934,
      "Ġbra": 2935,
      "Ġmus": 2936,
      "ĠTable": 2937,
      "Ġprep": 2938,
      "Ġstation": 2939,
      "Ġconcent": 2940,
      "Ġimportant": 2941,
      "Ġdeath": 2942,
      "Al": 2943,
      "Ġlog": 2944,
      "Ġcustom": 2945,
      "Ġfa": 2946,
      "ĠPre": 2947,
      "Ġjaar": 2948,
      "empt": 2949,
      "Ġson": 2950,
      "Ġ2018": 2951,
      "room": 2952,
      "Ġacqu": 2953,
      "Ġyoung": 2954,
      "An": 2955,
      "Ġinteg": 2956,
      "ulating": 2957,
      "Ġwhose": 2958,
      "orts": 2959,
      "Ġincluded": 2960,
      "Ġfeet": 2961,
      "ÏĤ": 2962,
      "ening": 2963,
      "oxy": 2964,
      "osis": 2965,
      "obile": 2966,
      "Ġaver": 2967,
      "Ġteen": 2968,
      "ready": 2969,
      "Ġdate": 2970,
      "oman": 2971,
      "irit": 2972,
      "Ġparts": 2973,
      "Ġgew": 2974,
      "ĠÂ«": 2975,
      "inion": 2976,
      "ande": 2977,
      "IM": 2978,
      "Ġtrue": 2979,
      "lying": 2980,
      "Ġrespons": 2981,
      "##": 2982,
      "Ġsumm": 2983,
      "rika": 2984,
      "Ġdistribution": 2985,
      "Ġbook": 2986,
      "aly": 2987,
      "Ġkeep": 2988,
      "ui": 2989,
      "igg": 2990,
      "ĠPres": 2991,
      "Ġarticle": 2992,
      "Ġcame": 2993,
      "Ġwords": 2994,
      "Ġsystems": 2995,
      "ormal": 2996,
      "car": 2997,
      "ĠCity": 2998,
      "that": 2999,
      "Ġoptical": 3000,
      "ĠOffice": 3001,
      "Ġdam": 3002,
      "Ġnight": 3003,
      "Ġquant": 3004,
      "ledge": 3005,
      "Ġanswer": 3006,
      "aling": 3007,
      "ĠDO": 3008,
      "84": 3009,
      "ĠWest": 3010,
      "Ġconsidered": 3011,
      "Ġillustr": 3012,
      "cember": 3013,
      "aas": 3014,
      "Ġcode": 3015,
      "ĠTrans": 3016,
      "lie": 3017,
      "poses": 3018,
      "anger": 3019,
      "Ġgrant": 3020,
      "^{": 3021,
      "Ġ45": 3022,
      "Ġsubstrate": 3023,
      "lag": 3024,
      "AG": 3025,
      "set": 3026,
      "icult": 3027,
      "ilt": 3028,
      "ĠPhys": 3029,
      "Ġaspect": 3030,
      "Ġeval": 3031,
      "ties": 3032,
      "Ġsam": 3033,
      "Ġho": 3034,
      "Ġhol": 3035,
      "Ġassembly": 3036,
      "Ġplaintiff": 3037,
      "Ġspace": 3038,
      "96": 3039,
      "Ġsex": 3040,
      "Ġrelative": 3041,
      "Ġgreater": 3042,
      "Ex": 3043,
      "ump": 3044,
      "ĠIntern": 3045,
      "ĠÙħ": 3046,
      "Ġsatisf": 3047,
      "urity": 3048,
      "olution": 3049,
      "Ġnu": 3050,
      "itten": 3051,
      "ĠAL": 3052,
      "rew": 3053,
      "lim": 3054,
      "ĠÂ§": 3055,
      "Ġconstit": 3056,
      "ĠÎ¼": 3057,
      "ĠGerm": 3058,
      "ĠThus": 3059,
      "new": 3060,
      "Ġadded": 3061,
      "ĠNorth": 3062,
      "vert": 3063,
      "Ġplant": 3064,
      "CE": 3065,
      "Ġwhom": 3066,
      "Ġep": 3067,
      "based": 3068,
      "jie": 3069,
      "Ġthings": 3070,
      "Ġrad": 3071,
      "ows": 3072,
      "Ã³": 3073,
      "Ġbill": 3074,
      "UN": 3075,
      "ICT": 3076,
      "ĠAfter": 3077,
      "ĠBrit": 3078,
      "ams": 3079,
      "amer": 3080,
      "Ġcounty": 3081,
      "Ġgek": 3082,
      "ĠMin": 3083,
      "Ġcalcul": 3084,
      "72": 3085,
      "ĠÂ»": 3086,
      "Ġdan": 3087,
      "istic": 3088,
      "Ġcomplet": 3089,
      "Ġfall": 3090,
      "Ġreported": 3091,
      "vant": 3092,
      "ĠPe": 3093,
      "Ġpp": 3094,
      "igned": 3095,
      "Ġsold": 3096,
      "Ġthought": 3097,
      "unction": 3098,
      "math": 3099,
      "wys": 3100,
      "Ġmis": 3101,
      "09": 3102,
      "Ġpair": 3103,
      "wise": 3104,
      "oto": 3105,
      "Ġalready": 3106,
      "Ġresponse": 3107,
      "56": 3108,
      "oid": 3109,
      "ederal": 3110,
      "Ġfile": 3111,
      "empl": 3112,
      "Ġpatients": 3113,
      "Ġincreased": 3114,
      "Ġ...": 3115,
      "Ġnature": 3116,
      "ĠKe": 3117,
      "ĠGeneral": 3118,
      "Ġminim": 3119,
      "Ġhapp": 3120,
      "Ġimm": 3121,
      "53": 3122,
      "Ġsett": 3123,
      "IB": 3124,
      "aves": 3125,
      "Ġmind": 3126,
      "Ġnor": 3127,
      "rug": 3128,
      "Ġmarket": 3129,
      "Ġlink": 3130,
      "ture": 3131,
      "rying": 3132,
      "Ġliqu": 3133,
      "ĠIm": 3134,
      "ĠKing": 3135,
      "Ġ2020": 3136,
      "Ġfamily": 3137,
      "Ġ39": 3138,
      "py": 3139,
      "raction": 3140,
      "ĠInc": 3141,
      "Ġdefined": 3142,
      "Ġspecial": 3143,
      "Ġmonths": 3144,
      "Ïĥ": 3145,
      "Ġdut": 3146,
      "ĠFR": 3147,
      "AND": 3148,
      "isl": 3149,
      "Ġintrodu": 3150,
      "fully": 3151,
      "right": 3152,
      "Ġpolit": 3153,
      "Ġchanges": 3154,
      "Ġadm": 3155,
      "aff": 3156,
      "Ġengine": 3157,
      "Ġsuggest": 3158,
      "Ġ2017": 3159,
      "Ġap": 3160,
      "ĠIND": 3161,
      "Ġcharge": 3162,
      "ĠHealth": 3163,
      "ouncil": 3164,
      "dom": 3165,
      "Ġinsert": 3166,
      "CR": 3167,
      "Ġbank": 3168,
      "08": 3169,
      "IP": 3170,
      "Ġlock": 3171,
      "ili": 3172,
      "Ġheart": 3173,
      "Ġfuture": 3174,
      "ils": 3175,
      "ĠDes": 3176,
      "thing": 3177,
      "Ġcomposition": 3178,
      "Ġplate": 3179,
      "Ġdevelopment": 3180,
      "Ġspring": 3181,
      "Ġroom": 3182,
      "Ġoffice": 3183,
      "Ġrespectively": 3184,
      "ĠAc": 3185,
      "ĠLord": 3186,
      "back": 3187,
      "icles": 3188,
      "more": 3189,
      "ÙĤ": 3190,
      "Ġtarget": 3191,
      "Ġcyl": 3192,
      "Ġnotice": 3193,
      "Ġdisease": 3194,
      "Ġpan": 3195,
      "ocial": 3196,
      "ĠDecember": 3197,
      "aa": 3198,
      "irect": 3199,
      "Ġ2016": 3200,
      "ERS": 3201,
      "Ġversk": 3202,
      "Ġrelations": 3203,
      "www": 3204,
      "Ġwireless": 3205,
      "Ġfig": 3206,
      "ĠSim": 3207,
      "Ġchildren": 3208,
      "selves": 3209,
      "Ġshaft": 3210,
      "where": 3211,
      "Ġface": 3212,
      "Ġeer": 3213,
      "plic": 3214,
      "Ġ33": 3215,
      "side": 3216,
      "Ġfollows": 3217,
      "Ġbecome": 3218,
      "Ġcircum": 3219,
      "Ġ2014": 3220,
      "Ġsays": 3221,
      "Ġ110": 3222,
      "arr": 3223,
      "Ġmillion": 3224,
      "Ġdest": 3225,
      "istics": 3226,
      "Ġinvestig": 3227,
      "luit": 3228,
      "Ġmajor": 3229,
      "vels": 3230,
      "Ġerror": 3231,
      "eer": 3232,
      "Ġband": 3233,
      "ched": 3234,
      "uage": 3235,
      "Ġbond": 3236,
      "anne": 3237,
      "ĠØ¹ÙĨ": 3238,
      "ogen": 3239,
      "Ġinflu": 3240,
      "rie": 3241,
      "sec": 3242,
      "Ġdifficult": 3243,
      "enty": 3244,
      "ameter": 3245,
      "Ġprevent": 3246,
      "Ġactive": 3247,
      "Ġpaid": 3248,
      "iel": 3249,
      "Ġaround": 3250,
      "Ġhon": 3251,
      "Ġviol": 3252,
      "Ġheav": 3253,
      "amber": 3254,
      "Ġrather": 3255,
      "Ġlocated": 3256,
      "ĠFl": 3257,
      "ĠFrom": 3258,
      ")-": 3259,
      "Ġtook": 3260,
      "ĠWash": 3261,
      "uses": 3262,
      "Ġmetal": 3263,
      "earch": 3264,
      "ĠEnglish": 3265,
      "Ġcorrect": 3266,
      "Ġthick": 3267,
      "Ġprote": 3268,
      "Ġpatient": 3269,
      "rench": 3270,
      "Ġ2012": 3271,
      "Ġ2008": 3272,
      "Ġissue": 3273,
      "Ġsoon": 3274,
      "Ġoperations": 3275,
      "57": 3276,
      "TH": 3277,
      "Ġmagn": 3278,
      "iles": 3279,
      "ique": 3280,
      "Ġobserved": 3281,
      "bor": 3282,
      "ĠRec": 3283,
      "anks": 3284,
      "Ġvehicle": 3285,
      "Ġparticip": 3286,
      "ĠNovember": 3287,
      "Ġthing": 3288,
      "Ġcontain": 3289,
      "Ġquality": 3290,
      "Ġtwe": 3291,
      "Ġoriginal": 3292,
      "Ġwrit": 3293,
      "Ġstandard": 3294,
      "ĠLet": 3295,
      "ivity": 3296,
      "emed": 3297,
      "rad": 3298,
      "astic": 3299,
      "This": 3300,
      "ze": 3301,
      "hel": 3302,
      "ula": 3303,
      "Ġ2010": 3304,
      "undred": 3305,
      "ĠÂ·": 3306,
      "Ġreceiving": 3307,
      "ises": 3308,
      "Ġalle": 3309,
      "Ġjudgment": 3310,
      "ips": 3311,
      "Ġcrit": 3312,
      "RNA": 3313,
      "Ġwit": 3314,
      "ĠFurther": 3315,
      "ĠThen": 3316,
      "Ġdetermine": 3317,
      "ĠDo": 3318,
      "ĠNL": 3319,
      "Ġchannel": 3320,
      "UM": 3321,
      "We": 3322,
      "Ġ120": 3323,
      "Ġcosts": 3324,
      "arning": 3325,
      "Ġdoen": 3326,
      "Ġexpression": 3327,
      "Ġbrought": 3328,
      "rig": 3329,
      "58": 3330,
      "ÃĹ": 3331,
      "ĠÂ±": 3332,
      "Ġproced": 3333,
      "ĠCounty": 3334,
      "ford": 3335,
      "tion": 3336,
      "uck": 3337,
      "ipal": 3338,
      "Ġinternal": 3339,
      "Ġprovides": 3340,
      "Ġsufficient": 3341,
      "eder": 3342,
      "Ġtool": 3343,
      "ĠSci": 3344,
      "Ġproblem": 3345,
      "98": 3346,
      "atives": 3347,
      "Ġfire": 3348,
      "ĠMarch": 3349,
      "Ġhandel": 3350,
      "Ġresearch": 3351,
      "was": 3352,
      "ortun": 3353,
      "Ġequal": 3354,
      "Ġcr": 3355,
      "ĠDISTR": 3356,
      "ously": 3357,
      "tered": 3358,
      "Ġsle": 3359,
      "ĠRE": 3360,
      "ĠDis": 3361,
      "Ġ44": 3362,
      "Ġtion": 3363,
      "Ġlocation": 3364,
      "opp": 3365,
      "Ġ#": 3366,
      "Ġexcept": 3367,
      "Ġâĸł": 3368,
      "Ġ42": 3369,
      "Ġplaced": 3370,
      "Ġpie": 3371,
      "osph": 3372,
      "ĠGl": 3373,
      "Ġ46": 3374,
      "Ġpotential": 3375,
      "ulated": 3376,
      "Ġmotor": 3377,
      "Ġalmost": 3378,
      "gorith": 3379,
      "Ġboard": 3380,
      "ĠsÃª": 3381,
      "ĠMore": 3382,
      "ĠON": 3383,
      "ĠVir": 3384,
      "Ġactivity": 3385,
      "52": 3386,
      "Ġwent": 3387,
      "arily": 3388,
      ",,": 3389,
      "oord": 3390,
      "ĠAN": 3391,
      "rt": 3392,
      "iÃ«": 3393,
      "isie": 3394,
      "Ġprec": 3395,
      "Ġcommand": 3396,
      "Ġbasis": 3397,
      "ĠDISTRICT": 3398,
      "ĠFin": 3399,
      "ĠÙĨØ§": 3400,
      "ibr": 3401,
      "Ġrisk": 3402,
      "ĠJanu": 3403,
      "ĠSE": 3404,
      "Ġfluid": 3405,
      "Ġappropri": 3406,
      "Ġadvant": 3407,
      "ĠNational": 3408,
      "Ġitself": 3409,
      "ĠØ§ÙĦÙĦÙĩ": 3410,
      "amm": 3411,
      "Ġnothing": 3412,
      "Ġunderstand": 3413,
      "Ġcarried": 3414,
      "ĠArt": 3415,
      "ondon": 3416,
      "Ġcheck": 3417,
      "ĠSeptember": 3418,
      "51": 3419,
      "MP": 3420,
      "SP": 3421,
      "comp": 3422,
      "ĠOp": 3423,
      "Ġgene": 3424,
      "ILL": 3425,
      "uff": 3426,
      "iewe": 3427,
      "kom": 3428,
      "Ġstreng": 3429,
      "Ġsensor": 3430,
      "Ġdefendant": 3431,
      "Ġtransmission": 3432,
      "ĠMon": 3433,
      "Ġstudies": 3434,
      "bre": 3435,
      "Ġforth": 3436,
      "Ġenergy": 3437,
      "ĠÂ£": 3438,
      "93": 3439,
      "fl": 3440,
      "Ġfinal": 3441,
      "CHOOL": 3442,
      "emale": 3443,
      "gress": 3444,
      "'d": 3445,
      "ĠMor": 3446,
      "iring": 3447,
      "aker": 3448,
      "Ġhours": 3449,
      "spect": 3450,
      "Ġcontaining": 3451,
      "Ġdesired": 3452,
      "Ġletter": 3453,
      "Ġbound": 3454,
      "ush": 3455,
      "Ġcompared": 3456,
      "Ġgoing": 3457,
      "burg": 3458,
      "odes": 3459,
      "Ġoptim": 3460,
      "Ġswitch": 3461,
      "ender": 3462,
      "Ġdegree": 3463,
      "ape": 3464,
      "Ġmanufact": 3465,
      "itter": 3466,
      "ĠSCHOOL": 3467,
      "ĠThom": 3468,
      "Ġpolicy": 3469,
      "oo": 3470,
      "alt": 3471,
      "ĠSw": 3472,
      "Ġ2011": 3473,
      "Ġmultiple": 3474,
      "Ġmention": 3475,
      "ĠSk": 3476,
      "OP": 3477,
      "band": 3478,
      "yes": 3479,
      "Ġperformance": 3480,
      "Ġaltern": 3481,
      "ryst": 3482,
      "Ad": 3483,
      "inated": 3484,
      "Ġfixed": 3485,
      "Ġadop": 3486,
      "Ġeffects": 3487,
      "aks": 3488,
      "ependent": 3489,
      "Ġproduction": 3490,
      "vest": 3491,
      "ĠServ": 3492,
      "aries": 3493,
      "change": 3494,
      "Ġframe": 3495,
      "Ġmedium": 3496,
      "ĠHere": 3497,
      "Ġkl": 3498,
      "Ġcharg": 3499,
      "Ġ2015": 3500,
      "ĠTH": 3501,
      "ĠVan": 3502,
      "ĠÙģ": 3503,
      "EW": 3504,
      "comm": 3505,
      "Un": 3506,
      "met": 3507,
      "Ġach": 3508,
      "ĠMil": 3509,
      "Ġ**": 3510,
      "Ġpo": 3511,
      "63": 3512,
      "Ġsubm": 3513,
      "Ġbesk": 3514,
      "Ġles": 3515,
      "ĠDist": 3516,
      "Ġradi": 3517,
      "Ġpaper": 3518,
      "Ġwritten": 3519,
      "aped": 3520,
      "woord": 3521,
      "ifying": 3522,
      "ober": 3523,
      "%)": 3524,
      "Ġfinancial": 3525,
      "bit": 3526,
      "ociety": 3527,
      "Ġsequence": 3528,
      "92": 3529,
      "rem": 3530,
      "Ġpra": 3531,
      "ĠSer": 3532,
      "ante": 3533,
      "Ġwhite": 3534,
      "iteit": 3535,
      "Ġprivate": 3536,
      "Ġbring": 3537,
      "ĠLa": 3538,
      "umb": 3539,
      "ĠÏĦ": 3540,
      "¼n": 3541,
      "Ġpurposes": 3542,
      "Ġmachine": 3543,
      "Ġaverage": 3544,
      "ĠSP": 3545,
      "ho": 3546,
      "ester": 3547,
      "Ġchem": 3548,
      "ada": 3549,
      "pecially": 3550,
      "iety": 3551,
      "icondu": 3552,
      "umn": 3553,
      "Ġrail": 3554,
      "oogle": 3555,
      "ĠâĪĪ": 3556,
      "-(": 3557,
      "issions": 3558,
      "Ġpersons": 3559,
      "Ġinner": 3560,
      "Ġii": 3561,
      "from": 3562,
      "orpor": 3563,
      "Ġhundred": 3564,
      "Ġimpact": 3565,
      "ville": 3566,
      "Ġbur": 3567,
      "Ġproducts": 3568,
      "Ġdecre": 3569,
      "Ġproposed": 3570,
      "Ġfine": 3571,
      "Ġ38": 3572,
      "Ġclose": 3573,
      "Ġpresented": 3574,
      "97": 3575,
      "Ġwid": 3576,
      "ategor": 3577,
      "ĠFore": 3578,
      "Ġsearch": 3579,
      "ĠVer": 3580,
      "ius": 3581,
      "Ġblood": 3582,
      "Ġcool": 3583,
      "Ġsure": 3584,
      "EPEND": 3585,
      "XX": 3586,
      "Ġmessage": 3587,
      "ĠVal": 3588,
      "ĠAR": 3589,
      "Ġsupply": 3590,
      "Ġsuitable": 3591,
      "ĠINDEPEND": 3592,
      "''": 3593,
      "Ġcombination": 3594,
      "Ùī": 3595,
      "Ïī": 3596,
      "Ġvolg": 3597,
      "Ġmeeting": 3598,
      "Ek": 3599,
      "Ø©": 3600,
      "Ġlot": 3601,
      "acc": 3602,
      "Ġverk": 3603,
      "Ġprotect": 3604,
      "Ġkon": 3605,
      "Ġlearning": 3606,
      "equ": 3607,
      "ux": 3608,
      "lete": 3609,
      "ini": 3610,
      "Ġfair": 3611,
      "Ġinj": 3612,
      "ĠInter": 3613,
      "king": 3614,
      "Ġfood": 3615,
      "col": 3616,
      "Ġindust": 3617,
      "ĠINDEPENDENT": 3618,
      "cast": 3619,
      "dat": 3620,
      "}}": 3621,
      "anch": 3622,
      "Ġclaims": 3623,
      "Ġearly": 3624,
      "ĠGovernment": 3625,
      "Ġtransport": 3626,
      "erson": 3627,
      "Ġdisclosure": 3628,
      "iation": 3629,
      "Ġment": 3630,
      "ites": 3631,
      "Ġmobile": 3632,
      "ĠAT": 3633,
      "Ġforward": 3634,
      "ĠWork": 3635,
      "ĠÙĤ": 3636,
      "Ġnam": 3637,
      "Ġsuff": 3638,
      "Ġversion": 3639,
      "Ġnatural": 3640,
      "ĠHol": 3641,
      "Ġ2009": 3642,
      "Ġpetition": 3643,
      "sub": 3644,
      "Ġmode": 3645,
      "Ġconv": 3646,
      "itude": 3647,
      "rs": 3648,
      "Ġstates": 3649,
      "ising": 3650,
      "ills": 3651,
      "Ġoperating": 3652,
      "Ġsample": 3653,
      "eler": 3654,
      "Ġrates": 3655,
      "lin": 3656,
      "Ġrepl": 3657,
      "Ġpow": 3658,
      "acher": 3659,
      "Ġweer": 3660,
      "ĠLondon": 3661,
      "rier": 3662,
      "Ġsubstantially": 3663,
      "Ġfeed": 3664,
      "Ġanaly": 3665,
      "Ġgroups": 3666,
      "Ġpage": 3667,
      "Ġformer": 3668,
      "Ġbelieve": 3669,
      "pid": 3670,
      "clus": 3671,
      "Ġestablish": 3672,
      "ĠSir": 3673,
      "Ġeffective": 3674,
      "Ġkey": 3675,
      "faces": 3676,
      "Ġspirit": 3677,
      "Ġillustrated": 3678,
      "07": 3679,
      "ara": 3680,
      "aching": 3681,
      "oke": 3682,
      "Ġcredit": 3683,
      "Îº": 3684,
      "ĠStat": 3685,
      "Ġfiled": 3686,
      "Ġops": 3687,
      "Ġreduced": 3688,
      "attle": 3689,
      "Pro": 3690,
      "ĠHer": 3691,
      "94": 3692,
      "arc": 3693,
      "lyn": 3694,
      "order": 3695,
      "Ġserver": 3696,
      "verse": 3697,
      "Ġ41": 3698,
      "Ġprepared": 3699,
      "erve": 3700,
      "inge": 3701,
      "Ġareas": 3702,
      "Ġchurch": 3703,
      "Ġknowledge": 3704,
      "lectric": 3705,
      "Ġliquid": 3706,
      "On": 3707,
      "ĠIndian": 3708,
      "mediate": 3709,
      "iconductor": 3710,
      "ĠDec": 3711,
      "61": 3712,
      "ds": 3713,
      "Ġur": 3714,
      "Ùĥ": 3715,
      "âĢĲ": 3716,
      "ĠJud": 3717,
      "aving": 3718,
      "Ġrelationship": 3719,
      "ĠOns": 3720,
      "Ġfast": 3721,
      "ead": 3722,
      "orge": 3723,
      "Ġelectronic": 3724,
      "Ġinstit": 3725,
      "Ġelectrode": 3726,
      "Ġhousing": 3727,
      "olar": 3728,
      "agram": 3729,
      "62": 3730,
      "Ġpercent": 3731,
      "ĠEm": 3732,
      "Ġagent": 3733,
      "Ġapproxim": 3734,
      "Ġload": 3735,
      "Ġeduc": 3736,
      "Ġcult": 3737,
      "Ġdirectly": 3738,
      "Ġ70": 3739,
      "Ġ2004": 3740,
      "ĠJournal": 3741,
      "aars": 3742,
      "Ġseries": 3743,
      "Ġevent": 3744,
      "omy": 3745,
      "Ġstated": 3746,
      "Ġcomplex": 3747,
      "etermined": 3748,
      "Ġcompet": 3749,
      "Ġforming": 3750,
      "Ġdrive": 3751,
      "Ġaxis": 3752,
      "cular": 3753,
      "no": 3754,
      "ÏĢ": 3755,
      "Ġord": 3756,
      "umber": 3757,
      "aid": 3758,
      "actions": 3759,
      "Ġtitle": 3760,
      "Ġ90": 3761,
      "68": 3762,
      "yle": 3763,
      "Ê¼n": 3764,
      "Ïħ": 3765,
      "ager": 3766,
      "ĠEX": 3767,
      "Ġtube": 3768,
      "DR": 3769,
      "lies": 3770,
      "cal": 3771,
      "Ġopinion": 3772,
      "ĠFebru": 3773,
      "Ġmens": 3774,
      "Su": 3775,
      "ĠChem": 3776,
      "Ġdepos": 3777,
      "Ġhands": 3778,
      "Ġmaterials": 3779,
      "ĠCON": 3780,
      "ething": 3781,
      "Ġoccup": 3782,
      "ipe": 3783,
      "ype": 3784,
      "rest": 3785,
      "Ġauthority": 3786,
      "Ġdocument": 3787,
      "lis": 3788,
      "ĠTR": 3789,
      "Ġmedical": 3790,
      "view": 3791,
      "atur": 3792,
      "Ġconsum": 3793,
      "ese": 3794,
      "ĠPL": 3795,
      "Ġprocessor": 3796,
      "Ġdifference": 3797,
      "Ġproduced": 3798,
      "ĠSystem": 3799,
      "No": 3800,
      "ĠGra": 3801,
      "Ġlove": 3802,
      "Ġroad": 3803,
      "rices": 3804,
      "field": 3805,
      "Ġecon": 3806,
      "Ġpoints": 3807,
      "Ġfather": 3808,
      "rek": 3809,
      "Ġfurn": 3810,
      "Ġthy": 3811,
      "Ġoppos": 3812,
      "ady": 3813,
      "inding": 3814,
      "Ġdim": 3815,
      "ellow": 3816,
      "Ġattempt": 3817,
      "Ġlimit": 3818,
      "ĠEngland": 3819,
      "entle": 3820,
      "Ġconfiguration": 3821,
      "Ġnote": 3822,
      "ESS": 3823,
      "Ġdescription": 3824,
      "ully": 3825,
      "Ġ2000": 3826,
      "Ġacross": 3827,
      "Ġmakes": 3828,
      "Ġissu": 3829,
      "ĠOR": 3830,
      "Ġ37": 3831,
      "Ġcompar": 3832,
      "Ġthemselves": 3833,
      "dis": 3834,
      "road": 3835,
      "ĠCons": 3836,
      "after": 3837,
      "rown": 3838,
      "Ġbottom": 3839,
      "rac": 3840,
      "Ġglass": 3841,
      "Ġlanguage": 3842,
      "Î»": 3843,
      "%,": 3844,
      "ying": 3845,
      "Ġtor": 3846,
      "Ġstack": 3847,
      "Ġappoint": 3848,
      "retary": 3849,
      "Ġdraw": 3850,
      "91": 3851,
      "ream": 3852,
      "Ġbal": 3853,
      "ĠWashington": 3854,
      "??": 3855,
      "ĠOur": 3856,
      "Ġterminal": 3857,
      "500": 3858,
      "Ġtim": 3859,
      "ica": 3860,
      "ĠPublic": 3861,
      "amb": 3862,
      "Ġenough": 3863,
      "Ġcoll": 3864,
      "Ġdisch": 3865,
      "ĠChurch": 3866,
      "Ġmorning": 3867,
      "ieved": 3868,
      "Ġens": 3869,
      "abase": 3870,
      "Ġautom": 3871,
      "roll": 3872,
      "Ġblack": 3873,
      "which": 3874,
      "Ġpersonal": 3875,
      "Ġespecially": 3876,
      "kn": 3877,
      "ĠSub": 3878,
      "BS": 3879,
      "Ġ..": 3880,
      "Ġestablished": 3881,
      "anced": 3882,
      "igheid": 3883,
      "Ġspeed": 3884,
      "MS": 3885,
      "spec": 3886,
      "Ġcoupl": 3887,
      "ĠEuropean": 3888,
      "trans": 3889,
      "ĠÊ¼n": 3890,
      "Ġfactors": 3891,
      "Ġbeaut": 3892,
      "Ġ52": 3893,
      "Ġenter": 3894,
      "Ġpresence": 3895,
      "ger": 3896,
      "ĠPort": 3897,
      "Ġinterface": 3898,
      "ĠChristian": 3899,
      "ication": 3900,
      "elle": 3901,
      "ĠHen": 3902,
      "ĠJames": 3903,
      "Ġjo": 3904,
      "werk": 3905,
      "Ġtell": 3906,
      "velop": 3907,
      "Ġdigital": 3908,
      "ĠÌ": 3909,
      "Ġsubstit": 3910,
      "Ġlin": 3911,
      "ĠAnt": 3912,
      "Ġdisposed": 3913,
      "Ġrespond": 3914,
      "Ġsaam": 3915,
      "Ġgeh": 3916,
      "ĠPaul": 3917,
      "Ġalgorith": 3918,
      "ĠLaw": 3919,
      "istor": 3920,
      "Ġcho": 3921,
      "Ġlaat": 3922,
      "ĠJes": 3923,
      "Ġgave": 3924,
      "ĠSuid": 3925,
      "Ġcapacity": 3926,
      "using": 3927,
      "anneer": 3928,
      "Wh": 3929,
      "net": 3930,
      "ners": 3931,
      "ĠMo": 3932,
      "ĠGro": 3933,
      "ĠYE": 3934,
      "iques": 3935,
      "Ġreferred": 3936,
      "ĠPresident": 3937,
      "Ġdeep": 3938,
      "ector": 3939,
      "Ġpen": 3940,
      "Ġportions": 3941,
      "Ġcontroller": 3942,
      "=\"": 3943,
      "Ġfif": 3944,
      "Ġinform": 3945,
      "ĠLou": 3946,
      "aches": 3947,
      "Ġloop": 3948,
      "Ġfriend": 3949,
      "uments": 3950,
      "Ġproviding": 3951,
      "Ġalthough": 3952,
      "Ġutil": 3953,
      "ĠTechn": 3954,
      "Ġadapt": 3955,
      "ĠResearch": 3956,
      "Ġverb": 3957,
      "Ġlatter": 3958,
      "Ġspect": 3959,
      "iii": 3960,
      "Ġsemiconductor": 3961,
      "ault": 3962,
      "Ġindu": 3963,
      "Ġlevels": 3964,
      "ï¿½ï¿½ï¿½ï¿½": 3965,
      "Ġmort": 3966,
      "ĠRich": 3967,
      "Ġpassed": 3968,
      "Ġmom": 3969,
      "Ġrepe": 3970,
      "Ġlab": 3971,
      "Ġwaste": 3972,
      "inate": 3973,
      "Ġoil": 3974,
      "Ġbin": 3975,
      "iments": 3976,
      "Ġchamber": 3977,
      "ĠData": 3978,
      "ĠFrench": 3979,
      "my": 3980,
      "Ã¼": 3981,
      "Ġkle": 3982,
      "Ġextract": 3983,
      "Ġappeal": 3984,
      "Ġwife": 3985,
      "rial": 3986,
      "Ġtele": 3987,
      "ĠAtt": 3988,
      "Ġseems": 3989,
      "Ġmi": 3990,
      "omet": 3991,
      "ĠPR": 3992,
      "Ġexternal": 3993,
      "ĠJanuary": 3994,
      "rea": 3995,
      "Ġwomen": 3996,
      "Ġhou": 3997,
      "Ġ2003": 3998,
      "Ġattention": 3999,
      "Ġdistrict": 4000,
      "Ġbuilding": 4001,
      "Ġagreement": 4002,
      "CL": 4003,
      "Ġft": 4004,
      "ĠOther": 4005,
      "ĠAfric": 4006,
      "Ġinitial": 4007,
      "Ġfeatures": 4008,
      "Ġphysical": 4009,
      "aj": 4010,
      "rees": 4011,
      "ĠWil": 4012,
      "Ġremoved": 4013,
      "ĠOctober": 4014,
      "ĠPM": 4015,
      "0000": 4016,
      "Ġcontr": 4017,
      "Ġfollowed": 4018,
      "Ġfactor": 4019,
      "Ġmechanism": 4020,
      "Ġclos": 4021,
      "ging": 4022,
      "Ġgest": 4023,
      "Ġ2007": 4024,
      "ym": 4025,
      "ĠAut": 4026,
      "agraph": 4027,
      "Ġyield": 4028,
      "Ġexpected": 4029,
      "Ġworking": 4030,
      "\",": 4031,
      "Ġgoed": 4032,
      "Ġparties": 4033,
      "Ġvolume": 4034,
      "ĠFrance": 4035,
      "poration": 4036,
      "Ġtiss": 4037,
      "Ġsqu": 4038,
      "Ġconvey": 4039,
      "Ġlegisl": 4040,
      "ĨĴ": 4041,
      "Ġtext": 4042,
      "Ġfrequency": 4043,
      "Ĥ¬": 4044,
      "Ġtro": 4045,
      "Ġdivid": 4046,
      "baar": 4047,
      "oft": 4048,
      "}$": 4049,
      "Ġplat": 4050,
      "Ġquite": 4051,
      "Ġ2005": 4052,
      "Ġmiles": 4053,
      "aled": 4054,
      "Ġthous": 4055,
      "ipment": 4056,
      "ĠUE": 4057,
      "Ġtrade": 4058,
      "Ġmaxim": 4059,
      "Ġspecies": 4060,
      "Ġstore": 4061,
      "Ġexamples": 4062,
      "Ġsocial": 4063,
      "ĠCle": 4064,
      "enses": 4065,
      "Ġparticularly": 4066,
      "log": 4067,
      "mon": 4068,
      "Ġbeg": 4069,
      "andom": 4070,
      "Ġstatus": 4071,
      "ued": 4072,
      "Ġhost": 4073,
      "Ġlearn": 4074,
      "Ġregions": 4075,
      "Ġextent": 4076,
      "MR": 4077,
      "iance": 4078,
      "ĠWar": 4079,
      "posure": 4080,
      "comes": 4081,
      "Ġclean": 4082,
      "Ġsomething": 4083,
      "cription": 4084,
      "Ġ]": 4085,
      "ĠFirst": 4086,
      "ynam": 4087,
      "Ġpopulation": 4088,
      "Ġess": 4089,
      "anges": 4090,
      "Ġfriends": 4091,
      "ĠRed": 4092,
      "teen": 4093,
      "Ġapply": 4094,
      "Ġnucle": 4095,
      "Ġlat": 4096,
      "ĠDan": 4097,
      "ĠHigh": 4098,
      "Ġ54": 4099,
      "Ġprint": 4100,
      "ĠBoard": 4101,
      "Ġpublished": 4102,
      "mod": 4103,
      "Ġhot": 4104,
      "aanse": 4105,
      "aam": 4106,
      "but": 4107,
      "Ġotherwise": 4108,
      "Ref": 4109,
      "Ã¶": 4110,
      "Ġcomplete": 4111,
      "ARD": 4112,
      "Ġsien": 4113,
      "Ġsignals": 4114,
      "Ġarranged": 4115,
      "rix": 4116,
      "Ġweb": 4117,
      "Ġtraining": 4118,
      "Ġspl": 4119,
      "mathb": 4120,
      "head": 4121,
      "Ġrear": 4122,
      "Ġgold": 4123,
      "Ġstrate": 4124,
      "ĠOh": 4125,
      "Ġperfect": 4126,
      "ussen": 4127,
      "Ġil": 4128,
      "Ġroll": 4129,
      "Ġdefin": 4130,
      "ĠAnn": 4131,
      "ĠCommittee": 4132,
      "Ġstrength": 4133,
      "Ġswe": 4134,
      "ART": 4135,
      "Ġmag": 4136,
      "ĠBank": 4137,
      "ĠStud": 4138,
      "PL": 4139,
      "ception": 4140,
      "aser": 4141,
      "ĠUnder": 4142,
      "Ġgot": 4143,
      "ĠBu": 4144,
      "ago": 4145,
      "Ġconstruction": 4146,
      "ico": 4147,
      "Ġprepar": 4148,
      "Ġdecision": 4149,
      "Ġfourth": 4150,
      "och": 4151,
      "well": 4152,
      "Ġda": 4153,
      "ĠCong": 4154,
      "Ġlewe": 4155,
      "Ġedge": 4156,
      "Ġverd": 4157,
      "Ġtypes": 4158,
      "Ġsteps": 4159,
      "Ġadminist": 4160,
      "âĸłâĸł": 4161,
      "TA": 4162,
      "ÃŃ": 4163,
      "Ġeyes": 4164,
      "Ġkry": 4165,
      "Ġ102": 4166,
      "ords": 4167,
      "Ġgoods": 4168,
      "Ġapproach": 4169,
      "Ġproperties": 4170,
      "Ġsources": 4171,
      "Ġampl": 4172,
      "Ġcircumst": 4173,
      "ground": 4174,
      "Î³": 4175,
      "apter": 4176,
      "ounter": 4177,
      "Ġreaction": 4178,
      "Ġcopy": 4179,
      "Ġfarm": 4180,
      "Ġexpress": 4181,
      "Ø¨ÙĬ": 4182,
      "Ġpreferably": 4183,
      "ĠEU": 4184,
      "rence": 4185,
      "Ġupd": 4186,
      "Ġrights": 4187,
      "ensk": 4188,
      "portion": 4189,
      "ĠDav": 4190,
      "Ġround": 4191,
      "omb": 4192,
      "roup": 4193,
      "Ġrecomm": 4194,
      "Ġfilter": 4195,
      "ACK": 4196,
      "zz": 4197,
      "Ġ2006": 4198,
      "Ġshowing": 4199,
      "Ġtaking": 4200,
      "PS": 4201,
      "cript": 4202,
      "Ġjulle": 4203,
      "ciples": 4204,
      "Ġcolor": 4205,
      "Ġfavor": 4206,
      "Ġlate": 4207,
      "ĠSpec": 4208,
      "oted": 4209,
      "Ġrequirements": 4210,
      "rise": 4211,
      "urance": 4212,
      "Ġselection": 4213,
      "izes": 4214,
      "ĠâĢĺâĢĺ": 4215,
      "Ġcapt": 4216,
      "Ġdemonst": 4217,
      "Ġ_": 4218,
      "Ġnode": 4219,
      "ĠId": 4220,
      "Ġconstant": 4221,
      "Ġelke": 4222,
      "gra": 4223,
      "Ġprop": 4224,
      "Ġintended": 4225,
      "Ġelectric": 4226,
      "enes": 4227,
      "ĠPub": 4228,
      "bar": 4229,
      "ensity": 4230,
      "For": 4231,
      "{\\": 4232,
      "Ġvrou": 4233,
      "ĠCouncil": 4234,
      "bel": 4235,
      "een": 4236,
      "Ġnational": 4237,
      "Ġring": 4238,
      "clusion": 4239,
      "Ġtwee": 4240,
      "Ùģ": 4241,
      "Ġthereby": 4242,
      "Ġqual": 4243,
      "Ġconcer": 4244,
      "Ġbroad": 4245,
      "Ġsin": 4246,
      "Ġremain": 4247,
      "Ġindicated": 4248,
      "ĠThomas": 4249,
      "Cl": 4250,
      "wa": 4251,
      "Ġinstall": 4252,
      "ĠPhil": 4253,
      "ĠÃĹ": 4254,
      "Ġdag": 4255,
      "ĠSal": 4256,
      "rupt": 4257,
      "Ġgesk": 4258,
      "Ãªreld": 4259,
      "Ġduty": 4260,
      "Ġquar": 4261,
      "ĠAM": 4262,
      "Ġcommittee": 4263,
      "Ġassum": 4264,
      "Ġforms": 4265,
      "Ġpreferred": 4266,
      "Ġhistory": 4267,
      "ana": 4268,
      "Ġsaw": 4269,
      "gr": 4270,
      "hand": 4271,
      "inct": 4272,
      "Ġpain": 4273,
      "ĠIS": 4274,
      "Ġsheet": 4275,
      "Ġemployed": 4276,
      "rum": 4277,
      "oul": 4278,
      "ĠTherefore": 4279,
      "Ġvisit": 4280,
      "encies": 4281,
      "Ġstored": 4282,
      "ĠEar": 4283,
      "Ġsoil": 4284,
      "AIL": 4285,
      "Ġimpl": 4286,
      "Ġdiagram": 4287,
      "Ġfunctions": 4288,
      "Ø«": 4289,
      "ancy": 4290,
      "Ġdog": 4291,
      "ilit": 4292,
      "iesel": 4293,
      "Ġsod": 4294,
      "Ġdied": 4295,
      "Ġclamp": 4296,
      "Ġinsulating": 4297,
      "Ġ101": 4298,
      "Ġsitu": 4299,
      "imate": 4300,
      "Ġalk": 4301,
      "pping": 4302,
      "ĠFIGS": 4303,
      "tes": 4304,
      "Ġball": 4305,
      "Ġunless": 4306,
      "Ġrelig": 4307,
      "aap": 4308,
      "Ġbad": 4309,
      "includ": 4310,
      "icon": 4311,
      "ights": 4312,
      "Ġnormal": 4313,
      "ĠPage": 4314,
      "airs": 4315,
      "Ġreturned": 4316,
      "Figure": 4317,
      "Ġmentioned": 4318,
      "nes": 4319,
      "requ": 4320,
      "Ġrender": 4321,
      "Ġ51": 4322,
      "ĠUN": 4323,
      "Ġdiscover": 4324,
      "Mr": 4325,
      "Ġmg": 4326,
      "Ġmidd": 4327,
      "ĠEst": 4328,
      "Ġmedia": 4329,
      "Ġpredetermined": 4330,
      "bet": 4331,
      "ĠSome": 4332,
      "ĠMod": 4333,
      "ifically": 4334,
      "connect": 4335,
      "ĠPark": 4336,
      "ATE": 4337,
      "Ġtwenty": 4338,
      "Ġnit": 4339,
      "ivil": 4340,
      "ĠBur": 4341,
      "Ġearth": 4342,
      "Ġantib": 4343,
      "ĠSuper": 4344,
      "Ġmounted": 4345,
      "ĠSuch": 4346,
      "Ġworks": 4347,
      "Ġcapital": 4348,
      "Ġmole": 4349,
      "ĠBritish": 4350,
      "Ġtoday": 4351,
      "Ġeerste": 4352,
      "water": 4353,
      "Ġcit": 4354,
      "Ġhttp": 4355,
      "IF": 4356,
      "itions": 4357,
      "Ġresistance": 4358,
      "ente": 4359,
      "Ġsubsc": 4360,
      "Ġnumer": 4361,
      "Ġprimary": 4362,
      "Ġappropriate": 4363,
      "hest": 4364,
      "stood": 4365,
      "Ġprem": 4366,
      "Ġgev": 4367,
      "Ġcenter": 4368,
      ",'": 4369,
      "icip": 4370,
      "ĠFederal": 4371,
      "Ġphase": 4372,
      "Ġfoot": 4373,
      "asure": 4374,
      "ÙĦÙĬ": 4375,
      "Ġevalu": 4376,
      "Cross": 4377,
      "ses": 4378,
      "Ġ150": 4379,
      "Ġconvention": 4380,
      "term": 4381,
      "Ġtold": 4382,
      "Ġmonitor": 4383,
      "Ġstatement": 4384,
      "ĠGeorge": 4385,
      "En": 4386,
      "hood": 4387,
      "Ġdeel": 4388,
      "Ġasked": 4389,
      "Ġsound": 4390,
      "Ġcancer": 4391,
      "âĪĤ": 4392,
      "iem": 4393,
      "ĠBi": 4394,
      "ĠØŃ": 4395,
      "Ġinstance": 4396,
      "Ġproduce": 4397,
      "inical": 4398,
      "Ġleave": 4399,
      "plex": 4400,
      "Ġincorpor": 4401,
      "Ġcat": 4402,
      "Ġsensing": 4403,
      "Ġangle": 4404,
      "Ġinvolved": 4405,
      "Ġratio": 4406,
      "Ġstem": 4407,
      "Ġriver": 4408,
      "key": 4409,
      "ĠAssoci": 4410,
      "time": 4411,
      "estern": 4412,
      "Ġfully": 4413,
      "Ġdiss": 4414,
      "App": 4415,
      "hede": 4416,
      "itz": 4417,
      "Ġinh": 4418,
      "Ġincome": 4419,
      "ought": 4420,
      "ĠGood": 4421,
      "Ġ300": 4422,
      "Ġidentified": 4423,
      "ĠJesus": 4424,
      "OO": 4425,
      "Ġassist": 4426,
      "ĠÙĤØ§ÙĦ": 4427,
      "101": 4428,
      "wik": 4429,
      "este": 4430,
      "Ġmembr": 4431,
      "ĠUnion": 4432,
      "ospital": 4433,
      "yd": 4434,
      "Î¯": 4435,
      "enth": 4436,
      "Ġnorth": 4437,
      "Ġweet": 4438,
      "Ġsurfaces": 4439,
      "Ġlikely": 4440,
      "haps": 4441,
      "ĠÎ´": 4442,
      "Ġpractice": 4443,
      "Ġmut": 4444,
      "Ġresources": 4445,
      "________________": 4446,
      "Ġdelivery": 4447,
      "yond": 4448,
      "Ġwood": 4449,
      "Ġenvironment": 4450,
      "gency": 4451,
      "Ġmovement": 4452,
      "ĠBlack": 4453,
      "Ġnm": 4454,
      "Ġregular": 4455,
      "Ġexperience": 4456,
      "Ġnearly": 4457,
      "Ġobtain": 4458,
      "GE": 4459,
      "vi": 4460,
      "Ġconver": 4461,
      "Ġpreviously": 4462,
      "Ġworth": 4463,
      "Ġfoc": 4464,
      "ione": 4465,
      "produ": 4466,
      "AK": 4467,
      "ĠAC": 4468,
      "ameters": 4469,
      "Ġphosph": 4470,
      "De": 4471,
      "Ġtho": 4472,
      "Ġliter": 4473,
      "Ġid": 4474,
      "Ġtherm": 4475,
      "ache": 4476,
      "ifications": 4477,
      "Ġevening": 4478,
      "Ġrecords": 4479,
      "IE": 4480,
      "ÈĽ": 4481,
      "Ġbek": 4482,
      "Ġmodels": 4483,
      "IA": 4484,
      "Ġbearing": 4485,
      "Ġsubsequ": 4486,
      "Ġpursu": 4487,
      "LY": 4488,
      "vis": 4489,
      "ĠNat": 4490,
      "acent": 4491,
      "Ġdatabase": 4492,
      "gl": 4493,
      "Ġ112": 4494,
      "Ġtrack": 4495,
      "ECTION": 4496,
      "dag": 4497,
      "Ġwhy": 4498,
      "ĠEast": 4499,
      "Ġrecover": 4500,
      "\":": 4501,
      "pat": 4502,
      "Ġwonder": 4503,
      "Ġgovern": 4504,
      "ĠFebruary": 4505,
      "Ġbit": 4506,
      "yer": 4507,
      "ĠÙĬ": 4508,
      "Ġmoment": 4509,
      "Ġce": 4510,
      "ĠNet": 4511,
      "ocation": 4512,
      "Ġcontains": 4513,
      "ults": 4514,
      "tyd": 4515,
      "ĠRiver": 4516,
      "Ġgraph": 4517,
      "Ġfeel": 4518,
      "ĠDOE": 4519,
      "'.": 4520,
      "Ġthou": 4521,
      "Ġalone": 4522,
      "EST": 4523,
      "prov": 4524,
      "gem": 4525,
      "ti": 4526,
      "Ġnav": 4527,
      "Ġ104": 4528,
      "Ġ108": 4529,
      "Ġinstead": 4530,
      "Ġslight": 4531,
      "ros": 4532,
      "Ġlabor": 4533,
      "Ġbelang": 4534,
      "kel": 4535,
      "Ġpul": 4536,
      "ĠSund": 4537,
      "Ġexceed": 4538,
      "Ġvoice": 4539,
      "Ġstructures": 4540,
      "ming": 4541,
      "istry": 4542,
      "icted": 4543,
      "da": 4544,
      "Ġton": 4545,
      "ĠAust": 4546,
      "ĠMill": 4547,
      "Ã©s": 4548,
      "Ġmeasured": 4549,
      "Ġliving": 4550,
      "ĠSO": 4551,
      "Ġgentle": 4552,
      "Ġsche": 4553,
      "Ġdoubt": 4554,
      "Ġhope": 4555,
      "ĠEach": 4556,
      "ocol": 4557,
      "Ġseparate": 4558,
      "Ġtu": 4559,
      "Ġsense": 4560,
      "Ġmother": 4561,
      "ĠAccording": 4562,
      "tig": 4563,
      "under": 4564,
      "orrow": 4565,
      "Ġcolumn": 4566,
      "Ġstri": 4567,
      "Ġcentral": 4568,
      "Ġrules": 4569,
      "Ġsaf": 4570,
      "CrossRef": 4571,
      "jies": 4572,
      "Ġ65": 4573,
      "Ġ43": 4574,
      "Ġsimple": 4575,
      "Ġmulti": 4576,
      "Ġtoward": 4577,
      "ĠMark": 4578,
      "type": 4579,
      "iency": 4580,
      "Ġattached": 4581,
      "Ġdistance": 4582,
      "Ġbox": 4583,
      "gel": 4584,
      "ĠSur": 4585,
      "IST": 4586,
      "aughter": 4587,
      "Ġcash": 4588,
      "Ġfrag": 4589,
      "Ġseks": 4590,
      "very": 4591,
      "Ġtyp": 4592,
      "force": 4593,
      "Ġpages": 4594,
      "ĠDel": 4595,
      "Ġcarbon": 4596,
      "Ġsites": 4597,
      "Ġappears": 4598,
      "Ġwel": 4599,
      "Ġlie": 4600,
      "ĠSection": 4601,
      "ĠDaar": 4602,
      "Ġformation": 4603,
      "Ġgenerated": 4604,
      "Ġclaimed": 4605,
      "Ġcand": 4606,
      "Ġenvironmental": 4607,
      "ĠInstit": 4608,
      "ferences": 4609,
      "Ġentered": 4610,
      "Ġbenefit": 4611,
      "ĠInternational": 4612,
      "Ġaand": 4613,
      "Ġparent": 4614,
      "ĠJust": 4615,
      "ØŃÙħ": 4616,
      "Ġq": 4617,
      "2019": 4618,
      "Ġapplications": 4619,
      "ser": 4620,
      "Ġcomprise": 4621,
      "Ġaccur": 4622,
      "AV": 4623,
      "Ġfuel": 4624,
      "Ġheard": 4625,
      "uns": 4626,
      "Ġgee": 4627,
      "Ġactivities": 4628,
      "mathbf": 4629,
      "Ġiron": 4630,
      "inger": 4631,
      "Ġru": 4632,
      "Ġforex": 4633,
      "Afrika": 4634,
      "Ġgrowth": 4635,
      "known": 4636,
      "Ġmit": 4637,
      "phen": 4638,
      "rif": 4639,
      "Ġ55": 4640,
      "ĠWhite": 4641,
      "ĠMethod": 4642,
      "BB": 4643,
      "mark": 4644,
      "otion": 4645,
      "Ġenh": 4646,
      "ÙĦÙħ": 4647,
      "Ġmoved": 4648,
      "eken": 4649,
      "Ġsolid": 4650,
      "emplary": 4651,
      "TC": 4652,
      "ply": 4653,
      "ald": 4654,
      "Ġfill": 4655,
      "Ġtruth": 4656,
      "))": 4657,
      "pa": 4658,
      "Ġlic": 4659,
      "olved": 4660,
      "Ġallowed": 4661,
      "Ġshape": 4662,
      "Ġhistor": 4663,
      "alysis": 4664,
      "Ġhole": 4665,
      "Ġlonger": 4666,
      "allel": 4667,
      "Ġsoftware": 4668,
      "cell": 4669,
      "Ġneigh": 4670,
      "Ġrespective": 4671,
      "Ġofficial": 4672,
      "Ġprobably": 4673,
      "can": 4674,
      "lege": 4675,
      "idel": 4676,
      "Ġtowards": 4677,
      "Ġ56": 4678,
      "Ġelse": 4679,
      "Ġwrite": 4680,
      "Ġtum": 4681,
      "Ġmove": 4682,
      "ĠRuss": 4683,
      "ĠEP": 4684,
      "Ġsecurity": 4685,
      "Ġpositive": 4686,
      "Ġbecame": 4687,
      "Ġdetermining": 4688,
      "Ġopportun": 4689,
      "Ġsn": 4690,
      "Ġborn": 4691,
      "ĠMem": 4692,
      "ĠPal": 4693,
      "ulations": 4694,
      "ĠDi": 4695,
      "Ġrelevant": 4696,
      "Ġwindow": 4697,
      "ĠSmith": 4698,
      "Ġmixture": 4699,
      "Ġmaximum": 4700,
      "ooth": 4701,
      "ĠRel": 4702,
      "ests": 4703,
      "Ġ500": 4704,
      "ĠgesÃª": 4705,
      "Ġtussen": 4706,
      "ĠDNA": 4707,
      "Ġexhib": 4708,
      "Ġintern": 4709,
      "iseer": 4710,
      "Ġdoll": 4711,
      "iled": 4712,
      "Ġcontext": 4713,
      "Ġgeen": 4714,
      "Ġelectrical": 4715,
      "Ġdomain": 4716,
      "kte": 4717,
      "Ġoption": 4718,
      "Ġpoor": 4719,
      "rust": 4720,
      "Ġprin": 4721,
      "Ġmid": 4722,
      "Ġprovision": 4723,
      "Ġhearing": 4724,
      "Ġrecent": 4725,
      "Ġdescrib": 4726,
      "ĠSchool": 4727,
      "If": 4728,
      "rant": 4729,
      "ĠÐ": 4730,
      "ĠSam": 4731,
      "ĠWat": 4732,
      "Ġcaused": 4733,
      "Ġpayment": 4734,
      "ĠSupp": 4735,
      "Ġimprov": 4736,
      "``": 4737,
      "bi": 4738,
      "greg": 4739,
      "itary": 4740,
      "Ġgir": 4741,
      "ĠMart": 4742,
      "ICE": 4743,
      "Ġlarger": 4744,
      "ĠMat": 4745,
      "estions": 4746,
      "phone": 4747,
      "Ġunderstood": 4748,
      "obal": 4749,
      "Ġminutes": 4750,
      "NS": 4751,
      "add": 4752,
      "ifier": 4753,
      "Ġexposure": 4754,
      "ĠâĢĿ": 4755,
      "berg": 4756,
      "Ġnuwe": 4757,
      "Ġwide": 4758,
      "ĠDR": 4759,
      "Ġ49": 4760,
      "ella": 4761,
      "Ġrow": 4762,
      "Ġago": 4763,
      "ĠIll": 4764,
      "Ġgele": 4765,
      "III": 4766,
      "Ġissued": 4767,
      "Ġwoman": 4768,
      "Ġlive": 4769,
      "........................": 4770,
      "Ġbore": 4771,
      "Ġinvent": 4772,
      "Ġ75": 4773,
      "Ġreduce": 4774,
      "Ġreasonable": 4775,
      "ĠSan": 4776,
      "oeg": 4777,
      "Ġdemand": 4778,
      "Ġpanel": 4779,
      "Ġbly": 4780,
      "Ġfat": 4781,
      "Ġprincipal": 4782,
      "Ġnov": 4783,
      "ĠAlso": 4784,
      "iner": 4785,
      "https": 4786,
      "inf": 4787,
      "Ġcryst": 4788,
      "ĠBra": 4789,
      "ader": 4790,
      "ĠWater": 4791,
      "ĠUS": 4792,
      "Ġapparent": 4793,
      "lication": 4794,
      "Ġoutside": 4795,
      "Ġmeasurement": 4796,
      "Ġthickness": 4797,
      "Ġfi": 4798,
      "ĠIP": 4799,
      "Ġsea": 4800,
      "Ġapproximately": 4801,
      "Ġopposite": 4802,
      "Ġvra": 4803,
      "Ġresid": 4804,
      "Ġregister": 4805,
      "Ġattack": 4806,
      "Ġfo": 4807,
      "Ġkinders": 4808,
      "Ġissues": 4809,
      "ishing": 4810,
      "ĠÎ±": 4811,
      "ĠProv": 4812,
      "ĠSecretary": 4813,
      "Ġexisting": 4814,
      "tra": 4815,
      "Ġaper": 4816,
      "Ġmatch": 4817,
      "ĠHam": 4818,
      "Ġrandom": 4819,
      "apers": 4820,
      "Ġdetection": 4821,
      "light": 4822,
      "ĠAng": 4823,
      "urrent": 4824,
      "otic": 4825,
      "come": 4826,
      "Ã¨": 4827,
      "ĠNow": 4828,
      "ght": 4829,
      "posal": 4830,
      "Ġcylinder": 4831,
      "Ġinfluence": 4832,
      "ko": 4833,
      "Ġking": 4834,
      "Ġprotein": 4835,
      "Ġ000": 4836,
      "Ġkept": 4837,
      "Ġlegal": 4838,
      "Ġinstructions": 4839,
      "To": 4840,
      "ĠProf": 4841,
      "2012": 4842,
      "Ġsummary": 4843,
      "Ġplatform": 4844,
      "Ġcircumstances": 4845,
      "Ġtill": 4846,
      "Ġcm": 4847,
      "Ġdro": 4848,
      "Ġplaas": 4849,
      "def": 4850,
      "Ġweeks": 4851,
      "Ba": 4852,
      "Ġtend": 4853,
      "ĠMal": 4854,
      "Ġconsequ": 4855,
      "Ġstop": 4856,
      "ĠHenry": 4857,
      "oit": 4858,
      "onde": 4859,
      "Ġ58": 4860,
      "</": 4861,
      "bour": 4862,
      "Ġsouth": 4863,
      "Ġhu": 4864,
      "ading": 4865,
      "rick": 4866,
      "Ġexperiment": 4867,
      "Ġemb": 4868,
      "Ġfaith": 4869,
      "Ġadvantage": 4870,
      "oding": 4871,
      "Ġsusp": 4872,
      "Ġ53": 4873,
      "Ġarms": 4874,
      "aily": 4875,
      "Ġoblig": 4876,
      "Ġprofession": 4877,
      "Ġturned": 4878,
      "ĠLouis": 4879,
      "ĠSL": 4880,
      "Ġvirt": 4881,
      "iener": 4882,
      "ano": 4883,
      "ita": 4884,
      "Ġequipment": 4885,
      "RS": 4886,
      "va": 4887,
      "enced": 4888,
      "ĠSA": 4889,
      "ieke": 4890,
      "Ġimages": 4891,
      "Ġ2001": 4892,
      "Ġneeded": 4893,
      "pon": 4894,
      "nson": 4895,
      "2018": 4896,
      "!!": 4897,
      "NO": 4898,
      "ĠMer": 4899,
      "ulate": 4900,
      "Ġunc": 4901,
      "',": 4902,
      "elde": 4903,
      "urb": 4904,
      "ĠGre": 4905,
      "ELL": 4906,
      "Ġthread": 4907,
      "ĠDE": 4908,
      "Ġcontained": 4909,
      "Ġdoi": 4910,
      "Ġsetting": 4911,
      "Ġlayers": 4912,
      "Ġcomputing": 4913,
      "PC": 4914,
      "Ġ01": 4915,
      "Ġshare": 4916,
      "nergy": 4917,
      "Ġsituation": 4918,
      "Ġminimum": 4919,
      "mpt": 4920,
      "Ġbeyond": 4921,
      "Ġverh": 4922,
      "itled": 4923,
      "Ġ400": 4924,
      "Ġanimals": 4925,
      "Ġflex": 4926,
      "Ġnut": 4927,
      "ĠBa": 4928,
      "Ġdeal": 4929,
      "Ġguide": 4930,
      "ories": 4931,
      "Ġprices": 4932,
      "Ġthin": 4933,
      "emy": 4934,
      "Ġhear": 4935,
      "Ġinfl": 4936,
      "olic": 4937,
      "ati": 4938,
      "Ġforeign": 4939,
      "Ġtouch": 4940,
      "Ġreally": 4941,
      "omer": 4942,
      "ĠAD": 4943,
      "Ġbreak": 4944,
      "Ġcycl": 4945,
      "oration": 4946,
      "Ġdark": 4947,
      "Ġamend": 4948,
      "Ġgenes": 4949,
      "Ġprofile": 4950,
      "Ġdouble": 4951,
      "Ġtrou": 4952,
      "oma": 4953,
      "ĠMont": 4954,
      "Ġunits": 4955,
      "Ġextending": 4956,
      "Ġtissue": 4957,
      "UC": 4958,
      "ĠNor": 4959,
      "Ġparagraph": 4960,
      "Ġlinear": 4961,
      "Ġorigin": 4962,
      "MENT": 4963,
      "Ġ~": 4964,
      "ref": 4965,
      "ĠSpe": 4966,
      "resh": 4967,
      "Ġcontinued": 4968,
      "'m": 4969,
      "fort": 4970,
      "isk": 4971,
      "Ġexerc": 4972,
      "Ġprovisions": 4973,
      "Ġrapid": 4974,
      "Ġbelong": 4975,
      "ĠHon": 4976,
      "Ġinterp": 4977,
      "Ġ2002": 4978,
      "Ġeight": 4979,
      "Ġprogress": 4980,
      "Ġremed": 4981,
      "Ġreceiver": 4982,
      "Ġconducted": 4983,
      "ta": 4984,
      "ĠChe": 4985,
      "Ġult": 4986,
      "Ġerr": 4987,
      "Ġterug": 4988,
      "mediately": 4989,
      "Ġwet": 4990,
      "Ġ63": 4991,
      "Ġoccasion": 4992,
      "ĠFrank": 4993,
      "Ġidea": 4994,
      "oed": 4995,
      "ĠMass": 4996,
      "Ġ2021": 4997,
      "Ġwarm": 4998,
      "Ġeie": 4999,
      "oles": 5000,
      "ĠBay": 5001,
      "Ġ57": 5002,
      "Ġcompan": 5003,
      "Ġpatent": 5004,
      "Ġphot": 5005,
      "Ġtechniques": 5006,
      "cribed": 5007,
      "Ġgives": 5008,
      "clock": 5009,
      "Ġ62": 5010,
      "Ġappe": 5011,
      "Ġvalve": 5012,
      "shaped": 5013,
      "Ġbehav": 5014,
      "ÈĽie": 5015,
      "ĠDem": 5016,
      "ĠOm": 5017,
      "Ġdepart": 5018,
      "ĠSenator": 5019,
      "Ġhoriz": 5020,
      "Ġlost": 5021,
      "urities": 5022,
      "Ġsomet": 5023,
      "Ġdetected": 5024,
      "ston": 5025,
      "ĠSil": 5026,
      "ocal": 5027,
      "Ġâī": 5028,
      "Ġdeveloped": 5029,
      "ĠDistrict": 5030,
      "year": 5031,
      "Ġri": 5032,
      "Ġled": 5033,
      "abit": 5034,
      "Ġappre": 5035,
      "process": 5036,
      "Ġcollected": 5037,
      "ĠHier": 5038,
      "iful": 5039,
      "Ġconcern": 5040,
      "Ġeducation": 5041,
      "orney": 5042,
      "ellig": 5043,
      "ensation": 5044,
      "Ġusually": 5045,
      "ontal": 5046,
      "Ġpassage": 5047,
      "Ġapplicable": 5048,
      "irty": 5049,
      "Ġcontam": 5050,
      "span": 5051,
      "Ġrepresented": 5052,
      "'ll": 5053,
      "iated": 5054,
      "ship": 5055,
      "Ġprocedure": 5056,
      "ht": 5057,
      "ĠMex": 5058,
      "Ġuseful": 5059,
      "Ġresulting": 5060,
      "Ġstru": 5061,
      "Ġplants": 5062,
      "ĠDef": 5063,
      "encing": 5064,
      "http": 5065,
      "house": 5066,
      "Ġau": 5067,
      "ingu": 5068,
      "Ġvess": 5069,
      "ĠEN": 5070,
      "OH": 5071,
      "Ġwanneer": 5072,
      "ĠSeks": 5073,
      "ayer": 5074,
      "Ġprobe": 5075,
      "ensive": 5076,
      "Ġ92": 5077,
      "Ġaspects": 5078,
      "Ġdry": 5079,
      "Ġdoing": 5080,
      "Dit": 5081,
      "fr": 5082,
      "Ġsell": 5083,
      "iform": 5084,
      "Ġrob": 5085,
      "Ġpolitical": 5086,
      "ka": 5087,
      "ml": 5088,
      "Ð°": 5089,
      "ĠUSA": 5090,
      "Ġaccomp": 5091,
      "ocket": 5092,
      "specific": 5093,
      ".]": 5094,
      "fund": 5095,
      "Ġfit": 5096,
      "ĠPRO": 5097,
      "ĠHu": 5098,
      "Ġdead": 5099,
      "Ġclosed": 5100,
      "Ġsynt": 5101,
      "haust": 5102,
      "At": 5103,
      "za": 5104,
      "ĠTre": 5105,
      "Ġvac": 5106,
      "otes": 5107,
      "ĠPC": 5108,
      "resents": 5109,
      "Ġ72": 5110,
      "ĠâĨĴ": 5111,
      "ĠCharles": 5112,
      "UB": 5113,
      "ei": 5114,
      "rd": 5115,
      "asons": 5116,
      "ĠMary": 5117,
      "Ġhyp": 5118,
      "Ġdelay": 5119,
      "Ġbeste": 5120,
      "related": 5121,
      "SC": 5122,
      "ĠSum": 5123,
      "odies": 5124,
      "ĠØ¥": 5125,
      "Ġentity": 5126,
      "Ġincreasing": 5127,
      "Ġcommunity": 5128,
      "Ġdesigned": 5129,
      "Ġtalk": 5130,
      "Ġexemplary": 5131,
      "Ġ522": 5132,
      "Ġvariety": 5133,
      "ĠWhile": 5134,
      "Ġtreated": 5135,
      "icine": 5136,
      "Ġger": 5137,
      "ades": 5138,
      "Ġdeb": 5139,
      "ounds": 5140,
      "Ġlaws": 5141,
      "Ġindicate": 5142,
      "umin": 5143,
      "Ġanything": 5144,
      "2013": 5145,
      "ĠLE": 5146,
      "Ġcomes": 5147,
      "ruit": 5148,
      "Ġthroughout": 5149,
      "Ġdiameter": 5150,
      "ĠTw": 5151,
      "Ġenige": 5152,
      "Ġye": 5153,
      "ALE": 5154,
      "Ġimprove": 5155,
      "Ġconcentration": 5156,
      "Se": 5157,
      "eration": 5158,
      "ĠIII": 5159,
      "Ġfort": 5160,
      "ĠPac": 5161,
      "2011": 5162,
      "dd": 5163,
      "ocr": 5164,
      "Ġ47": 5165,
      "Ġ68": 5166,
      "ni": 5167,
      "uits": 5168,
      "Ġarch": 5169,
      "Ġserved": 5170,
      "gar": 5171,
      "vang": 5172,
      "onom": 5173,
      "lease": 5174,
      "Ġonline": 5175,
      "reshold": 5176,
      "Ġ61": 5177,
      "Ġschem": 5178,
      "oeie": 5179,
      "Ġadjacent": 5180,
      "Ġcontinue": 5181,
      "Ġthousand": 5182,
      "ĠSunday": 5183,
      "entially": 5184,
      "Ġhuis": 5185,
      "Ġ210": 5186,
      "ĠDig": 5187,
      "Ġrole": 5188,
      "Ġofthe": 5189,
      "Ġpict": 5190,
      "Ġdink": 5191,
      "Ġteacher": 5192,
      "Ġpret": 5193,
      "Ġparallel": 5194,
      "Con": 5195,
      "Ġenj": 5196,
      "Ġchief": 5197,
      "cks": 5198,
      "data": 5199,
      "Ġsat": 5200,
      "Ġeye": 5201,
      "ura": 5202,
      "Ġexact": 5203,
      "Ġspecim": 5204,
      "Res": 5205,
      "olid": 5206,
      "Ġestate": 5207,
      "Ġbrother": 5208,
      "Ġgard": 5209,
      "ĠMad": 5210,
      "ĠBen": 5211,
      "Ġactual": 5212,
      "Ġcam": 5213,
      "Ġneeds": 5214,
      "Ġtrust": 5215,
      "Ġimplemented": 5216,
      "ees": 5217,
      "Ġlens": 5218,
      "akes": 5219,
      "Ġ95": 5220,
      "Ġcountries": 5221,
      "Ġdetermination": 5222,
      "ĠAmerica": 5223,
      "Ġvertical": 5224,
      "ruk": 5225,
      "Ġtransl": 5226,
      "Ġends": 5227,
      "ĠBrown": 5228,
      "Ġfailure": 5229,
      "ipt": 5230,
      "ĠSH": 5231,
      "Ġleer": 5232,
      "Ġrelation": 5233,
      "Ġattrib": 5234,
      "},": 5235,
      "edia": 5236,
      "Ġ140": 5237,
      "Ġprotection": 5238,
      "``(": 5239,
      "gest": 5240,
      "Ġeth": 5241,
      "Ġ64": 5242,
      "hesis": 5243,
      "CO": 5244,
      "KN": 5245,
      "methyl": 5246,
      "Ġbab": 5247,
      "Ġstage": 5248,
      "Ġusers": 5249,
      "Ġ206": 5250,
      "Ġfirm": 5251,
      "Ġeg": 5252,
      "ĠNEW": 5253,
      "Ġdetails": 5254,
      "Ġsometimes": 5255,
      "cr": 5256,
      "sm": 5257,
      "ĠMS": 5258,
      "ĠBel": 5259,
      "ĠEnergy": 5260,
      "ACH": 5261,
      "Ġmembrane": 5262,
      "ØŃÙħØ¯": 5263,
      "Ġrent": 5264,
      "ĠTr": 5265,
      "Ġshowed": 5266,
      "Ġconsideration": 5267,
      "*.": 5268,
      "Ġwave": 5269,
      "ĠBec": 5270,
      "cluded": 5271,
      "Ġillustrates": 5272,
      "NP": 5273,
      "urt": 5274,
      "otal": 5275,
      "oses": 5276,
      "apan": 5277,
      "Ġsecondary": 5278,
      "2017": 5279,
      "Ġbuilt": 5280,
      "EB": 5281,
      "MM": 5282,
      "iat": 5283,
      "elike": 5284,
      "Ġwear": 5285,
      "Ġremains": 5286,
      "Ġsamples": 5287,
      "UND": 5288,
      "arie": 5289,
      "ĠMain": 5290,
      "ĠAlthough": 5291,
      "Ġsupported": 5292,
      "Ġgreen": 5293,
      "Ġseason": 5294,
      "Ġcommission": 5295,
      "Ġcarry": 5296,
      "Ġproblems": 5297,
      "ĠCalif": 5298,
      "ev": 5299,
      "Ġion": 5300,
      "Ġdanger": 5301,
      "Ġfol": 5302,
      "Ġbegan": 5303,
      "ria": 5304,
      "Ġplaces": 5305,
      "Ġverl": 5306,
      "Ġcovered": 5307,
      "Ġindeed": 5308,
      "Ġexchange": 5309,
      "Ġrank": 5310,
      "Ġreduction": 5311,
      "gn": 5312,
      "Ġwoord": 5313,
      "Ġcold": 5314,
      "Ġlig": 5315,
      "ĠMond": 5316,
      "ientific": 5317,
      "ANT": 5318,
      "2016": 5319,
      "Ġpeace": 5320,
      "Ġadopted": 5321,
      "cd": 5322,
      "Î¸": 5323,
      "Ġpick": 5324,
      "arrow": 5325,
      "Ġgiving": 5326,
      "Ġ85": 5327,
      "poss": 5328,
      "Ġspecified": 5329,
      "Ã³n": 5330,
      "oof": 5331,
      "Ġnom": 5332,
      "Ġnoted": 5333,
      "Ġfees": 5334,
      "ĠTwo": 5335,
      "ĠMac": 5336,
      "lands": 5337,
      "Ġcamp": 5338,
      "ette": 5339,
      "Ġjoint": 5340,
      "Ġabsor": 5341,
      "Ġanimal": 5342,
      "ios": 5343,
      "Ġcast": 5344,
      "Ġcounter": 5345,
      "uld": 5346,
      "Ġorders": 5347,
      "tr": 5348,
      "rete": 5349,
      "Ġcond": 5350,
      "ĠNa": 5351,
      "riend": 5352,
      "Ġ99": 5353,
      "Ġfear": 5354,
      "icago": 5355,
      "Ġvent": 5356,
      "ĠIr": 5357,
      "ching": 5358,
      "thern": 5359,
      "Ġunf": 5360,
      "Ġ111": 5361,
      "FR": 5362,
      "UE": 5363,
      "box": 5364,
      "Ġsun": 5365,
      "EPA": 5366,
      "Ġleading": 5367,
      "OWN": 5368,
      "Ġcalculated": 5369,
      "Ġitems": 5370,
      "orther": 5371,
      "erved": 5372,
      "Ġpun": 5373,
      "Ġlack": 5374,
      "ÙĦÙī": 5375,
      "ECT": 5376,
      "Qu": 5377,
      "active": 5378,
      "Ġemissions": 5379,
      "Ġindependent": 5380,
      "Ġvalid": 5381,
      "Ġnumbers": 5382,
      "Ġdiagn": 5383,
      "Ġskin": 5384,
      "Ġorganic": 5385,
      "cher": 5386,
      "ctic": 5387,
      "cean": 5388,
      "Ġarray": 5389,
      "Ġserve": 5390,
      "RIP": 5391,
      "Ġcoupled": 5392,
      "AW": 5393,
      "\\/": 5394,
      "igen": 5395,
      "ĠWH": 5396,
      "Ġraised": 5397,
      "Ġscreen": 5398,
      "iences": 5399,
      "Ġconductive": 5400,
      "CD": 5401,
      "Ġsegment": 5402,
      "pped": 5403,
      "Ġextended": 5404,
      "Ġexpressed": 5405,
      "Ġspeak": 5406,
      "Ġhighest": 5407,
      "Ph": 5408,
      "bur": 5409,
      "erd": 5410,
      "Ġcoming": 5411,
      "Ġability": 5412,
      "ĠChina": 5413,
      "Ġinterests": 5414,
      "ĠPrice": 5415,
      "Ġabsol": 5416,
      "mat": 5417,
      "ĠwÃªreld": 5418,
      "ude": 5419,
      "ornia": 5420,
      "Ġregarding": 5421,
      "Ġdynam": 5422,
      "Ġhar": 5423,
      "Ġconvers": 5424,
      "abil": 5425,
      "ditional": 5426,
      "ĠProt": 5427,
      "Ġready": 5428,
      "rikaanse": 5429,
      "----------------": 5430,
      "ba": 5431,
      "wood": 5432,
      "Ġpad": 5433,
      "Ġstream": 5434,
      "ĠGerman": 5435,
      "Ġgeld": 5436,
      "ĠPen": 5437,
      "riage": 5438,
      "Ġclient": 5439,
      "Ġdoor": 5440,
      "Ġquick": 5441,
      "Ġcreate": 5442,
      "Ġplek": 5443,
      "Ġestimated": 5444,
      "Ġcandid": 5445,
      "IAL": 5446,
      "hou": 5447,
      "ĠSociety": 5448,
      "utive": 5449,
      "Ġseven": 5450,
      "ĠLand": 5451,
      "Ġkeer": 5452,
      "Ġconstruct": 5453,
      "Ġcreated": 5454,
      "Ġviews": 5455,
      "Ġmeasures": 5456,
      "Ġesc": 5457,
      "standing": 5458,
      "ĠRO": 5459,
      "Ġperhaps": 5460,
      "Ġentitled": 5461,
      "Ġaim": 5462,
      "Ġgere": 5463,
      "Ġjob": 5464,
      "Ġ106": 5465,
      "ĠÂ©": 5466,
      "ĠCongress": 5467,
      "Ġnod": 5468,
      "ĠCP": 5469,
      "ours": 5470,
      "Ġevents": 5471,
      "ĠSi": 5472,
      "sem": 5473,
      "this": 5474,
      "ĠScience": 5475,
      "Ã¯": 5476,
      "Ġtl": 5477,
      "Ġmal": 5478,
      "icular": 5479,
      "ĠMich": 5480,
      "Ġcommunications": 5481,
      "xy": 5482,
      "Ġnames": 5483,
      "irth": 5484,
      "ĠGreen": 5485,
      "You": 5486,
      "ned": 5487,
      "ĠMember": 5488,
      "ĠPost": 5489,
      "Ġexcess": 5490,
      "Ġcollect": 5491,
      "isation": 5492,
      "Ġwor": 5493,
      "uting": 5494,
      "Ġimmediately": 5495,
      "Ġsac": 5496,
      "ĠEr": 5497,
      "Ġexposed": 5498,
      "ĠGreat": 5499,
      "Ġplain": 5500,
      "Ġalles": 5501,
      "ARY": 5502,
      "Ġparameters": 5503,
      "Ġnamed": 5504,
      "Ġanc": 5505,
      "ĠJer": 5506,
      "body": 5507,
      "Ġprocesses": 5508,
      "ĠÏĢ": 5509,
      "Ġofficers": 5510,
      "Ġvict": 5511,
      "ĠHall": 5512,
      "ĠJul": 5513,
      "Ġplane": 5514,
      "Ġpreced": 5515,
      "Ġhighly": 5516,
      "Ġbeginning": 5517,
      "Ġdiscussed": 5518,
      "BER": 5519,
      "gments": 5520,
      "ota": 5521,
      "ĠDon": 5522,
      "ĠKn": 5523,
      "Ġdischarge": 5524,
      "Ġextra": 5525,
      "Ġeasily": 5526,
      "Ind": 5527,
      "Ġot": 5528,
      "ĠCell": 5529,
      "othe": 5530,
      "ologies": 5531,
      "Ġnegative": 5532,
      "iling": 5533,
      "ĠBer": 5534,
      "Ġ622": 5535,
      "Ġiets": 5536,
      "Ġcommerc": 5537,
      "Ġ130": 5538,
      "Ġcoal": 5539,
      "Ġserious": 5540,
      "_{\\": 5541,
      "Ġpurchase": 5542,
      "cons": 5543,
      "rations": 5544,
      "Ġded": 5545,
      "eline": 5546,
      "Ġproperly": 5547,
      "Ġcapable": 5548,
      "ĠEnvironmental": 5549,
      "FF": 5550,
      "Ġol": 5551,
      "ĠDiv": 5552,
      "Ġrepresents": 5553,
      "Ġimportance": 5554,
      "ĠService": 5555,
      "Ġtry": 5556,
      "uman": 5557,
      "Ġjury": 5558,
      "2020": 5559,
      "Ġcollection": 5560,
      "Ġinstrument": 5561,
      "nce": 5562,
      "Ġtit": 5563,
      "Ġslow": 5564,
      "Ġpipe": 5565,
      "Ġreve": 5566,
      "ffer": 5567,
      "Ġverw": 5568,
      "arged": 5569,
      "ancing": 5570,
      "Ġindex": 5571,
      "pass": 5572,
      "Ġaange": 5573,
      "Ġmel": 5574,
      "Ġbecomes": 5575,
      "raft": 5576,
      "Ġscope": 5577,
      "Ġhandle": 5578,
      "ACT": 5579,
      "ibrary": 5580,
      "Ġalleg": 5581,
      "Ġclinical": 5582,
      "Ġpolar": 5583,
      "Ġimproved": 5584,
      "Ġcompounds": 5585,
      "Ġstraight": 5586,
      "Ġgranted": 5587,
      "Ġcompleted": 5588,
      "ias": 5589,
      "kl": 5590,
      "Â®": 5591,
      "ato": 5592,
      "ĠSl": 5593,
      "uris": 5594,
      "ĠEV": 5595,
      "Ġ105": 5596,
      "Ġassign": 5597,
      "Ġreports": 5598,
      "URE": 5599,
      "ĠÏĥ": 5600,
      "ĠÃł": 5601,
      "Ġoxide": 5602,
      "bare": 5603,
      "ech": 5604,
      "Ġtrib": 5605,
      "Ġthee": 5606,
      "Ġreached": 5607,
      "ĠEnd": 5608,
      "apons": 5609,
      "ibly": 5610,
      "ĠChicago": 5611,
      "Ġgenerate": 5612,
      "Ġefforts": 5613,
      "Ġadapted": 5614,
      "aper": 5615,
      "atically": 5616,
      "Ġdies": 5617,
      "irt": 5618,
      "iaal": 5619,
      "rison": 5620,
      "TON": 5621,
      "ca": 5622,
      "pers": 5623,
      "Â·": 5624,
      "Ġcert": 5625,
      "Ġbear": 5626,
      "ĠMus": 5627,
      "ĠUs": 5628,
      "Ġreflect": 5629,
      "Ġpolymer": 5630,
      "voor": 5631,
      "Ġsnow": 5632,
      "Ġproportion": 5633,
      "Ġseem": 5634,
      "Ġsurround": 5635,
      "Ġarmy": 5636,
      "KS": 5637,
      "reme": 5638,
      "stream": 5639,
      "Ġstress": 5640,
      "Ġexhaust": 5641,
      "ĠInformation": 5642,
      "Ġneem": 5643,
      "2015": 5644,
      "Ġobjects": 5645,
      "Ġwest": 5646,
      "ĠAir": 5647,
      "ĠJe": 5648,
      "Ġfee": 5649,
      "iveness": 5650,
      "press": 5651,
      "Ġaer": 5652,
      "Ġsecure": 5653,
      "pective": 5654,
      "Ġarticles": 5655,
      "Ġlateral": 5656,
      "stra": 5657,
      "Ġbehalf": 5658,
      "ography": 5659,
      "Ġlief": 5660,
      "âĢĭ": 5661,
      "ĠForm": 5662,
      "Ġassert": 5663,
      "Ġtempor": 5664,
      "liament": 5665,
      "velopment": 5666,
      "Im": 5667,
      "flu": 5668,
      "Ġphen": 5669,
      "Ġinn": 5670,
      "veel": 5671,
      "ATED": 5672,
      "Ġpossession": 5673,
      "Ġmatrix": 5674,
      "orthern": 5675,
      "UG": 5676,
      "ey": 5677,
      "ĠCap": 5678,
      "abric": 5679,
      "Ġ78": 5680,
      "Ġcauses": 5681,
      "Ġradio": 5682,
      "Ġinterpret": 5683,
      "nel": 5684,
      "Ġtask": 5685,
      "Ġapart": 5686,
      "Ġomdat": 5687,
      "hydro": 5688,
      "Ġalgorithm": 5689,
      "EX": 5690,
      "ny": 5691,
      "orough": 5692,
      "Ġchall": 5693,
      "ribution": 5694,
      "Ġrecently": 5695,
      "Ġfacts": 5696,
      "ĠJohnson": 5697,
      "ĠScholar": 5698,
      "}^{": 5699,
      "Ġglo": 5700,
      "rys": 5701,
      "Ġ114": 5702,
      "2014": 5703,
      "Ġrecorded": 5704,
      "Ġpure": 5705,
      "Ġpray": 5706,
      "ĠFre": 5707,
      "Ġ66": 5708,
      "Ġquestions": 5709,
      "ĠSEQ": 5710,
      "Ġaid": 5711,
      "ona": 5712,
      "Ġsides": 5713,
      "Ġcard": 5714,
      "roy": 5715,
      "Ġmajority": 5716,
      "\".": 5717,
      "oel": 5718,
      "sor": 5719,
      "inity": 5720,
      "Ġfilled": 5721,
      "Ġthreshold": 5722,
      "Ġrequires": 5723,
      "Ġequival": 5724,
      "IES": 5725,
      "ĠMag": 5726,
      "irmed": 5727,
      "formed": 5728,
      "Ġpersoon": 5729,
      "Ġskool": 5730,
      "Ġliber": 5731,
      "Ġfigure": 5732,
      "ĠAfrica": 5733,
      "Pl": 5734,
      "icated": 5735,
      "ete": 5736,
      "place": 5737,
      "Ġ71": 5738,
      "Ġ$\\": 5739,
      "ĠPlan": 5740,
      "ĠGermany": 5741,
      "Ġcategor": 5742,
      "Ġpix": 5743,
      "Ġeffic": 5744,
      "duc": 5745,
      "ĠClass": 5746,
      "OLD": 5747,
      "Ġmilk": 5748,
      "ĠLong": 5749,
      "Ġleaves": 5750,
      "2009": 5751,
      "Ġassociation": 5752,
      "Ġoffered": 5753,
      "Ġfemale": 5754,
      "Ġinhib": 5755,
      "Ġamb": 5756,
      "ĠRobert": 5757,
      "Ġdelivered": 5758,
      "Ġwitness": 5759,
      "Ġappointed": 5760,
      "Ġtin": 5761,
      "oming": 5762,
      "ceived": 5763,
      "arde": 5764,
      "Ġ82": 5765,
      "Ġ1990": 5766,
      "Ġpermit": 5767,
      "sych": 5768,
      "iday": 5769,
      "Ġ59": 5770,
      "erman": 5771,
      "Ġsympt": 5772,
      "Ġsimply": 5773,
      "ĠFranc": 5774,
      "Ġopsies": 5775,
      "()": 5776,
      "ental": 5777,
      "ĠSatur": 5778,
      "ĠDuring": 5779,
      "ĠWell": 5780,
      "achment": 5781,
      "Ġaffected": 5782,
      "fi": 5783,
      "Ø¬": 5784,
      "Ġbath": 5785,
      "ĠJack": 5786,
      "ĠReport": 5787,
      "ographic": 5788,
      "Med": 5789,
      "Or": 5790,
      "jp": 5791,
      "uer": 5792,
      "ellect": 5793,
      "ĠIV": 5794,
      "hedul": 5795,
      "Ġmoving": 5796,
      "Ġfacilities": 5797,
      "Ġcontrolled": 5798,
      "Ġexcell": 5799,
      "ether": 5800,
      "ĠØ¹Ø¨": 5801,
      "My": 5802,
      "ĠNote": 5803,
      "Ġ84": 5804,
      "Ġagents": 5805,
      "Ġagency": 5806,
      "Ġformula": 5807,
      "othing": 5808,
      "Ġassessment": 5809,
      "He": 5810,
      "Ġsend": 5811,
      "Ġcart": 5812,
      "itors": 5813,
      "Ġheight": 5814,
      "osen": 5815,
      "Ġemission": 5816,
      "Ġrecept": 5817,
      "Ġvolgende": 5818,
      "ĠCalifornia": 5819,
      "zy": 5820,
      "Ġbig": 5821,
      "Ġfelt": 5822,
      "Ġmask": 5823,
      "ĠWhe": 5824,
      "Ġdirected": 5825,
      "Ġannual": 5826,
      "AA": 5827,
      "Ġwinter": 5828,
      "Ġvary": 5829,
      "Ġisol": 5830,
      "andag": 5831,
      "ricult": 5832,
      "ESC": 5833,
      "Ġsmaller": 5834,
      "Î¿Ïħ": 5835,
      "Ġeasy": 5836,
      "lier": 5837,
      "erde": 5838,
      "Ġconven": 5839,
      "ĠFe": 5840,
      "Ġelev": 5841,
      "ĠQue": 5842,
      "ĠLeg": 5843,
      "Ġmeaning": 5844,
      "Ġalmal": 5845,
      "Ġconventional": 5846,
      "Ġfer": 5847,
      "rage": 5848,
      "ĠManagement": 5849,
      "Ġpiece": 5850,
      "pie": 5851,
      "Ġinject": 5852,
      "ĠCy": 5853,
      "urer": 5854,
      "ava": 5855,
      "Ġscale": 5856,
      "Ġparticles": 5857,
      "Ġengaged": 5858,
      "Ġmarried": 5859,
      "Ġaudio": 5860,
      "atin": 5861,
      "izer": 5862,
      "Ġpossess": 5863,
      "ĠAfrika": 5864,
      "UI": 5865,
      "ĠCr": 5866,
      "ado": 5867,
      "ORT": 5868,
      "ĠTur": 5869,
      "ĠBill": 5870,
      "Ġuses": 5871,
      "Ġletters": 5872,
      "ĠSecond": 5873,
      "Ġarrangement": 5874,
      "Ġargument": 5875,
      "Ġasc": 5876,
      "ĠWhere": 5877,
      "Ġrig": 5878,
      "aph": 5879,
      "Ġsyn": 5880,
      "ĠVirgin": 5881,
      "nem": 5882,
      "Ġbow": 5883,
      ".......": 5884,
      "Ġpositioned": 5885,
      "Ġprotocol": 5886,
      "Ġmonitoring": 5887,
      "ao": 5888,
      "ĠÃ©": 5889,
      "ani": 5890,
      "Ġpin": 5891,
      "Ġdaughter": 5892,
      "Ġly": 5893,
      "Ġsole": 5894,
      "Ġrock": 5895,
      "Ġattend": 5896,
      "Ġextend": 5897,
      "Ġsales": 5898,
      "Ġallows": 5899,
      "Ġvariable": 5900,
      "GR": 5901,
      "alm": 5902,
      "rogen": 5903,
      "ĠAB": 5904,
      "ĠCL": 5905,
      "uli": 5906,
      "ama": 5907,
      "ĠWall": 5908,
      "ĠStock": 5909,
      "Ġlaid": 5910,
      "Ġdistinct": 5911,
      "INGS": 5912,
      "Ġderived": 5913,
      "ĠArch": 5914,
      "bes": 5915,
      "iw": 5916,
      "ln": 5917,
      "isms": 5918,
      "alse": 5919,
      "Ġmaster": 5920,
      "Ġnone": 5921,
      "ĠSou": 5922,
      "Ġpresident": 5923,
      "Ġreach": 5924,
      "oyal": 5925,
      "Ġchanged": 5926,
      "Ġsampl": 5927,
      "Ġordinary": 5928,
      "gro": 5929,
      "hang": 5930,
      "organ": 5931,
      "ĠGoogle": 5932,
      "âĢĿ,": 5933,
      "Ġstudents": 5934,
      "Ġrestrict": 5935,
      "Ġofficer": 5936,
      "Ġanalyz": 5937,
      "HT": 5938,
      "oria": 5939,
      "Ġbev": 5940,
      "igation": 5941,
      "âĢĿ.": 5942,
      "Ġinside": 5943,
      "Ġlongitud": 5944,
      "Ġcharacteristics": 5945,
      "Ġannoun": 5946,
      "Ġpist": 5947,
      "Ġber": 5948,
      "ĠWed": 5949,
      "ĠLim": 5950,
      "Ġcarrying": 5951,
      "Ġpas": 5952,
      "rog": 5953,
      "stract": 5954,
      "Ġlov": 5955,
      "ĠPers": 5956,
      "ĠâĢŀ": 5957,
      "Ġremark": 5958,
      "Ġgrand": 5959,
      "By": 5960,
      "mi": 5961,
      "Ġdus": 5962,
      "ĠProgram": 5963,
      "Ġopened": 5964,
      "vail": 5965,
      "Ġidentify": 5966,
      "ĠCorporation": 5967,
      "Ġought": 5968,
      "Ġdocuments": 5969,
      "Ons": 5970,
      "OUS": 5971,
      "eland": 5972,
      "Ġweather": 5973,
      "Ġmodified": 5974,
      "Ġtransmitted": 5975,
      "EEE": 5976,
      "Ġsignificantly": 5977,
      "Ġ08": 5978,
      "Ġtechnology": 5979,
      "Ġwalls": 5980,
      "Ġconsisting": 5981,
      "Table": 5982,
      "bal": 5983,
      "ĠCapt": 5984,
      "ĠWood": 5985,
      "Ġweak": 5986,
      "ĠStr": 5987,
      "Ġmerely": 5988,
      "Ġentirely": 5989,
      "Ġintroduced": 5990,
      "Ġenjoy": 5991,
      "ua": 5992,
      "Ġporn": 5993,
      "Ġmission": 5994,
      "Ġtravel": 5995,
      "ancer": 5996,
      "Ġregulations": 5997,
      "Ġpetitioner": 5998,
      "Ġquarter": 5999,
      "Ġprinciples": 6000,
      "GA": 6001,
      "uous": 6002,
      "Î®": 6003,
      "Ġsulf": 6004,
      "ĠHz": 6005,
      "ested": 6006,
      "ĠJapan": 6007,
      "unic": 6008,
      "Ġ74": 6009,
      "Ġdegrees": 6010,
      "STR": 6011,
      "eel": 6012,
      "inner": 6013,
      "Ġappell": 6014,
      "Ġsmooth": 6015,
      "Ġvoel": 6016,
      "Ġlooking": 6017,
      "Ġcylind": 6018,
      "Ġ`": 6019,
      "Ġcav": 6020,
      "Ġgear": 6021,
      "oly": 6022,
      "Ġhair": 6023,
      "Ġneither": 6024,
      "Ġguar": 6025,
      "Ġclearly": 6026,
      "Ġdiscussion": 6027,
      "Ġentry": 6028,
      "Ġtakes": 6029,
      "Ġsteel": 6030,
      "board": 6031,
      "Ġalternative": 6032,
      "Ġhorizontal": 6033,
      "'re": 6034,
      "?\"": 6035,
      "Acc": 6036,
      "ĠMess": 6037,
      "Ġseek": 6038,
      "geb": 6039,
      "book": 6040,
      "pir": 6041,
      "ĠMen": 6042,
      "Ġbrief": 6043,
      "Ġexperiments": 6044,
      "Ġpackage": 6045,
      "ĠSaturday": 6046,
      "Î¬": 6047,
      "Ø£": 6048,
      "Ġti": 6049,
      "ingly": 6050,
      "what": 6051,
      "Le": 6052,
      "point": 6053,
      "Ġcivil": 6054,
      "Ġtraffic": 6055,
      "ALL": 6056,
      "Ġheavy": 6057,
      "hors": 6058,
      "xi": 6059,
      "Ġcop": 6060,
      "Ġgoeie": 6061,
      "Ġspecifically": 6062,
      "Ġwish": 6063,
      "Ġmale": 6064,
      "ags": 6065,
      "Ġ76": 6066,
      "Ġstandards": 6067,
      "going": 6068,
      "RNAs": 6069,
      "ĠAssociation": 6070,
      "-.": 6071,
      "Øµ": 6072,
      "inations": 6073,
      "Ġlu": 6074,
      "yself": 6075,
      "beeld": 6076,
      "Ġindicates": 6077,
      "Ġpatterns": 6078,
      "Ġcycle": 6079,
      "iemand": 6080,
      "TE": 6081,
      "bury": 6082,
      "wyl": 6083,
      "Ġwww": 6084,
      "Ġwalk": 6085,
      "ĠTex": 6086,
      "ĠCam": 6087,
      "ĠED": 6088,
      "Ġfunds": 6089,
      "Ġmiddle": 6090,
      "Ġcitiz": 6091,
      "gage": 6092,
      "Ġnorm": 6093,
      "Ġvas": 6094,
      "ĠMaar": 6095,
      "ĠGold": 6096,
      "antly": 6097,
      "Ġblue": 6098,
      "ĠInstitute": 6099,
      "ĠMonday": 6100,
      "RIPTION": 6101,
      "Cont": 6102,
      "ded": 6103,
      "staan": 6104,
      "Ġ250": 6105,
      "ĠWorld": 6106,
      "Ġsust": 6107,
      "ferring": 6108,
      "Ġque": 6109,
      "Ġdefect": 6110,
      "Ġgrond": 6111,
      "Ġpredict": 6112,
      "han": 6113,
      "je": 6114,
      "Ġsort": 6115,
      "asies": 6116,
      "Ġnoise": 6117,
      "INE": 6118,
      "Ġdrawn": 6119,
      "MB": 6120,
      "Ġharm": 6121,
      "ĠSince": 6122,
      "utral": 6123,
      "agte": 6124,
      "ensions": 6125,
      "ĠAdminist": 6126,
      "Ġtestim": 6127,
      "ĠSpring": 6128,
      "Ġopportunity": 6129,
      "Ġpor": 6130,
      "Ġdil": 6131,
      "ĠCR": 6132,
      "Ġprove": 6133,
      "acing": 6134,
      "text": 6135,
      "epend": 6136,
      "Ġnetworks": 6137,
      "Ġeconomic": 6138,
      "Ġbeautiful": 6139,
      "SE": 6140,
      "âĤ¬": 6141,
      "Ġbele": 6142,
      "ĠFour": 6143,
      "Ġintermediate": 6144,
      "Ġgebe": 6145,
      "Ġagree": 6146,
      "Ġlocking": 6147,
      "Ġinstitution": 6148,
      "Ġstrateg": 6149,
      ".[": 6150,
      "rote": 6151,
      "stel": 6152,
      "ĠPri": 6153,
      "Ġproof": 6154,
      "anded": 6155,
      "Ġfacilit": 6156,
      "ĠFurthermore": 6157,
      "MF": 6158,
      "Ġtbe": 6159,
      "Ġbatter": 6160,
      "ĠDay": 6161,
      "Ġdose": 6162,
      "Ġboek": 6163,
      "lementary": 6164,
      "ĠForex": 6165,
      "eve": 6166,
      "ĠPet": 6167,
      "amples": 6168,
      "Ġuniform": 6169,
      "ĠBre": 6170,
      "ĠDown": 6171,
      "usiness": 6172,
      "ĠJun": 6173,
      "2010": 6174,
      "Ġparticipants": 6175,
      "diction": 6176,
      "rid": 6177,
      "Ġeast": 6178,
      "Ġgran": 6179,
      "Ġ1999": 6180,
      "Ġdistributed": 6181,
      "ĠRepublic": 6182,
      "Ġindustry": 6183,
      "Ġink": 6184,
      "Ġones": 6185,
      "Ġ67": 6186,
      "Ġtrain": 6187,
      "Ġordered": 6188,
      "ĠExample": 6189,
      "Ġensure": 6190,
      "cor": 6191,
      "ĠØµ": 6192,
      "Ġtransistor": 6193,
      "ĠØ¹ÙĦÙĬ": 6194,
      "volg": 6195,
      "Ġmaintain": 6196,
      "Ġcharged": 6197,
      "ga": 6198,
      "enna": 6199,
      "Ġben": 6200,
      "Ġmouth": 6201,
      "ĠOnt": 6202,
      "Ġdisplayed": 6203,
      "Ġsummer": 6204,
      "hens": 6205,
      "Ġlos": 6206,
      "Ġvector": 6207,
      "ĠHist": 6208,
      "ague": 6209,
      "Ġrich": 6210,
      "unity": 6211,
      "elsel": 6212,
      "appe": 6213,
      "ROM": 6214,
      "What": 6215,
      "Ġlif": 6216,
      "ĠTer": 6217,
      "ĠTown": 6218,
      "Ġcondu": 6219,
      "Ġgratis": 6220,
      "ÙħØ±": 6221,
      "ĠParis": 6222,
      "EY": 6223,
      "rapy": 6224,
      "Ġsections": 6225,
      "ĠInst": 6226,
      "ĠStand": 6227,
      "Ġassigned": 6228,
      "Ġactually": 6229,
      "UD": 6230,
      "ban": 6231,
      "ener": 6232,
      "Ġsonder": 6233,
      "Ġresist": 6234,
      "Ġ96": 6235,
      "reative": 6236,
      "brid": 6237,
      "Ġsequences": 6238,
      "Ġchemical": 6239,
      "Ġconcerning": 6240,
      "Î´": 6241,
      "Ġwild": 6242,
      "Ġmes": 6243,
      "Ġnation": 6244,
      "Ġspes": 6245,
      "Is": 6246,
      "ares": 6247,
      "bb": 6248,
      "iy": 6249,
      "rr": 6250,
      "iture": 6251,
      "Yes": 6252,
      "public": 6253,
      "rically": 6254,
      "Ġtree": 6255,
      "Ġcov": 6256,
      "itÃ©": 6257,
      "Ġdaily": 6258,
      "ĠLee": 6259,
      "Ġhydrogen": 6260,
      "moet": 6261,
      "including": 6262,
      "ESCRIPTION": 6263,
      "}(": 6264,
      "Â§": 6265,
      "Ġvs": 6266,
      "Ġseal": 6267,
      "istical": 6268,
      "Ġbeteken": 6269,
      "Ġsets": 6270,
      "Ġcoord": 6271,
      "Ġgradu": 6272,
      "ITY": 6273,
      "Ġindividuals": 6274,
      "ĠJudge": 6275,
      "dim": 6276,
      "Ġfabric": 6277,
      "ĠSTR": 6278,
      "ĠCirc": 6279,
      "ĠDC": 6280,
      "ĠOut": 6281,
      "ipher": 6282,
      "actor": 6283,
      "Ġelection": 6284,
      "Ġeffort": 6285,
      "Ġpursuant": 6286,
      "tre": 6287,
      "})": 6288,
      "Ġpaar": 6289,
      "Ġmixed": 6290,
      "left": 6291,
      "Ġenl": 6292,
      "Ġchrom": 6293,
      "ĠÎµ": 6294,
      "bedo": 6295,
      "Ġsubsequent": 6296,
      "Ġsafety": 6297,
      "aration": 6298,
      "urns": 6299,
      "ĠMA": 6300,
      "ĠMale": 6301,
      "ĠBor": 6302,
      "Ġheating": 6303,
      "Ġitem": 6304,
      "antic": 6305,
      "uma": 6306,
      "ibration": 6307,
      "Ġincreases": 6308,
      "alkyl": 6309,
      "Ġwrong": 6310,
      "riminal": 6311,
      "Ġevaluation": 6312,
      "ĠSimilar": 6313,
      "Ġdivided": 6314,
      "OV": 6315,
      "stud": 6316,
      "ĠDu": 6317,
      "elled": 6318,
      "Ġtherein": 6319,
      "Ġacts": 6320,
      "Ġoccurs": 6321,
      "mosp": 6322,
      "ĠIss": 6323,
      "ĠDirect": 6324,
      "ĠHot": 6325,
      "Ġ523": 6326,
      "Ġcommercial": 6327,
      "Ġmap": 6328,
      "Ġmiss": 6329,
      "001": 6330,
      "ifies": 6331,
      "ected": 6332,
      "Ġkyk": 6333,
      "Ġdoct": 6334,
      "Ġmaat": 6335,
      "Ġshell": 6336,
      "Ġdifferences": 6337,
      "2008": 6338,
      "Ġvisual": 6339,
      "ĠIsland": 6340,
      "Ġcouns": 6341,
      "Ġpreparation": 6342,
      "know": 6343,
      "icial": 6344,
      "Ġlever": 6345,
      "anged": 6346,
      "Ġaccom": 6347,
      "Ġcorrel": 6348,
      "wardly": 6349,
      "Ġprojection": 6350,
      "Ġabsence": 6351,
      "Ġrecommend": 6352,
      "Sub": 6353,
      "oir": 6354,
      "tical": 6355,
      "Ġactions": 6356,
      "onal": 6357,
      "ĠBR": 6358,
      "ĠJy": 6359,
      "ĠIns": 6360,
      "Ġdesire": 6361,
      "Ġ116": 6362,
      "Ġdepartment": 6363,
      "ĠArticle": 6364,
      "effect": 6365,
      "Ġpump": 6366,
      "iffer": 6367,
      "Ġmodern": 6368,
      "Ġsexes": 6369,
      "Ġsubstituted": 6370,
      "Google": 6371,
      "iÃ³n": 6372,
      "pan": 6373,
      "Ġlek": 6374,
      "Ġ202": 6375,
      "voer": 6376,
      "ĠØ¹Ø¨Ø¯": 6377,
      "law": 6378,
      "wers": 6379,
      "ĠOb": 6380,
      "Ġ79": 6381,
      "Ġsupplied": 6382,
      "Ġminister": 6383,
      "ÙħØ§": 6384,
      "Ġstatements": 6385,
      "Ġdetailed": 6386,
      "possible": 6387,
      "TT": 6388,
      "cs": 6389,
      "lang": 6390,
      "Ġtlie": 6391,
      "Ġdrug": 6392,
      "ĠCode": 6393,
      "Ġ230": 6394,
      "ĠWal": 6395,
      "ACE": 6396,
      "Ġbalance": 6397,
      "ĠVirginia": 6398,
      "ģĦ": 6399,
      "Ġwon": 6400,
      "adies": 6401,
      "Ġchain": 6402,
      "Ġprison": 6403,
      "Ġavoid": 6404,
      "Ġcombined": 6405,
      "Ġgemaak": 6406,
      "How": 6407,
      "bec": 6408,
      "fig": 6409,
      "such": 6410,
      "Ġfra": 6411,
      "Ġgone": 6412,
      "ols": 6413,
      "ĠRad": 6414,
      "Ġsuc": 6415,
      "gee": 6416,
      "ĠMinister": 6417,
      "iu": 6418,
      "Ġfix": 6419,
      "ĠmL": 6420,
      "Ġvote": 6421,
      "ĠDisc": 6422,
      "ideos": 6423,
      "Ġremote": 6424,
      "exp": 6425,
      "Ġdriving": 6426,
      "\">": 6427,
      "pet": 6428,
      "eding": 6429,
      "ĠHand": 6430,
      "ĠRob": 6431,
      "iks": 6432,
      "Ġaggreg": 6433,
      "Ġcustomers": 6434,
      "Ġdated": 6435,
      "Ġinqu": 6436,
      "Ġhus": 6437,
      "ĠIEEE": 6438,
      "Ġ122": 6439,
      "ĠItaly": 6440,
      "Ġremove": 6441,
      "prise": 6442,
      "ĠAdd": 6443,
      "Ġowner": 6444,
      "Ġanti": 6445,
      "aardie": 6446,
      "Ġcompanies": 6447,
      "Ġvind": 6448,
      "Ġgly": 6449,
      "Ġforces": 6450,
      "ulic": 6451,
      "Ġstim": 6452,
      "ĠFemale": 6453,
      "Ġcomment": 6454,
      "Ġresolution": 6455,
      "activ": 6456,
      "Ġ115": 6457,
      "Ġlooked": 6458,
      "Ġoccurred": 6459,
      "irable": 6460,
      "ÏĮ": 6461,
      "oring": 6462,
      "Ġbinding": 6463,
      "Ġ86": 6464,
      "INS": 6465,
      "Ġselfs": 6466,
      "Ġconsistent": 6467,
      "Ġappreci": 6468,
      "miss": 6469,
      "name": 6470,
      "Ġhart": 6471,
      "Ġupl": 6472,
      "ĠBM": 6473,
      "plan": 6474,
      "Ġexistence": 6475,
      "ĠOhio": 6476,
      "fs": 6477,
      "rance": 6478,
      "ena": 6479,
      "Ġfell": 6480,
      "Ġmarg": 6481,
      "ĠRem": 6482,
      "oston": 6483,
      "Ġ103": 6484,
      "Ġamino": 6485,
      "Ġremaining": 6486,
      "Ġmoont": 6487,
      "Ġtried": 6488,
      "Ġbehind": 6489,
      "mar": 6490,
      "alian": 6491,
      "Ġefficient": 6492,
      "Ġ212": 6493,
      "Ġalt": 6494,
      "alled": 6495,
      "athy": 6496,
      "ĠdiÃ©": 6497,
      "Ġfamil": 6498,
      "Ġwidth": 6499,
      "Îĵ": 6500,
      "reement": 6501,
      "itative": 6502,
      "lets": 6503,
      "ĠRail": 6504,
      "Ġ118": 6505,
      "inet": 6506,
      "Ġpy": 6507,
      "ĠAS": 6508,
      "ĠLu": 6509,
      "unk": 6510,
      "ferred": 6511,
      "Ġarrow": 6512,
      "Ġgoes": 6513,
      "Ġdecided": 6514,
      "Ġhorse": 6515,
      "ĠbinÃªre": 6516,
      "TM": 6517,
      "mos": 6518,
      "hent": 6519,
      "Ġtheory": 6520,
      "emde": 6521,
      "Ġdisclosed": 6522,
      "Ġdivision": 6523,
      "esterday": 6524,
      "between": 6525,
      "lak": 6526,
      "Ġburn": 6527,
      "roph": 6528,
      "ĠAP": 6529,
      "ĠJose": 6530,
      "Ġjuris": 6531,
      "ISH": 6532,
      "ommod": 6533,
      "Ġdefendants": 6534,
      "View": 6535,
      "eu": 6536,
      "Â£": 6537,
      "Ð¾": 6538,
      "Ġsand": 6539,
      "ĠBal": 6540,
      "ĠWang": 6541,
      "opic": 6542,
      "Ġ09": 6543,
      "Ġconsent": 6544,
      "Ġexecution": 6545,
      "Ġexecuted": 6546,
      "Ġcontainer": 6547,
      "OE": 6548,
      "Ġwie": 6549,
      "Ġrecess": 6550,
      "Ġrise": 6551,
      "Ġactu": 6552,
      "Ġsilicon": 6553,
      "ellectual": 6554,
      "pi": 6555,
      "pra": 6556,
      "wart": 6557,
      "Ġll": 6558,
      "sey": 6559,
      "ĠGroup": 6560,
      "alls": 6561,
      "Ġ623": 6562,
      "Ġdisk": 6563,
      "Ġappearance": 6564,
      "Ġincorporated": 6565,
      "FC": 6566,
      "mond": 6567,
      "ĠBoth": 6568,
      "ĠBook": 6569,
      "ĠEll": 6570,
      "ĠØ±": 6571,
      "Ġtrim": 6572,
      "ERE": 6573,
      "Ġinches": 6574,
      "ETAIL": 6575,
      "Ġsteam": 6576,
      "Ġbenefits": 6577,
      "CB": 6578,
      "bu": 6579,
      "po": 6580,
      "were": 6581,
      "ÎŃ": 6582,
      "Ð¸": 6583,
      "Ġaltyd": 6584,
      "illing": 6585,
      "Ġrace": 6586,
      "aught": 6587,
      "Ġegter": 6588,
      "DE": 6589,
      "FT": 6590,
      "bro": 6591,
      "jo": 6592,
      "Ġign": 6593,
      "asm": 6594,
      "adel": 6595,
      "ework": 6596,
      "ĠUnivers": 6597,
      "Ġrelease": 6598,
      "ĠReview": 6599,
      "Ġrunning": 6600,
      "itect": 6601,
      "ĠEven": 6602,
      "abilities": 6603,
      "atever": 6604,
      "Ġ600": 6605,
      "Ġ88": 6606,
      "Ġcontrols": 6607,
      "Ġshares": 6608,
      "Ġpowers": 6609,
      "ĠâĢĺâĢĺ(": 6610,
      "journal": 6611,
      "Ø°": 6612,
      "rec": 6613,
      "orter": 6614,
      "ĠPo": 6615,
      "Ġgrain": 6616,
      "Ġdepend": 6617,
      "Ġmeasuring": 6618,
      "Ġfailed": 6619,
      "Ġprinciple": 6620,
      "Ġdamage": 6621,
      "Sec": 6622,
      "rator": 6623,
      "Ġbied": 6624,
      "ĠHo": 6625,
      "Ġsector": 6626,
      "ilding": 6627,
      "Ġgreatest": 6628,
      "Ġforest": 6629,
      "Ġimplementation": 6630,
      "Ġsubmitted": 6631,
      ".^": 6632,
      "OOD": 6633,
      "onic": 6634,
      "Ġmand": 6635,
      "Ġmice": 6636,
      "ĠLD": 6637,
      "retion": 6638,
      "Ġkinds": 6639,
      "Ġgelede": 6640,
      "Ġchannels": 6641,
      "Ġaccepted": 6642,
      "cence": 6643,
      "nn": 6644,
      "âģĦ": 6645,
      "Ġcents": 6646,
      "Ġreasons": 6647,
      "ĠAlex": 6648,
      "Ġproxim": 6649,
      "ĠLo": 6650,
      "Ġship": 6651,
      "AMP": 6652,
      "300": 6653,
      "Ġtel": 6654,
      "itis": 6655,
      "Ġvill": 6656,
      "ĠAvenue": 6657,
      "ĠArea": 6658,
      "Ġonto": 6659,
      "rack": 6660,
      "ĠOld": 6661,
      "iale": 6662,
      "class": 6663,
      "Ġgeneration": 6664,
      "ĠAny": 6665,
      "Ġadvance": 6666,
      "Ġsentence": 6667,
      "ĠCentral": 6668,
      "Ġquantity": 6669,
      "Ġimplant": 6670,
      "ĠRest": 6671,
      "ogether": 6672,
      "ĠChild": 6673,
      "Ġconsumption": 6674,
      "pd": 6675,
      "Ø²": 6676,
      "Ġincl": 6677,
      "Ġ81": 6678,
      "Ġdood": 6679,
      "shop": 6680,
      "Ġdepth": 6681,
      "draulic": 6682,
      "ĠTechnology": 6683,
      "ÏĨ": 6684,
      "rep": 6685,
      "Ġgar": 6686,
      "ĠOper": 6687,
      "aken": 6688,
      "Ġimaging": 6689,
      "Ġfeature": 6690,
      "Ġcarrier": 6691,
      "Ġbroken": 6692,
      "ukk": 6693,
      "Ġpowder": 6694,
      "Ar": 6695,
      "rates": 6696,
      "Ġcru": 6697,
      "ĠBY": 6698,
      "Ġstaan": 6699,
      "ĠFund": 6700,
      "ĠRock": 6701,
      "Ġroute": 6702,
      "Ġregist": 6703,
      "Ġrelatively": 6704,
      "enger": 6705,
      "Ġbranch": 6706,
      "enance": 6707,
      "Ġsed": 6708,
      "Ġmyself": 6709,
      "ĠBoston": 6710,
      "Ġrelief": 6711,
      "Ġminute": 6712,
      "Ġconsiderable": 6713,
      "Ġunderstanding": 6714,
      "Ġappeared": 6715,
      "Ġpaint": 6716,
      "asks": 6717,
      "ĠhÃª": 6718,
      "Ġgame": 6719,
      "ĠMany": 6720,
      "ocy": 6721,
      "Ġlees": 6722,
      "Ġunivers": 6723,
      "Ġsen": 6724,
      "asis": 6725,
      "Ġalbedo": 6726,
      "dule": 6727,
      "soek": 6728,
      "Ġdistingu": 6729,
      "Ġantibody": 6730,
      "110": 6731,
      "function": 6732,
      "err": 6733,
      "Ġmist": 6734,
      "Ġfunctional": 6735,
      "ligting": 6736,
      "Ġavenue": 6737,
      "ĠIT": 6738,
      "ĠPress": 6739,
      "ĠHor": 6740,
      "Ġseat": 6741,
      "Ġcurrently": 6742,
      "ĠCenter": 6743,
      "Ġthirty": 6744,
      "ĠSC": 6745,
      "ola": 6746,
      "ĠHulle": 6747,
      "Ġauthors": 6748,
      "ĠIndia": 6749,
      "ĠPacific": 6750,
      "zone": 6751,
      "Ġhi": 6752,
      "state": 6753,
      "Ġster": 6754,
      "Ġorg": 6755,
      "ĠEL": 6756,
      "oeoe": 6757,
      "Me": 6758,
      "Met": 6759,
      "mann": 6760,
      "Ġfresh": 6761,
      "arl": 6762,
      "oded": 6763,
      "ĠHill": 6764,
      "hers": 6765,
      "ĠJac": 6766,
      "Ġ69": 6767,
      "Ġspread": 6768,
      "Ġwaters": 6769,
      "Ġreading": 6770,
      "Ġmakel": 6771,
      "ĠNeuro": 6772,
      "Ġschools": 6773,
      "Ġchoice": 6774,
      "Ġessential": 6775,
      "Ġliterature": 6776,
      "post": 6777,
      "Ġsession": 6778,
      "ĠSav": 6779,
      "ĠPO": 6780,
      "ishop": 6781,
      "elfde": 6782,
      "Ġparameter": 6783,
      "Ġholding": 6784,
      "Ġvon": 6785,
      "Ġusual": 6786,
      "Ġevident": 6787,
      "Ġbuy": 6788,
      "Ġapproved": 6789,
      "Î¹Îº": 6790,
      "Ġklein": 6791,
      "Ġnumerous": 6792,
      "IX": 6793,
      "When": 6794,
      "Ġways": 6795,
      "ĠBet": 6796,
      "osa": 6797,
      "Ġweg": 6798,
      "Ġsurv": 6799,
      "Ġlands": 6800,
      "down": 6801,
      "itory": 6802,
      "rok": 6803,
      "idelik": 6804,
      "ĠBes": 6805,
      "Ġstyle": 6806,
      "Ġspent": 6807,
      "Ġschedul": 6808,
      "Ġgenerating": 6809,
      "Ġprinted": 6810,
      "Ġpremises": 6811,
      "frac": 6812,
      "worth": 6813,
      "rap": 6814,
      "amin": 6815,
      "Ġdielectric": 6816,
      "Ġknew": 6817,
      "ĠOffic": 6818,
      "udget": 6819,
      "Ġhardware": 6820,
      "Ġontwik": 6821,
      "Ġiniti": 6822,
      "Ġcomparison": 6823,
      "olt": 6824,
      "ĠNu": 6825,
      "Ġenable": 6826,
      "Ġarrest": 6827,
      "ĠIts": 6828,
      "Ġrelates": 6829,
      "ĠDev": 6830,
      "Ġexpenses": 6831,
      "Ġconnecting": 6832,
      "print": 6833,
      "volution": 6834,
      "carbon": 6835,
      "Ġslightly": 6836,
      "Ġtoeg": 6837,
      "Ġlit": 6838,
      "ĠGo": 6839,
      "aneous": 6840,
      "ĠSenate": 6841,
      "Ġdecrease": 6842,
      "MY": 6843,
      "VI": 6844,
      "var": 6845,
      "Ġvel": 6846,
      "ĠWestern": 6847,
      "ĠEv": 6848,
      "Ġcloud": 6849,
      "Ġ73": 6850,
      "Ġrecip": 6851,
      "Ġcylindrical": 6852,
      "$\\": 6853,
      "And": 6854,
      "PD": 6855,
      "So": 6856,
      "Ġnarrow": 6857,
      "utor": 6858,
      "Ġseemed": 6859,
      "ĠØ³": 6860,
      "####": 6861,
      "ĠInternet": 6862,
      "Ġgirl": 6863,
      "Ġtestimony": 6864,
      "MAN": 6865,
      "uable": 6866,
      "eria": 6867,
      "ĠDESCRIPTION": 6868,
      "ĠRF": 6869,
      "ĠRet": 6870,
      "Ġsud": 6871,
      "Ġchlor": 6872,
      "Ġsolutions": 6873,
      "Ġpassing": 6874,
      "Ġanalys": 6875,
      "Ġagreed": 6876,
      "Ġprobeer": 6877,
      "jpg": 6878,
      "GL": 6879,
      "Ġsociety": 6880,
      "ĠTues": 6881,
      "Ġkont": 6882,
      "Ġsecured": 6883,
      "Ġassets": 6884,
      "ĠÎº": 6885,
      "Ġadministration": 6886,
      "Ġnovel": 6887,
      "Ġnodig": 6888,
      "iable": 6889,
      "ĠTest": 6890,
      "ĠCa": 6891,
      "ĠEduc": 6892,
      "ĠNature": 6893,
      "Ġacceler": 6894,
      "Ġsubsection": 6895,
      "OND": 6896,
      "Ø³ÙĦÙħ": 6897,
      "Ġcontinuous": 6898,
      "nesday": 6899,
      "ĠAustral": 6900,
      "Ġsymptoms": 6901,
      "Sh": 6902,
      "Ġdensity": 6903,
      "Ġbere": 6904,
      "Ġstory": 6905,
      "ĠGL": 6906,
      "ĠOl": 6907,
      "Ġsubs": 6908,
      "Ġ124": 6909,
      "Ġrare": 6910,
      "Ġextension": 6911,
      "Ġindicating": 6912,
      "Ġfindings": 6913,
      "ĠMoreover": 6914,
      "ĠHierdie": 6915,
      "Id": 6916,
      "Sk": 6917,
      "iest": 6918,
      "wal": 6919,
      "Ġbron": 6920,
      "ĠCamp": 6921,
      "Ġbeam": 6922,
      "emic": 6923,
      "Ġrod": 6924,
      "Ġ126": 6925,
      "ternoon": 6926,
      "hal": 6927,
      "zen": 6928,
      "Ġthreat": 6929,
      "Ġbew": 6930,
      "Ġseker": 6931,
      "Ġyesterday": 6932,
      "asting": 6933,
      "Ġ77": 6934,
      "ĠThree": 6935,
      "Ġsmart": 6936,
      "Ġcooper": 6937,
      "Ġauthorities": 6938,
      "...............................": 6939,
      "Ġwed": 6940,
      "Ġmur": 6941,
      "gew": 6942,
      "Ġamounts": 6943,
      "Ġvariables": 6944,
      "Ġprompt": 6945,
      "Ġgebeur": 6946,
      "Sy": 6947,
      "cial": 6948,
      "Ġwis": 6949,
      "Ġdinge": 6950,
      "Ġfib": 6951,
      "ĠMR": 6952,
      "Ġonders": 6953,
      "ĠBE": 6954,
      "ĠEvery": 6955,
      "through": 6956,
      "laai": 6957,
      "Ġexplained": 6958,
      "Ġgedoen": 6959,
      "Ġaccompl": 6960,
      "-,": 6961,
      "Ġwer": 6962,
      "Ġnodes": 6963,
      "ĠOver": 6964,
      "Ġtesting": 6965,
      "ĠINSP": 6966,
      "Ġfrequently": 6967,
      "Ġrecognized": 6968,
      "Ġcompletely": 6969,
      "wasse": 6970,
      "ĠÏĦÎ·": 6971,
      "Ġtumor": 6972,
      "gu": 6973,
      "gene": 6974,
      "Ġdaardie": 6975,
      "ĠFC": 6976,
      "osc": 6977,
      "Ġpositions": 6978,
      "Ġexcellent": 6979,
      "ETAILED": 6980,
      "MA": 6981,
      "ih": 6982,
      "ras": 6983,
      "Î²": 6984,
      "Ø´": 6985,
      "inson": 6986,
      "Ġforecast": 6987,
      "Ġfinding": 6988,
      "Ġcandidate": 6989,
      "See": 6990,
      "iant": 6991,
      "ponse": 6992,
      "tin": 6993,
      "Ġcab": 6994,
      "Ġpapers": 6995,
      "ĠSher": 6996,
      "Ġalter": 6997,
      "ĠWind": 6998,
      "essor": 6999,
      "Ġperman": 7000,
      "Ġinterconnect": 7001,
      "Ġagter": 7002,
      "Ġrepeated": 7003,
      "Ġerrors": 7004,
      "Dep": 7005,
      "flow": 7006,
      "inst": 7007,
      "Ġpip": 7008,
      "ĠTreat": 7009,
      "ĠCD": 7010,
      "Ġstay": 7011,
      "essment": 7012,
      "apor": 7013,
      "aven": 7014,
      "Ġinteresting": 7015,
      "bridge": 7016,
      "Ġderiv": 7017,
      "Ġmaintained": 7018,
      "Ġholder": 7019,
      "Ġlearned": 7020,
      "::": 7021,
      "FL": 7022,
      "Ġtail": 7023,
      "ĠMaat": 7024,
      "amily": 7025,
      "Ġconsists": 7026,
      "Ġ1996": 7027,
      "Ġrotation": 7028,
      "ipped": 7029,
      "tures": 7030,
      "ĠSNP": 7031,
      "ĠMicro": 7032,
      "ĠHome": 7033,
      "Ġextends": 7034,
      "block": 7035,
      "Ġgeme": 7036,
      "Ġconstitution": 7037,
      "Ġpiston": 7038,
      "Ġaw": 7039,
      "orph": 7040,
      "Ġexception": 7041,
      "Ġtransmit": 7042,
      "Ġsevere": 7043,
      "ĠGrand": 7044,
      "Ġmeasurements": 7045,
      "Ġintegrated": 7046,
      "Ġillustrating": 7047,
      "ket": 7048,
      "ĠDet": 7049,
      "estic": 7050,
      "Ġju": 7051,
      "Ġsoek": 7052,
      "Ġpartners": 7053,
      "ructure": 7054,
      "Ġeverything": 7055,
      "Ġsleep": 7056,
      "Ġlegislation": 7057,
      "enis": 7058,
      "level": 7059,
      "ĠAre": 7060,
      "idation": 7061,
      "Ġteeth": 7062,
      "Ġperf": 7063,
      "loop": 7064,
      "Ġfiles": 7065,
      "Ġfacility": 7066,
      ".................................": 7067,
      "Ġoxy": 7068,
      "ĠDavid": 7069,
      "\":\"": 7070,
      "'ve": 7071,
      "FOR": 7072,
      "ped": 7073,
      "isies": 7074,
      "Ġfight": 7075,
      "omal": 7076,
      "ĠBL": 7077,
      "ĠES": 7078,
      "ĠEffect": 7079,
      "Ġoverall": 7080,
      "enez": 7081,
      "TY": 7082,
      "chem": 7083,
      "hr": 7084,
      "max": 7085,
      "enk": 7086,
      "Ġhop": 7087,
      "ivate": 7088,
      "Ġmodifications": 7089,
      "Ġdrie": 7090,
      "Ġsensors": 7091,
      "Ġpublication": 7092,
      "ĠRoad": 7093,
      "fo": 7094,
      "Ġfruit": 7095,
      "ĠLabor": 7096,
      "Ġpartial": 7097,
      "Ġ98": 7098,
      "Ġextrem": 7099,
      "Ġrevers": 7100,
      "Ġprograms": 7101,
      "Ġinstruction": 7102,
      "Not": 7103,
      "oned": 7104,
      "Ġmoe": 7105,
      "cles": 7106,
      "Ġimag": 7107,
      "Ġwriting": 7108,
      "Ġadvantages": 7109,
      "aur": 7110,
      "Ġboy": 7111,
      "Ġmouse": 7112,
      "uls": 7113,
      "Ġseed": 7114,
      "Ġleaving": 7115,
      "Ġplans": 7116,
      "Ġadvert": 7117,
      "nex": 7118,
      "Ġsurvey": 7119,
      "Ġreceives": 7120,
      "Ġcentury": 7121,
      "Ġcontributions": 7122,
      "Ġswitching": 7123,
      "Ġinjury": 7124,
      ",.": 7125,
      ">\\": 7126,
      "ĠLife": 7127,
      "Ġlew": 7128,
      "cccc": 7129,
      "Ġ2022": 7130,
      "Ġsuccessful": 7131,
      "Ġgehad": 7132,
      "Ġimprovement": 7133,
      "Ġ@": 7134,
      "str": 7135,
      "ĠTem": 7136,
      "onds": 7137,
      "Ġcorner": 7138,
      "Ġinspect": 7139,
      "Ġdrink": 7140,
      "Ġsubstantial": 7141,
      "ĠINSPECTION": 7142,
      "nl": 7143,
      "Ġpec": 7144,
      "Ġafternoon": 7145,
      "There": 7146,
      "Ġconsult": 7147,
      "Ġstatute": 7148,
      "iscal": 7149,
      "Ġblocks": 7150,
      "Ġcooling": 7151,
      "Ġsweet": 7152,
      "ĠMexico": 7153,
      "Com": 7154,
      "cious": 7155,
      "ĠGovern": 7156,
      "ochem": 7157,
      "Ġchair": 7158,
      "Ġmanif": 7159,
      "Ġ107": 7160,
      "Ġinstances": 7161,
      "ĠAnalysis": 7162,
      "Ġaanv": 7163,
      "Ġjudge": 7164,
      "Ġrecognition": 7165,
      "Ġfish": 7166,
      "ĠSand": 7167,
      "chlor": 7168,
      "ĠDun": 7169,
      "Ġsteeds": 7170,
      "Ġprojects": 7171,
      "Ġremoval": 7172,
      "Ġtypically": 7173,
      "BL": 7174,
      "âī": 7175,
      "Ġthro": 7176,
      "Ġconcept": 7177,
      "ĠRIB": 7178,
      "ENTS": 7179,
      "Ġtransmitting": 7180,
      "Ġclasses": 7181,
      "ĠNOT": 7182,
      "Ġinserted": 7183,
      "Ġprocedures": 7184,
      "Ġtorque": 7185,
      "forcement": 7186,
      "FER": 7187,
      "Joh": 7188,
      "Ðµ": 7189,
      "stige": 7190,
      "ida": 7191,
      "ĠBas": 7192,
      "Ġstel": 7193,
      "Ġ123": 7194,
      "ĠÎ¸": 7195,
      "ĠWhy": 7196,
      "werp": 7197,
      "Ġorganization": 7198,
      "rine": 7199,
      "ĠEs": 7200,
      "umer": 7201,
      "Ġadmin": 7202,
      "Ġinterested": 7203,
      "ĠINV": 7204,
      "Î±Î¹": 7205,
      "Ġinflamm": 7206,
      ".*": 7207,
      "yf": 7208,
      "Ġsink": 7209,
      "arks": 7210,
      "ĠAan": 7211,
      "Ġstone": 7212,
      "usal": 7213,
      "ĠInvest": 7214,
      "Ġsolvent": 7215,
      "ĠEngine": 7216,
      "amera": 7217,
      "Ġsleeve": 7218,
      "Ġrendered": 7219,
      "ĠØŃØ¯": 7220,
      "LS": 7221,
      "ais": 7222,
      "dr": 7223,
      "osol": 7224,
      "Ġteam": 7225,
      "ateral": 7226,
      "ditionally": 7227,
      "Ġflat": 7228,
      "Ġstanding": 7229,
      "Ġmilitary": 7230,
      "ĠPatent": 7231,
      "Ġhoof": 7232,
      "According": 7233,
      "400": 7234,
      "All": 7235,
      "Eng": 7236,
      "mal": 7237,
      "oty": 7238,
      "utch": 7239,
      "ĠFree": 7240,
      "Ġchosen": 7241,
      "Ġmetric": 7242,
      "Ġinstant": 7243,
      "Ġvoord": 7244,
      "Ø±ÙĬ": 7245,
      "Ġmarked": 7246,
      "Ġbooks": 7247,
      "Ġinduced": 7248,
      "Ġdollars": 7249,
      "sci": 7250,
      "Ġbacter": 7251,
      "Ġthorough": 7252,
      "Ġgap": 7253,
      "iger": 7254,
      "iging": 7255,
      "Ġscrew": 7256,
      "ÙĪÙĦ": 7257,
      "ĠPeople": 7258,
      "Ġdrawings": 7259,
      "cel": 7260,
      "oa": 7261,
      "Ġiemand": 7262,
      "ĠFort": 7263,
      "Ġneutral": 7264,
      "ERY": 7265,
      "Ġhydraulic": 7266,
      "Ġfloor": 7267,
      "OUR": 7268,
      "bin": 7269,
      "may": 7270,
      "Ġwag": 7271,
      "ĠOP": 7272,
      "Ġneural": 7273,
      "Ġresource": 7274,
      "ervation": 7275,
      "Ġpolice": 7276,
      "Ġperspective": 7277,
      "ĠNews": 7278,
      "ashion": 7279,
      "Ġsoul": 7280,
      "ĠOpen": 7281,
      "ĠMartin": 7282,
      "just": 7283,
      "nr": 7284,
      "will": 7285,
      "Ġtone": 7286,
      "het": 7287,
      "ĠCro": 7288,
      "ĠPeter": 7289,
      "ĠNon": 7290,
      "iste": 7291,
      "Ġ83": 7292,
      "Ġsubstance": 7293,
      "Ġobjective": 7294,
      "Ġterwyl": 7295,
      "Ġpopular": 7296,
      "Ġlargest": 7297,
      "Ġepit": 7298,
      "Ġcritical": 7299,
      "Ġfeedback": 7300,
      "OB": 7301,
      "roid": 7302,
      "asant": 7303,
      "ĠMax": 7304,
      "Ġstood": 7305,
      "ĠOx": 7306,
      "Ġshot": 7307,
      "claim": 7308,
      "ensie": 7309,
      "Ġrecording": 7310,
      "Ġremember": 7311,
      "Ġexpense": 7312,
      "ĠConst": 7313,
      "Ġdrawing": 7314,
      "ĠCollege": 7315,
      "Ġflows": 7316,
      "ĠØ£Ø¨ÙĬ": 7317,
      "Ġreligion": 7318,
      "Ġmoontlik": 7319,
      "CP": 7320,
      "Fr": 7321,
      "cu": 7322,
      "hu": 7323,
      "oting": 7324,
      "aded": 7325,
      "ĠDate": 7326,
      "Ġorient": 7327,
      "Ġcomments": 7328,
      "opl": 7329,
      "Ġchip": 7330,
      "Ġspot": 7331,
      "Ġ160": 7332,
      "................................................................": 7333,
      "âĸłâĸłâĸłâĸł": 7334,
      "ĠØ¹ÙĦÙĬÙĩ": 7335,
      "hi": 7336,
      "Ġgain": 7337,
      "ĠCur": 7338,
      "ĠCast": 7339,
      "Ġheter": 7340,
      "Ġ87": 7341,
      "Ġelim": 7342,
      "Ġanalog": 7343,
      "Ġcontrast": 7344,
      "Ġtun": 7345,
      "Ġbul": 7346,
      "Ġhat": 7347,
      "rab": 7348,
      "Ġoperate": 7349,
      "Ġ^^": 7350,
      "Ġjustice": 7351,
      "Ġcertainly": 7352,
      "Ġmounting": 7353,
      "ipping": 7354,
      "Ġresponsible": 7355,
      "ĠSpecial": 7356,
      "Ġalkyl": 7357,
      "Ġexercise": 7358,
      "sch": 7359,
      "Ġgep": 7360,
      "Ġsegments": 7361,
      "Ġ07": 7362,
      "Ġraak": 7363,
      "ISS": 7364,
      "Ġaanlyn": 7365,
      "ĠAtl": 7366,
      "ĠMilf": 7367,
      "FP": 7368,
      "Ġnine": 7369,
      "ĠTheir": 7370,
      "ĠWy": 7371,
      "Ġacet": 7372,
      "2006": 7373,
      "Ġidentification": 7374,
      "ĠAgreement": 7375,
      "Ġpractical": 7376,
      "Ġfigures": 7377,
      "enskap": 7378,
      "ĠRS": 7379,
      "Ġencl": 7380,
      "Ġbuffer": 7381,
      "Ġantenna": 7382,
      "Ġcompliance": 7383,
      "ĠCanada": 7384,
      "Ġdieselfde": 7385,
      "Ġhusband": 7386,
      "MD": 7387,
      "ball": 7388,
      "Ġsleg": 7389,
      "Ġgall": 7390,
      "Ġimper": 7391,
      "Ġ89": 7392,
      "Ġ91": 7393,
      "Ġnooit": 7394,
      "Ġearn": 7395,
      "ĠOrder": 7396,
      "Ġfields": 7397,
      "ĠParliament": 7398,
      "Ġdestroy": 7399,
      "Ġoxygen": 7400,
      "aul": 7401,
      "ĠMount": 7402,
      "Ġnotes": 7403,
      "Ġ195": 7404,
      "Ġaccident": 7405,
      "otted": 7406,
      "ployment": 7407,
      "ĠColl": 7408,
      "Ġphysic": 7409,
      "Ġmmol": 7410,
      "ĠAcad": 7411,
      "ĠWednesday": 7412,
      "aud": 7413,
      "pel": 7414,
      "td": 7415,
      "Ø¶": 7416,
      "Ġmac": 7417,
      "icit": 7418,
      "ĠHom": 7419,
      "Ġdebt": 7420,
      "Ġbasic": 7421,
      "Ġmusic": 7422,
      "Ġsuggested": 7423,
      "vity": 7424,
      "Ġske": 7425,
      "ĠSun": 7426,
      "Ġcomposed": 7427,
      "ankie": 7428,
      "Ġattachment": 7429,
      "ĠÎ³": 7430,
      "Ġsmok": 7431,
      "ĠConf": 7432,
      "Ġdaarvan": 7433,
      "Ġrepresentative": 7434,
      "Ġstarted": 7435,
      "Ġsquare": 7436,
      "ĠMiller": 7437,
      "Ġinternational": 7438,
      "Ġhem": 7439,
      "ĠDen": 7440,
      "Ġexists": 7441,
      "allow": 7442,
      "Ġwebs": 7443,
      "Ġproved": 7444,
      "rame": 7445,
      "Ġholes": 7446,
      "600": 7447,
      "win": 7448,
      "ĠSU": 7449,
      "ĠMur": 7450,
      "ĠNext": 7451,
      "illende": 7452,
      "Ġ93": 7453,
      "ICAL": 7454,
      "Ġarrived": 7455,
      "Ġlekker": 7456,
      "Ġsucceed": 7457,
      "Vol": 7458,
      "Ġcoe": 7459,
      "Ġmail": 7460,
      "icate": 7461,
      "Ġligg": 7462,
      "ĠTiener": 7463,
      "ĠPA": 7464,
      "Ġassemb": 7465,
      "akel": 7466,
      "Ġneck": 7467,
      "Ġdriven": 7468,
      "Ġspeech": 7469,
      "Ġsplit": 7470,
      "Ġequivalent": 7471,
      "eed": 7472,
      "ario": 7473,
      "ional": 7474,
      "elve": 7475,
      "ĠAud": 7476,
      "Ġcomfort": 7477,
      "actory": 7478,
      "formance": 7479,
      "Ġemph": 7480,
      "Ġ128": 7481,
      "Ġscore": 7482,
      "Ġelectrically": 7483,
      "Ġlimits": 7484,
      "Ġdenied": 7485,
      "Ġestimate": 7486,
      "Ġduties": 7487,
      "Ġpraat": 7488,
      "Post": 7489,
      "mn": 7490,
      "Ġsister": 7491,
      "isition": 7492,
      "Ġpal": 7493,
      "chron": 7494,
      "ĠGR": 7495,
      "Ġperipher": 7496,
      "Ġattract": 7497,
      "ĠCOMP": 7498,
      "ĠPlant": 7499,
      "ĠBecause": 7500,
      "Ġlongitudinal": 7501,
      "(\"": 7502,
      ".âĢĻ": 7503,
      "à¤": 7504,
      "ora": 7505,
      "ito": 7506,
      "adat": 7507,
      "Ġacres": 7508,
      "Ġbrand": 7509,
      "ITH": 7510,
      "Ġbackground": 7511,
      "Ġprivile": 7512,
      "Ġadjustment": 7513,
      "Ġcustomer": 7514,
      "Ġachieved": 7515,
      "Ġjurisdiction": 7516,
      "Be": 7517,
      "CG": 7518,
      "Sch": 7519,
      "hol": 7520,
      "mail": 7521,
      "ĠSM": 7522,
      "Ġvry": 7523,
      "ĠCDR": 7524,
      "ĠBO": 7525,
      "tery": 7526,
      "Ġprospect": 7527,
      "ĠConference": 7528,
      "system": 7529,
      "bell": 7530,
      "pol": 7531,
      "Ġlives": 7532,
      "ateg": 7533,
      "Ġatmosp": 7534,
      "illa": 7535,
      "Ġ''": 7536,
      "ĠThurs": 7537,
      "ĠYear": 7538,
      "1371": 7539,
      "Ġconflic": 7540,
      "Ġperforming": 7541,
      "Ġbright": 7542,
      "Ġmerch": 7543,
      "Ġsuperior": 7544,
      "Ġdeclared": 7545,
      "Ġconcentrations": 7546,
      "best": 7547,
      "hat": 7548,
      "lf": 7549,
      "Ġtrying": 7550,
      "Ġast": 7551,
      "Ġwhatever": 7552,
      "Ġreadily": 7553,
      "Ġrelationships": 7554,
      "Ġlinks": 7555,
      "iour": 7556,
      "long": 7557,
      "ÑĤ": 7558,
      "Ġ....": 7559,
      "Ġrib": 7560,
      "ĠTop": 7561,
      "ĠSing": 7562,
      "ĠLy": 7563,
      "Ġcompensation": 7564,
      "Ġ05": 7565,
      "ĠAnother": 7566,
      "ĠAltern": 7567,
      "2004": 7568,
      "Ġowners": 7569,
      "Ġ1997": 7570,
      "Ġglobal": 7571,
      "ĠOrgan": 7572,
      "Ġtechnical": 7573,
      "Gen": 7574,
      "mit": 7575,
      "Ïį": 7576,
      "itable": 7577,
      "Ġreeds": 7578,
      "ĠPot": 7579,
      "ĠEp": 7580,
      "Ġ109": 7581,
      "Ġ117": 7582,
      "Ġ132": 7583,
      "ahn": 7584,
      "Ġadvanced": 7585,
      "Ġtrees": 7586,
      "Ġrepresentation": 7587,
      "stitution": 7588,
      "ĠRichard": 7589,
      "ĠØŃØ¯Ø«": 7590,
      "ki": 7591,
      "most": 7592,
      "pris": 7593,
      "report": 7594,
      "Ġfur": 7595,
      "ican": 7596,
      "ĠSaf": 7597,
      "Ġ1989": 7598,
      "Ġbelieved": 7599,
      "ĠDevelopment": 7600,
      "Ġplease": 7601,
      "ĠARMY": 7602,
      "Ġscheme": 7603,
      "Ġpixel": 7604,
      "Ġped": 7605,
      "Ġbirth": 7606,
      "Ġstrik": 7607,
      "Ġstaat": 7608,
      "Ġstopp": 7609,
      "ĠHel": 7610,
      "Ġleads": 7611,
      "izations": 7612,
      "ĠYour": 7613,
      "Ġdefine": 7614,
      "Ġminor": 7615,
      "Ġemployment": 7616,
      "Afrikaanse": 7617,
      "Ġneighbor": 7618,
      "Ġvessel": 7619,
      "Ġbone": 7620,
      "ĠCc": 7621,
      "ĠGard": 7622,
      "istent": 7623,
      "Ġclust": 7624,
      "Ġtransaction": 7625,
      "Ġacknow": 7626,
      "ĠSea": 7627,
      "Ġconstra": 7628,
      "ĠExper": 7629,
      "mmet": 7630,
      "holders": 7631,
      "ABLE": 7632,
      "tige": 7633,
      "Ġcore": 7634,
      "ĠMult": 7635,
      "terior": 7636,
      "ĠEUR": 7637,
      "Ġimpossible": 7638,
      "ERAL": 7639,
      "ĠComplex": 7640,
      "Ġtransform": 7641,
      "Ġindepend": 7642,
      "obs": 7643,
      "Ġvoors": 7644,
      "Ġgetting": 7645,
      "Ġexamination": 7646,
      "sectional": 7647,
      "Ġacquired": 7648,
      "ogenic": 7649,
      "Ġancient": 7650,
      "parent": 7651,
      "ĠLie": 7652,
      "ums": 7653,
      "ipedia": 7654,
      "Ġsave": 7655,
      "Ġrelating": 7656,
      "Ġintellig": 7657,
      "Ġmatters": 7658,
      "ATIONS": 7659,
      "Ġachieve": 7660,
      "Ġpreceding": 7661,
      "EET": 7662,
      "real": 7663,
      "Ġoud": 7664,
      "Ġenemy": 7665,
      "veral": 7666,
      "phia": 7667,
      "Ġ204": 7668,
      "Ġsigned": 7669,
      "clusive": 7670,
      "Ġfifty": 7671,
      "KNOWN": 7672,
      "ĠTexas": 7673,
      "erate": 7674,
      "esis": 7675,
      "idity": 7676,
      "ika": 7677,
      "Ġadequ": 7678,
      "Ġunique": 7679,
      "Ġ06": 7680,
      "ologie": 7681,
      "Ġoperator": 7682,
      "Ġpharm": 7683,
      "Ġintroduction": 7684,
      "ĠSLAT": 7685,
      "AH": 7686,
      "Int": 7687,
      "cm": 7688,
      "have": 7689,
      "Ġcattle": 7690,
      "iti": 7691,
      "Ġeind": 7692,
      "Ġlord": 7693,
      "amide": 7694,
      "Ġsek": 7695,
      "ĠLow": 7696,
      "iox": 7697,
      "2007": 7698,
      "Ġheaven": 7699,
      "Ġcharges": 7700,
      "ĠUNKNOWN": 7701,
      "Ġgentleman": 7702,
      "CT": 7703,
      "fin": 7704,
      "Ġhoog": 7705,
      "ĠTerm": 7706,
      "aby": 7707,
      "rip": 7708,
      "ardous": 7709,
      "eller": 7710,
      "105": 7711,
      "Ġdesp": 7712,
      "Ġundert": 7713,
      "Ġallowing": 7714,
      "Ġvariation": 7715,
      "ĠÙħØŃÙħØ¯": 7716,
      "ĠGroot": 7717,
      "EV": 7718,
      "MIN": 7719,
      "hH": 7720,
      "mes": 7721,
      "arp": 7722,
      "oured": 7723,
      "clude": 7724,
      "Ġretract": 7725,
      "Ġsalt": 7726,
      "Ġdepending": 7727,
      "ĠâĤ¬": 7728,
      "Ġloan": 7729,
      "priet": 7730,
      "Ġamendment": 7731,
      "Ġtrouble": 7732,
      "Ġbehavior": 7733,
      "RY": 7734,
      "cos": 7735,
      "atal": 7736,
      "Ġlyk": 7737,
      "Ġlaser": 7738,
      "uty": 7739,
      "ĠMost": 7740,
      "access": 7741,
      "ĠJones": 7742,
      "Ġoperated": 7743,
      "Ġintention": 7744,
      "Ġelected": 7745,
      "Ã«r": 7746,
      "ĠAmong": 7747,
      "ĠTuesday": 7748,
      "ran": 7749,
      "Ġtar": 7750,
      "Ġaward": 7751,
      "enge": 7752,
      "Ġreken": 7753,
      "Ġreprodu": 7754,
      "ĠImm": 7755,
      "acer": 7756,
      "ansas": 7757,
      "rue": 7758,
      "Ġspr": 7759,
      "Ġ97": 7760,
      "Ġsomewhat": 7761,
      "Ġadding": 7762,
      "appro": 7763,
      "ĠColumb": 7764,
      "Ġestimates": 7765,
      "Ġprobability": 7766,
      "ĠAuthor": 7767,
      "Net": 7768,
      "coh": 7769,
      "ÃŁ": 7770,
      "Ġml": 7771,
      "ĠBusiness": 7772,
      "ĠLes": 7773,
      "ptide": 7774,
      "Ġverg": 7775,
      "Ġverander": 7776,
      "Ġmanier": 7777,
      "Ġhybrid": 7778,
      "Ġpara": 7779,
      "inese": 7780,
      "ifferent": 7781,
      "Dis": 7782,
      "dem": 7783,
      "pone": 7784,
      "vision": 7785,
      "Ġaang": 7786,
      "Ġcrow": 7787,
      "Ġdw": 7788,
      "sect": 7789,
      "rike": 7790,
      "ĠView": 7791,
      "avel": 7792,
      "Ġoffset": 7793,
      "Ġglad": 7794,
      "Ġterrit": 7795,
      "ĠControl": 7796,
      "Ġinvestigation": 7797,
      "Ġefficiency": 7798,
      "ĠJoseph": 7799,
      "Ġsudden": 7800,
      "ategory": 7801,
      "150": 7802,
      "sim": 7803,
      "orp": 7804,
      "Ġdik": 7805,
      "iev": 7806,
      "ĠLin": 7807,
      "Ġkit": 7808,
      "Ġmanaged": 7809,
      "ĠCommon": 7810,
      "Ġbranc": 7811,
      "Ġverskillende": 7812,
      "aign": 7813,
      "oort": 7814,
      "Ġtip": 7815,
      "Ġpounds": 7816,
      "Ġble": 7817,
      "Ġhath": 7818,
      "idance": 7819,
      "Ġattended": 7820,
      "Ġrefers": 7821,
      "ĠFriday": 7822,
      "ĠMedical": 7823,
      "ĠSouthern": 7824,
      "DS": 7825,
      "rat": 7826,
      "Ġaware": 7827,
      "orage": 7828,
      "ĠAccess": 7829,
      "elyk": 7830,
      "Ġelastic": 7831,
      "Ġsupporting": 7832,
      "Ġafford": 7833,
      "Ġbottle": 7834,
      "Ġtroops": 7835,
      "Ġparents": 7836,
      "ĠEPA": 7837,
      "%.": 7838,
      "Ġwrote": 7839,
      "Ġmeth": 7840,
      "ints": 7841,
      "Ġvaluable": 7842,
      "Ġnews": 7843,
      "skapp": 7844,
      "Ġauthorized": 7845,
      "Ġcontracts": 7846,
      "Ġmortgage": 7847,
      "uced": 7848,
      "enant": 7849,
      "ĠDire": 7850,
      "Ġuns": 7851,
      "Ġelong": 7852,
      "Ġresponses": 7853,
      "Ġimmun": 7854,
      "With": 7855,
      "Ġurg": 7856,
      "Ġcouncil": 7857,
      "Ġcriminal": 7858,
      "Ġnerv": 7859,
      "omin": 7860,
      "ĠCre": 7861,
      "owa": 7862,
      "ĠLO": 7863,
      "ĠLake": 7864,
      "Ġplates": 7865,
      "Ġplug": 7866,
      "Ġapplies": 7867,
      "Ġcann": 7868,
      "Ġdetermines": 7869,
      "ĠApplication": 7870,
      "Ġclassification": 7871,
      "Ġchanging": 7872,
      "ensional": 7873,
      "Ġsodat": 7874,
      "2000": 7875,
      "EG": 7876,
      "cond": 7877,
      "iere": 7878,
      "tf": 7879,
      "Ġmine": 7880,
      "Ġhal": 7881,
      "ĠSol": 7882,
      "iler": 7883,
      "race": 7884,
      "akers": 7885,
      "Ġregulation": 7886,
      "ANS": 7887,
      "Ġlocations": 7888,
      "Ġtrip": 7889,
      "Ġonderwys": 7890,
      "*,": 7891,
      "rus": 7892,
      "eness": 7893,
      "Ġvro": 7894,
      "ĠPan": 7895,
      "Ġmeant": 7896,
      "Ġarbit": 7897,
      "Ġthereto": 7898,
      "ksie": 7899,
      "Ġremained": 7900,
      "Ġspeel": 7901,
      "Ġunto": 7902,
      "Ġcitizens": 7903,
      "ĠHistory": 7904,
      "Ver": 7905,
      "elect": 7906,
      "radi": 7907,
      "Ġspind": 7908,
      "ENCE": 7909,
      "axis": 7910,
      "ennis": 7911,
      "aria": 7912,
      "Ġconclusion": 7913,
      "Ġhele": 7914,
      "ĠRoman": 7915,
      "pport": 7916,
      "Ġmooi": 7917,
      "ĠCommons": 7918,
      "Ġsensitive": 7919,
      "Ġswart": 7920,
      "Ø¨ÙĨ": 7921,
      "ĠColon": 7922,
      "Ġproceedings": 7923,
      "ĠONE": 7924,
      "Ġbeskik": 7925,
      "Ġburden": 7926,
      "ĠJustice": 7927,
      "Ji": 7928,
      "ĠSK": 7929,
      "ĠIL": 7930,
      "neg": 7931,
      "steun": 7932,
      "rede": 7933,
      "ĠTom": 7934,
      "ĠSix": 7935,
      "osing": 7936,
      "isted": 7937,
      "Ġapplying": 7938,
      "aux": 7939,
      "Ġ125": 7940,
      "Ġgrace": 7941,
      "Ġstructural": 7942,
      "Ġencou": 7943,
      "Ġcounsel": 7944,
      "'^": 7945,
      "gov": 7946,
      "Ġblow": 7947,
      "iced": 7948,
      "ĠSup": 7949,
      "ateur": 7950,
      "Ġcontents": 7951,
      "ensed": 7952,
      "Ġpartially": 7953,
      "Ġmanager": 7954,
      "ÙĩØ§": 7955,
      "Ġcharacteristic": 7956,
      "But": 7957,
      "kk": 7958,
      "ĠSALE": 7959,
      "ĠIR": 7960,
      "ĠDou": 7961,
      "Ġkos": 7962,
      "Ġblank": 7963,
      "awa": 7964,
      "ĠExp": 7965,
      "ASK": 7966,
      "Ġrailroad": 7967,
      "ĠClean": 7968,
      "Ġbattery": 7969,
      "adelphia": 7970,
      "Ð½": 7971,
      "ĠMach": 7972,
      "Ġhence": 7973,
      "nde": 7974,
      "Ġ94": 7975,
      "Ġcolle": 7976,
      "Ġworked": 7977,
      "airy": 7978,
      "Ġgreatly": 7979,
      "Ġnaam": 7980,
      "ĠWilliams": 7981,
      "Ġmanufacturing": 7982,
      "clusions": 7983,
      "Ġculture": 7984,
      "Ġflexible": 7985,
      ".),": 7986,
      "120": 7987,
      "FS": 7988,
      "Ġwin": 7989,
      "Ġlibrary": 7990,
      "ĠTax": 7991,
      "otton": 7992,
      "Ġstaff": 7993,
      "Ġshif": 7994,
      "ails": 7995,
      "Ġphone": 7996,
      "Ġinsurance": 7997,
      "Ġcoating": 7998,
      "ASS": 7999
    },
    "merges": [
      [
        "Ġ",
        "t"
      ],
      [
        "Ġ",
        "a"
      ],
      [
        "h",
        "e"
      ],
      [
        "i",
        "n"
      ],
      [
        "e",
        "r"
      ],
      [
        "o",
        "n"
      ],
      [
        "Ġt",
        "he"
      ],
      [
        "r",
        "e"
      ],
      [
        "Ġ",
        "o"
      ],
      [
        "e",
        "n"
      ],
      [
        "Ġ",
        "s"
      ],
      [
        "a",
        "t"
      ],
      [
        "a",
        "n"
      ],
      [
        "o",
        "r"
      ],
      [
        "i",
        "s"
      ],
      [
        "Ġ",
        "w"
      ],
      [
        "e",
        "s"
      ],
      [
        "Ġ",
        "c"
      ],
      [
        "e",
        "d"
      ],
      [
        "i",
        "t"
      ],
      [
        "Ġo",
        "f"
      ],
      [
        "Ġ",
        "p"
      ],
      [
        "Ġ",
        "d"
      ],
      [
        "Ġ",
        "b"
      ],
      [
        "Ġa",
        "n"
      ],
      [
        "a",
        "l"
      ],
      [
        "Ġ",
        "f"
      ],
      [
        "Ġ",
        "m"
      ],
      [
        "Ġ",
        "in"
      ],
      [
        "a",
        "r"
      ],
      [
        "in",
        "g"
      ],
      [
        "i",
        "on"
      ],
      [
        "i",
        "c"
      ],
      [
        "Ġan",
        "d"
      ],
      [
        "r",
        "o"
      ],
      [
        "l",
        "e"
      ],
      [
        "Ġt",
        "o"
      ],
      [
        "a",
        "s"
      ],
      [
        "en",
        "t"
      ],
      [
        "o",
        "u"
      ],
      [
        "Ġ",
        "h"
      ],
      [
        "Ġ",
        "e"
      ],
      [
        "c",
        "t"
      ],
      [
        "Ġ",
        "n"
      ],
      [
        "e",
        "l"
      ],
      [
        "Ġt",
        "h"
      ],
      [
        "Ġ",
        "re"
      ],
      [
        "e",
        "t"
      ],
      [
        "o",
        "m"
      ],
      [
        "Ġ",
        "1"
      ],
      [
        "s",
        "t"
      ],
      [
        "Ġ",
        "l"
      ],
      [
        "Ġ",
        "T"
      ],
      [
        "Ġ",
        "S"
      ],
      [
        "i",
        "e"
      ],
      [
        "i",
        "l"
      ],
      [
        "Ġ",
        "v"
      ],
      [
        "Ġ",
        "g"
      ],
      [
        "Ġ",
        "A"
      ],
      [
        "i",
        "d"
      ],
      [
        "Ġ",
        "C"
      ],
      [
        "Ġ",
        "is"
      ],
      [
        "i",
        "m"
      ],
      [
        "u",
        "r"
      ],
      [
        "at",
        "ion"
      ],
      [
        "â",
        "Ģ"
      ],
      [
        "Ġb",
        "e"
      ],
      [
        "o",
        "l"
      ],
      [
        "Ġ",
        "I"
      ],
      [
        "i",
        "g"
      ],
      [
        "o",
        "t"
      ],
      [
        "c",
        "e"
      ],
      [
        "u",
        "t"
      ],
      [
        "Ġ",
        "M"
      ],
      [
        "Ġ",
        "2"
      ],
      [
        "Ġ",
        "on"
      ],
      [
        "Ġf",
        "or"
      ],
      [
        "i",
        "v"
      ],
      [
        "r",
        "a"
      ],
      [
        "Ġ",
        "u"
      ],
      [
        "l",
        "y"
      ],
      [
        "Ġ",
        "("
      ],
      [
        "c",
        "h"
      ],
      [
        "i",
        "r"
      ],
      [
        "s",
        "e"
      ],
      [
        ".",
        "."
      ],
      [
        "Ġ",
        "P"
      ],
      [
        "o",
        "w"
      ],
      [
        "u",
        "l"
      ],
      [
        "a",
        "y"
      ],
      [
        "a",
        "m"
      ],
      [
        "Ġc",
        "on"
      ],
      [
        "Ġ",
        "B"
      ],
      [
        "Ġa",
        "s"
      ],
      [
        "Ġs",
        "t"
      ],
      [
        "e",
        "m"
      ],
      [
        "Ġ",
        "he"
      ],
      [
        "a",
        "d"
      ],
      [
        "t",
        "er"
      ],
      [
        "it",
        "h"
      ],
      [
        "Ġ",
        "D"
      ],
      [
        "o",
        "d"
      ],
      [
        "Ġth",
        "at"
      ],
      [
        "Ġ",
        "F"
      ],
      [
        "Ġ",
        "H"
      ],
      [
        "0",
        "0"
      ],
      [
        "Ġp",
        "ro"
      ],
      [
        "er",
        "s"
      ],
      [
        "ĠT",
        "he"
      ],
      [
        "Ġw",
        "ith"
      ],
      [
        "i",
        "f"
      ],
      [
        "a",
        "g"
      ],
      [
        "Ġo",
        "r"
      ],
      [
        "Ġa",
        "l"
      ],
      [
        "Ġw",
        "h"
      ],
      [
        "o",
        "s"
      ],
      [
        "Ġ",
        "W"
      ],
      [
        "Ġ",
        "R"
      ],
      [
        "Ġb",
        "y"
      ],
      [
        "Ġd",
        "e"
      ],
      [
        "an",
        "d"
      ],
      [
        "Ġs",
        "u"
      ],
      [
        "re",
        "s"
      ],
      [
        "Ġ",
        "E"
      ],
      [
        "Ġs",
        "e"
      ],
      [
        "n",
        "d"
      ],
      [
        "Ġ",
        "N"
      ],
      [
        "Ġ",
        "en"
      ],
      [
        "he",
        "r"
      ],
      [
        "p",
        "p"
      ],
      [
        "a",
        "b"
      ],
      [
        "at",
        "e"
      ],
      [
        "Ġ",
        "L"
      ],
      [
        "Ġd",
        "ie"
      ],
      [
        "Ġa",
        "t"
      ],
      [
        "v",
        "er"
      ],
      [
        "v",
        "e"
      ],
      [
        "es",
        "t"
      ],
      [
        "Ġc",
        "om"
      ],
      [
        "m",
        "ent"
      ],
      [
        "e",
        "ct"
      ],
      [
        "r",
        "i"
      ],
      [
        "Ġ",
        "it"
      ],
      [
        "es",
        "s"
      ],
      [
        "u",
        "s"
      ],
      [
        "Ġe",
        "x"
      ],
      [
        "q",
        "u"
      ],
      [
        "Ġ",
        "G"
      ],
      [
        "Ġ",
        "âĢ"
      ],
      [
        "Ġ",
        "k"
      ],
      [
        "Ġw",
        "as"
      ],
      [
        "an",
        "t"
      ],
      [
        "Ġ",
        "O"
      ],
      [
        "il",
        "l"
      ],
      [
        "t",
        "h"
      ],
      [
        "a",
        "c"
      ],
      [
        "u",
        "m"
      ],
      [
        "ro",
        "m"
      ],
      [
        "a",
        "in"
      ],
      [
        "is",
        "t"
      ],
      [
        "Ġ",
        "J"
      ],
      [
        "Ġ",
        "3"
      ],
      [
        "i",
        "es"
      ],
      [
        "Ġa",
        "re"
      ],
      [
        "o",
        "re"
      ],
      [
        "it",
        "y"
      ],
      [
        "u",
        "re"
      ],
      [
        "a",
        "k"
      ],
      [
        "Ġ",
        "r"
      ],
      [
        "or",
        "t"
      ],
      [
        "ic",
        "h"
      ],
      [
        "o",
        "c"
      ],
      [
        "ar",
        "t"
      ],
      [
        "n",
        "t"
      ],
      [
        "o",
        "p"
      ],
      [
        "Ġ",
        "y"
      ],
      [
        "Ġf",
        "rom"
      ],
      [
        "Ġn",
        "ot"
      ],
      [
        "iv",
        "e"
      ],
      [
        "u",
        "d"
      ],
      [
        "Ġs",
        "h"
      ],
      [
        "ou",
        "r"
      ],
      [
        "en",
        "d"
      ],
      [
        "ig",
        "h"
      ],
      [
        "l",
        "d"
      ],
      [
        "Ġh",
        "a"
      ],
      [
        "u",
        "n"
      ],
      [
        "or",
        "d"
      ],
      [
        "at",
        "ed"
      ],
      [
        "ct",
        "ion"
      ],
      [
        "p",
        "t"
      ],
      [
        "..",
        ".."
      ],
      [
        "Ġwh",
        "ich"
      ],
      [
        "g",
        "e"
      ],
      [
        "Ġ",
        "4"
      ],
      [
        "Ġ",
        "le"
      ],
      [
        "p",
        "er"
      ],
      [
        "p",
        "l"
      ],
      [
        "on",
        "d"
      ],
      [
        "ar",
        "d"
      ],
      [
        "el",
        "l"
      ],
      [
        "i",
        "k"
      ],
      [
        "Ġ",
        "j"
      ],
      [
        "0",
        "1"
      ],
      [
        "an",
        "s"
      ],
      [
        "i",
        "al"
      ],
      [
        "p",
        "e"
      ],
      [
        "al",
        "l"
      ],
      [
        "Ġth",
        "is"
      ],
      [
        "Ġ",
        "5"
      ],
      [
        "t",
        "her"
      ],
      [
        "ĠI",
        "n"
      ],
      [
        "Ġn",
        "e"
      ],
      [
        "Ġcom",
        "p"
      ],
      [
        "Ġw",
        "e"
      ],
      [
        "Ġcon",
        "t"
      ],
      [
        "f",
        "f"
      ],
      [
        "r",
        "u"
      ],
      [
        "Ġc",
        "h"
      ],
      [
        "Ġ",
        "V"
      ],
      [
        "o",
        "g"
      ],
      [
        "c",
        "c"
      ],
      [
        "ic",
        "e"
      ],
      [
        "in",
        "e"
      ],
      [
        ".",
        ","
      ],
      [
        "c",
        "l"
      ],
      [
        "t",
        "e"
      ],
      [
        "i",
        "re"
      ],
      [
        "Ġ",
        "K"
      ],
      [
        "Ġ",
        "-"
      ],
      [
        "ic",
        "al"
      ],
      [
        "igh",
        "t"
      ],
      [
        "er",
        "e"
      ],
      [
        "Ġw",
        "he"
      ],
      [
        "ag",
        "e"
      ],
      [
        "b",
        "er"
      ],
      [
        "Ġp",
        "l"
      ],
      [
        "en",
        "s"
      ],
      [
        "Ġa",
        "d"
      ],
      [
        "Ġm",
        "ay"
      ],
      [
        "Ġm",
        "e"
      ],
      [
        "u",
        "st"
      ],
      [
        "ab",
        "le"
      ],
      [
        "Ġv",
        "an"
      ],
      [
        "ro",
        "u"
      ],
      [
        "or",
        "m"
      ],
      [
        "f",
        "er"
      ],
      [
        "Ġt",
        "e"
      ],
      [
        "ou",
        "ld"
      ],
      [
        "a",
        "p"
      ],
      [
        "it",
        "ion"
      ],
      [
        "Ġha",
        "ve"
      ],
      [
        "Ġ",
        "6"
      ],
      [
        "as",
        "t"
      ],
      [
        "i",
        "z"
      ],
      [
        "Ġre",
        "s"
      ],
      [
        "ou",
        "s"
      ],
      [
        "en",
        "ce"
      ],
      [
        "r",
        "y"
      ],
      [
        "Ġ",
        "U"
      ],
      [
        "Ġa",
        "pp"
      ],
      [
        "g",
        "h"
      ],
      [
        "id",
        "e"
      ],
      [
        "Ġu",
        "s"
      ],
      [
        "Ġal",
        "l"
      ],
      [
        "in",
        "d"
      ],
      [
        "Ġ",
        "im"
      ],
      [
        "Ġh",
        "is"
      ],
      [
        "Ġd",
        "is"
      ],
      [
        "w",
        "e"
      ],
      [
        "d",
        "u"
      ],
      [
        "Ġv",
        "er"
      ],
      [
        "i",
        "p"
      ],
      [
        "ar",
        "y"
      ],
      [
        "a",
        "re"
      ],
      [
        "o",
        "st"
      ],
      [
        "an",
        "ce"
      ],
      [
        "Ġs",
        "o"
      ],
      [
        "ĠS",
        "t"
      ],
      [
        ")",
        "."
      ],
      [
        "i",
        "a"
      ],
      [
        "Ġon",
        "e"
      ],
      [
        "as",
        "e"
      ],
      [
        "Ġ",
        "\""
      ],
      [
        "Ġp",
        "er"
      ],
      [
        "Ġc",
        "l"
      ],
      [
        "a",
        "ct"
      ],
      [
        "a",
        "ar"
      ],
      [
        "Ġc",
        "an"
      ],
      [
        "om",
        "e"
      ],
      [
        "Ġ",
        "."
      ],
      [
        "Ġm",
        "et"
      ],
      [
        "Ġa",
        "b"
      ],
      [
        "u",
        "b"
      ],
      [
        "e",
        "p"
      ],
      [
        "a",
        "ch"
      ],
      [
        "i",
        "b"
      ],
      [
        "on",
        "g"
      ],
      [
        "ig",
        "n"
      ],
      [
        "Ġp",
        "re"
      ],
      [
        "ation",
        "s"
      ],
      [
        "o",
        "k"
      ],
      [
        "Ġa",
        "r"
      ],
      [
        "an",
        "g"
      ],
      [
        "f",
        "orm"
      ],
      [
        "or",
        "k"
      ],
      [
        "as",
        "s"
      ],
      [
        "t",
        "o"
      ],
      [
        "Ġp",
        "art"
      ],
      [
        "Ġs",
        "a"
      ],
      [
        "ul",
        "t"
      ],
      [
        "u",
        "e"
      ],
      [
        "Ġw",
        "ill"
      ],
      [
        "Ġd",
        "at"
      ],
      [
        "'",
        "s"
      ],
      [
        "Ġ",
        "'"
      ],
      [
        "Ġo",
        "p"
      ],
      [
        "e",
        "k"
      ],
      [
        "âĢ",
        "Ļ"
      ],
      [
        "Ġw",
        "ere"
      ],
      [
        "Ġu",
        "n"
      ],
      [
        "Ġ",
        "7"
      ],
      [
        "Ġ",
        "0"
      ],
      [
        "ĠT",
        "h"
      ],
      [
        "ent",
        "s"
      ],
      [
        "Ġ",
        "8"
      ],
      [
        "at",
        "er"
      ],
      [
        "e",
        "ar"
      ],
      [
        "Ġh",
        "as"
      ],
      [
        "a",
        "ce"
      ],
      [
        "er",
        "m"
      ],
      [
        "d",
        "e"
      ],
      [
        "res",
        "s"
      ],
      [
        "Ġs",
        "y"
      ],
      [
        "ou",
        "nt"
      ],
      [
        "ou",
        "t"
      ],
      [
        "Ġm",
        "an"
      ],
      [
        "Ġ",
        "Ø"
      ],
      [
        ")",
        ","
      ],
      [
        "ion",
        "s"
      ],
      [
        "Ġd",
        "o"
      ],
      [
        "Ġo",
        "ther"
      ],
      [
        "1",
        "0"
      ],
      [
        "n",
        "e"
      ],
      [
        "Ġs",
        "p"
      ],
      [
        "Ġ1",
        "9"
      ],
      [
        "Ġthe",
        "re"
      ],
      [
        "Ġ1",
        "0"
      ],
      [
        "el",
        "y"
      ],
      [
        "Ġb",
        "ut"
      ],
      [
        "Ġhe",
        "t"
      ],
      [
        "le",
        "ct"
      ],
      [
        "Ġe",
        "m"
      ],
      [
        "ir",
        "st"
      ],
      [
        "Ġa",
        "cc"
      ],
      [
        "is",
        "s"
      ],
      [
        "it",
        "e"
      ],
      [
        "o",
        "se"
      ],
      [
        "on",
        "e"
      ],
      [
        "nd",
        "er"
      ],
      [
        "or",
        "s"
      ],
      [
        "Ġsu",
        "b"
      ],
      [
        "Ġn",
        "ie"
      ],
      [
        "Ġt",
        "r"
      ],
      [
        "p",
        "le"
      ],
      [
        "Ġ",
        "i"
      ],
      [
        "am",
        "e"
      ],
      [
        "a",
        "v"
      ],
      [
        "o",
        "v"
      ],
      [
        "ing",
        "s"
      ],
      [
        "er",
        "v"
      ],
      [
        "Ġu",
        "p"
      ],
      [
        "....",
        "...."
      ],
      [
        "o",
        "od"
      ],
      [
        "Ġy",
        "ou"
      ],
      [
        "Ġin",
        "ter"
      ],
      [
        "Ġg",
        "e"
      ],
      [
        "im",
        "e"
      ],
      [
        "i",
        "ed"
      ],
      [
        "y",
        "s"
      ],
      [
        "l",
        "ic"
      ],
      [
        "Ġ",
        "ro"
      ],
      [
        "ow",
        "n"
      ],
      [
        "Ġo",
        "ut"
      ],
      [
        "ac",
        "k"
      ],
      [
        "d",
        "er"
      ],
      [
        "Ġ2",
        "01"
      ],
      [
        "Ġthe",
        "ir"
      ],
      [
        "E",
        "R"
      ],
      [
        "Ġa",
        "g"
      ],
      [
        "ĠC",
        "h"
      ],
      [
        "âĢ",
        "Ŀ"
      ],
      [
        "Ġd",
        "es"
      ],
      [
        "Ġbe",
        "en"
      ],
      [
        "Ġ",
        ";"
      ],
      [
        "Ġf",
        "irst"
      ],
      [
        "Ġan",
        "y"
      ],
      [
        "o",
        "f"
      ],
      [
        "cl",
        "ud"
      ],
      [
        "Ġse",
        "c"
      ],
      [
        "Ġh",
        "ad"
      ],
      [
        "ri",
        "b"
      ],
      [
        "Ġa",
        "m"
      ],
      [
        "Ġ",
        "qu"
      ],
      [
        "Ġ",
        "["
      ],
      [
        "l",
        "l"
      ],
      [
        "at",
        "es"
      ],
      [
        "Ġ",
        "9"
      ],
      [
        "Ġo",
        "m"
      ],
      [
        "l",
        "ow"
      ],
      [
        "i",
        "le"
      ],
      [
        "p",
        "h"
      ],
      [
        "c",
        "ess"
      ],
      [
        "Ġsu",
        "ch"
      ],
      [
        "in",
        "t"
      ],
      [
        "Ġ1",
        "8"
      ],
      [
        "ĠâĢ",
        "ľ"
      ],
      [
        "Ġ",
        "Y"
      ],
      [
        "s",
        "o"
      ],
      [
        "a",
        "u"
      ],
      [
        "r",
        "ic"
      ],
      [
        "Ġm",
        "ore"
      ],
      [
        "Ġde",
        "v"
      ],
      [
        "Ġg",
        "en"
      ],
      [
        "Ġb",
        "et"
      ],
      [
        "y",
        "l"
      ],
      [
        "Ġcom",
        "m"
      ],
      [
        "Ġsa",
        "id"
      ],
      [
        "Ġre",
        "g"
      ],
      [
        "Ġn",
        "o"
      ],
      [
        "c",
        "es"
      ],
      [
        "on",
        "t"
      ],
      [
        "t",
        "he"
      ],
      [
        "u",
        "al"
      ],
      [
        "2",
        "0"
      ],
      [
        "Ġit",
        "s"
      ],
      [
        "Ġthe",
        "y"
      ],
      [
        "on",
        "s"
      ],
      [
        "Ġw",
        "at"
      ],
      [
        "at",
        "ing"
      ],
      [
        "Ġfor",
        "m"
      ],
      [
        "oc",
        "k"
      ],
      [
        "i",
        "er"
      ],
      [
        "ĠâĢ",
        "Ķ"
      ],
      [
        "j",
        "ect"
      ],
      [
        "e",
        "c"
      ],
      [
        "w",
        "o"
      ],
      [
        "if",
        "ic"
      ],
      [
        "a",
        "il"
      ],
      [
        "res",
        "ent"
      ],
      [
        "k",
        "e"
      ],
      [
        "ĠC",
        "om"
      ],
      [
        "Ġpro",
        "v"
      ],
      [
        "e",
        "w"
      ],
      [
        "O",
        "N"
      ],
      [
        "Ġas",
        "s"
      ],
      [
        "Ġtr",
        "ans"
      ],
      [
        "p",
        "os"
      ],
      [
        "Ġo",
        "b"
      ],
      [
        "Ġwhe",
        "re"
      ],
      [
        "Ġ",
        "$"
      ],
      [
        "v",
        "ent"
      ],
      [
        "or",
        "y"
      ],
      [
        "Ġwh",
        "o"
      ],
      [
        "p",
        "ort"
      ],
      [
        "Ġa",
        "f"
      ],
      [
        "it",
        "t"
      ],
      [
        "Ù",
        "Ħ"
      ],
      [
        "re",
        "e"
      ],
      [
        "Ġu",
        "nder"
      ],
      [
        "I",
        "G"
      ],
      [
        "o",
        "ver"
      ],
      [
        "Ġin",
        "clud"
      ],
      [
        "er",
        "t"
      ],
      [
        "Ġre",
        "c"
      ],
      [
        "Ġ1",
        "2"
      ],
      [
        "ĠI",
        "t"
      ],
      [
        "Ġ1",
        "1"
      ],
      [
        "re",
        "at"
      ],
      [
        "he",
        "d"
      ],
      [
        "Ġ",
        "ra"
      ],
      [
        "Ġ2",
        "00"
      ],
      [
        "Ġp",
        "r"
      ],
      [
        "ou",
        "nd"
      ],
      [
        "is",
        "h"
      ],
      [
        "Ġt",
        "ime"
      ],
      [
        "re",
        "d"
      ],
      [
        "Ġm",
        "od"
      ],
      [
        "pe",
        "c"
      ],
      [
        "T",
        "he"
      ],
      [
        "Ġ2",
        "0"
      ],
      [
        "st",
        "em"
      ],
      [
        "ak",
        "e"
      ],
      [
        "p",
        "ect"
      ],
      [
        "Ġth",
        "an"
      ],
      [
        "ol",
        "d"
      ],
      [
        "Ġs",
        "c"
      ],
      [
        "Ġm",
        "y"
      ],
      [
        "Ġp",
        "os"
      ],
      [
        "rou",
        "gh"
      ],
      [
        "I",
        "N"
      ],
      [
        "âĢ",
        "Ķ"
      ],
      [
        "Ġb",
        "l"
      ],
      [
        "t",
        "y"
      ],
      [
        "Ġd",
        "et"
      ],
      [
        "Ġwhe",
        "n"
      ],
      [
        "ment",
        "s"
      ],
      [
        "ik",
        "e"
      ],
      [
        "Ġin",
        "d"
      ],
      [
        "Ġdat",
        "a"
      ],
      [
        "Ġe",
        "v"
      ],
      [
        "â",
        "Ī"
      ],
      [
        "ĠM",
        "r"
      ],
      [
        "k",
        "s"
      ],
      [
        "Ġsec",
        "ond"
      ],
      [
        "f",
        "t"
      ],
      [
        "al",
        "e"
      ],
      [
        "ad",
        "e"
      ],
      [
        "ul",
        "ar"
      ],
      [
        "Ġcon",
        "s"
      ],
      [
        "is",
        "e"
      ],
      [
        "c",
        "ed"
      ],
      [
        "Ġin",
        "to"
      ],
      [
        "Ġre",
        "l"
      ],
      [
        "E",
        "N"
      ],
      [
        "Ġa",
        "c"
      ],
      [
        "Ġ",
        "Â"
      ],
      [
        "00",
        "0"
      ],
      [
        "at",
        "h"
      ],
      [
        "Ġv",
        "ir"
      ],
      [
        "Ġal",
        "so"
      ],
      [
        "âĢ",
        "ĵ"
      ],
      [
        "Ġs",
        "ome"
      ],
      [
        "ra",
        "m"
      ],
      [
        "Ġ",
        "if"
      ],
      [
        "_",
        "_"
      ],
      [
        "1",
        "1"
      ],
      [
        "Ġw",
        "ould"
      ],
      [
        "w",
        "n"
      ],
      [
        "i",
        "ous"
      ],
      [
        "al",
        "ly"
      ],
      [
        "o",
        "b"
      ],
      [
        "Ġthe",
        "m"
      ],
      [
        "n",
        "g"
      ],
      [
        "we",
        "en"
      ],
      [
        "ter",
        "n"
      ],
      [
        "em",
        "ent"
      ],
      [
        "E",
        "S"
      ],
      [
        "Ġh",
        "im"
      ],
      [
        "Ġin",
        "c"
      ],
      [
        "Ġl",
        "a"
      ],
      [
        "Ġo",
        "ur"
      ],
      [
        "Ġe",
        "t"
      ],
      [
        "Ġd",
        "if"
      ],
      [
        "i",
        "an"
      ],
      [
        "el",
        "s"
      ],
      [
        "ie",
        "w"
      ],
      [
        "Ġhe",
        "r"
      ],
      [
        "s",
        "s"
      ],
      [
        "ot",
        "h"
      ],
      [
        "1",
        "9"
      ],
      [
        "Ù",
        "Ĩ"
      ],
      [
        "ĠR",
        "e"
      ],
      [
        "i",
        "o"
      ],
      [
        "Ġt",
        "wo"
      ],
      [
        "ut",
        "ion"
      ],
      [
        "Ġs",
        "ur"
      ],
      [
        "Ġt",
        "ra"
      ],
      [
        "ĠâĢ",
        "ĺ"
      ],
      [
        "el",
        "f"
      ],
      [
        "i",
        "ent"
      ],
      [
        "i",
        "x"
      ],
      [
        "-",
        "-"
      ],
      [
        "d",
        "ition"
      ],
      [
        "ar",
        "k"
      ],
      [
        "p",
        "ro"
      ],
      [
        "Ġa",
        "ct"
      ],
      [
        "1",
        "2"
      ],
      [
        "as",
        "ed"
      ],
      [
        "el",
        "d"
      ],
      [
        "ĠH",
        "e"
      ],
      [
        "Ġe",
        "ach"
      ],
      [
        "Ġw",
        "ord"
      ],
      [
        "in",
        "k"
      ],
      [
        "Ġs",
        "ign"
      ],
      [
        "f",
        "ore"
      ],
      [
        "Ġo",
        "ver"
      ],
      [
        "Ġsy",
        "stem"
      ],
      [
        "l",
        "es"
      ],
      [
        "o",
        "e"
      ],
      [
        "Ġv",
        "al"
      ],
      [
        "Ġy",
        "ear"
      ],
      [
        "at",
        "ive"
      ],
      [
        "ou",
        "gh"
      ],
      [
        "Ġbet",
        "ween"
      ],
      [
        "it",
        "s"
      ],
      [
        "am",
        "ple"
      ],
      [
        "Ġf",
        "e"
      ],
      [
        "Ġre",
        "m"
      ],
      [
        "an",
        "k"
      ],
      [
        "i",
        "en"
      ],
      [
        "Ġre",
        "ce"
      ],
      [
        "ay",
        "s"
      ],
      [
        "l",
        "u"
      ],
      [
        "n",
        "s"
      ],
      [
        "ff",
        "ect"
      ],
      [
        "e",
        "x"
      ],
      [
        "ra",
        "ct"
      ],
      [
        "A",
        "N"
      ],
      [
        "h",
        "od"
      ],
      [
        "Ġp",
        "resent"
      ],
      [
        "Ġ",
        "="
      ],
      [
        "Ġm",
        "em"
      ],
      [
        "Ġ",
        "ent"
      ],
      [
        "m",
        "er"
      ],
      [
        "5",
        "0"
      ],
      [
        "c",
        "k"
      ],
      [
        "t",
        "t"
      ],
      [
        "Ġat",
        "t"
      ],
      [
        "b",
        "od"
      ],
      [
        "Ø",
        "§"
      ],
      [
        "form",
        "ation"
      ],
      [
        "Ġc",
        "ol"
      ],
      [
        "ow",
        "er"
      ],
      [
        "Ġ1",
        "3"
      ],
      [
        "Ġon",
        "ly"
      ],
      [
        "Ġw",
        "ork"
      ],
      [
        "it",
        "ed"
      ],
      [
        "in",
        "ed"
      ],
      [
        "Ã",
        "©"
      ],
      [
        "c",
        "y"
      ],
      [
        "A",
        "T"
      ],
      [
        "o",
        "or"
      ],
      [
        "Ġsu",
        "pp"
      ],
      [
        "ol",
        "low"
      ],
      [
        "it",
        "ies"
      ],
      [
        "Ġth",
        "rough"
      ],
      [
        "o",
        "ve"
      ],
      [
        "o",
        "y"
      ],
      [
        "id",
        "ent"
      ],
      [
        "Ġgen",
        "er"
      ],
      [
        "Ġ",
        "Î"
      ],
      [
        "b",
        "e"
      ],
      [
        "A",
        "R"
      ],
      [
        "Ġthe",
        "se"
      ],
      [
        "ĠTh",
        "is"
      ],
      [
        "Ġof",
        "f"
      ],
      [
        "Ġ1",
        "4"
      ],
      [
        "O",
        "R"
      ],
      [
        "p",
        "s"
      ],
      [
        "Ġde",
        "f"
      ],
      [
        "Ġin",
        "st"
      ],
      [
        "ur",
        "n"
      ],
      [
        "o",
        "int"
      ],
      [
        "o",
        "ok"
      ],
      [
        "c",
        "om"
      ],
      [
        "ĠP",
        "ro"
      ],
      [
        "Ġus",
        "ed"
      ],
      [
        "Ġk",
        "n"
      ],
      [
        "Ġcont",
        "ro"
      ],
      [
        "ol",
        "og"
      ],
      [
        "A",
        "L"
      ],
      [
        "Ġd",
        "ist"
      ],
      [
        "Ġre",
        "qu"
      ],
      [
        "r",
        "is"
      ],
      [
        "ar",
        "g"
      ],
      [
        "Ġm",
        "ade"
      ],
      [
        "1",
        "3"
      ],
      [
        "Ġab",
        "out"
      ],
      [
        "ĠW",
        "e"
      ],
      [
        "u",
        "res"
      ],
      [
        "Ġex",
        "t"
      ],
      [
        "Ġc",
        "or"
      ],
      [
        "Ġm",
        "a"
      ],
      [
        "Ġen",
        "d"
      ],
      [
        "Ġ1",
        "6"
      ],
      [
        "Ġd",
        "it"
      ],
      [
        "Ġv",
        "ol"
      ],
      [
        "an",
        "ge"
      ],
      [
        "u",
        "g"
      ],
      [
        "ib",
        "le"
      ],
      [
        "iss",
        "ion"
      ],
      [
        "a",
        "im"
      ],
      [
        "u",
        "nd"
      ],
      [
        "ur",
        "ing"
      ],
      [
        "Ġs",
        "et"
      ],
      [
        "il",
        "ity"
      ],
      [
        "o",
        "ol"
      ],
      [
        "i",
        "i"
      ],
      [
        "Ġp",
        "ol"
      ],
      [
        "Ġs",
        "pec"
      ],
      [
        "t",
        "s"
      ],
      [
        "Ġpro",
        "cess"
      ],
      [
        "n",
        "er"
      ],
      [
        "Ġ",
        ":"
      ],
      [
        "Ġn",
        "et"
      ],
      [
        "Ġaf",
        "ter"
      ],
      [
        "w",
        "ard"
      ],
      [
        "2",
        "01"
      ],
      [
        "Ġsh",
        "ould"
      ],
      [
        "at",
        "ure"
      ],
      [
        "ĠS",
        "e"
      ],
      [
        "Ġ1",
        "5"
      ],
      [
        "bod",
        "im"
      ],
      [
        "1",
        "5"
      ],
      [
        "r",
        "ing"
      ],
      [
        "I",
        "n"
      ],
      [
        "2",
        "2"
      ],
      [
[...]
