{
  "version": "1.0",
  "truncation": null,
  "padding": null,
  "added_tokens": [
    {
      "id": 0,
      "content": "<pad>",
      "single_word": false,
      "lstrip": false,
      "rstrip": false,
      "normalized": false,
      "special": true
    },
    {
      "id": 1,
      "content": "<s>",
      "single_word": false,
      "lstrip": false,
      "rstrip": false,
      "normalized": false,
      "special": true
    },
    {
      "id": 2,
      "content": "</s>",
      "single_word": false,
      "lstrip": false,
      "rstrip": false,
      "normalized": false,
      "special": true
    },
    {
      "id": 3,
      "content": "<unk>",
      "single_word": false,
      "lstrip": false,
      "rstrip": false,
      "normalized": false,
      "special": true
    },
    {
      "id": 4,
      "content": "<mask>",
      "single_word": false,
      "lstrip": false,
      "rstrip": false,
      "normalized": false,
      "special": true
    }
  ],
  "normalizer": {
    "type": "Sequence",
    "normalizers": [
      {
        "type": "NFKC"
      }
    ]
  },
  "pre_tokenizer": {
    "type": "ByteLevel",
    "add_prefix_space": false,
    "trim_offsets": true,
    "use_regex": true
  },
  "post_processor": {
    "type": "TemplateProcessing",
    "single": [
      {
        "SpecialToken": {
          "id": "<s>",
          "type_id": 0
        }
      },
      {
        "Sequence": {
          "id": "A",
          "type_id": 0
        }
      },
      {
        "SpecialToken": {
          "id": "</s>",
          "type_id": 0
        }
      }
    ],
    "pair": [
      {
        "SpecialToken": {
          "id": "<s>",
          "type_id": 0
        }
      },
      {
        "Sequence": {
          "id": "A",
          "type_id": 0
        }
      },
      {
        "SpecialToken": {
          "id": "</s>",
          "type_id": 0
        }
      },
      {
        "Sequence": {
          "id": "B",
          "type_id": 1
        }
      },
      {
        "SpecialToken": {
          "id": "</s>",
          "type_id": 1
        }
      }
    ],
    "special_tokens": {
      "</s>": {
        "id": "</s>",
        "ids": [
          2
        ],
        "tokens": [
          "</s>"
        ]
      },
      "<s>": {
        "id": "<s>",
        "ids": [
          1
        ],
        "tokens": [
          "<s>"
        ]
      }
    }
  },
  "decoder": {
    "type": "ByteLevel",
    "add_prefix_space": true,
    "trim_offsets": true,
    "use_regex": true
  },
  "model": {
    "type": "BPE",
    "dropout": null,
    "unk_token": "<unk>",
    "continuing_subword_prefix": null,
    "end_of_word_suffix": null,
    "fuse_unk": false,
    "byte_fallback": false,
    "ignore_merges": false,
    "vocab": {
      "<pad>": 0,
      "<s>": 1,
      "</s>": 2,
      "<unk>": 3,
      "<mask>": 4,
      "!": 5,
      "\"": 6,
      "#": 7,
      "$": 8,
      "%": 9,
      "&": 10,
      "'": 11,
      "(": 12,
      ")": 13,
      "*": 14,
      "+": 15,
      ",": 16,
      "-": 17,
      ".": 18,
      "/": 19,
      "0": 20,
      "1": 21,
      "2": 22,
      "3": 23,
      "4": 24,
      "5": 25,
      "6": 26,
      "7": 27,
      "8": 28,
      "9": 29,
      ":": 30,
      ";": 31,
      "<": 32,
      "=": 33,
      ">": 34,
      "?": 35,
      "@": 36,
      "A": 37,
      "B": 38,
      "C": 39,
      "D": 40,
      "E": 41,
      "F": 42,
      "G": 43,
      "H": 44,
      "I": 45,
      "J": 46,
      "K": 47,
      "L": 48,
      "M": 49,
      "N": 50,
      "O": 51,
      "P": 52,
      "Q": 53,
      "R": 54,
      "S": 55,
      "T": 56,
      "U": 57,
      "V": 58,
      "W": 59,
      "X": 60,
      "Y": 61,
      "Z": 62,
      "[": 63,
      "\\": 64,
      "]": 65,
      "^": 66,
      "_": 67,
      "`": 68,
      "a": 69,
      "b": 70,
      "c": 71,
      "d": 72,
      "e": 73,
      "f": 74,
      "g": 75,
      "h": 76,
      "i": 77,
      "j": 78,
      "k": 79,
      "l": 80,
      "m": 81,
      "n": 82,
      "o": 83,
      "p": 84,
      "q": 85,
      "r": 86,
      "s": 87,
      "t": 88,
      "u": 89,
      "v": 90,
      "w": 91,
      "x": 92,
      "y": 93,
      "z": 94,
      "{": 95,
      "|": 96,
      "}": 97,
      "~": 98,
      "¡": 99,
      "¢": 100,
      "£": 101,
      "¤": 102,
      "¥": 103,
      "¦": 104,
      "§": 105,
      "¨": 106,
      "©": 107,
      "ª": 108,
      "«": 109,
      "¬": 110,
      "®": 111,
      "¯": 112,
      "°": 113,
      "±": 114,
      "²": 115,
      "³": 116,
      "´": 117,
      "µ": 118,
      "¶": 119,
      "·": 120,
      "¸": 121,
      "¹": 122,
      "º": 123,
      "»": 124,
      "¼": 125,
      "½": 126,
      "¾": 127,
      "¿": 128,
      "À": 129,
      "Á": 130,
      "Â": 131,
      "Ã": 132,
      "Ä": 133,
      "Å": 134,
      "Æ": 135,
      "Ç": 136,
      "È": 137,
      "É": 138,
      "Ê": 139,
      "Ë": 140,
      "Ì": 141,
      "Í": 142,
      "Î": 143,
      "Ï": 144,
      "Ð": 145,
      "Ñ": 146,
      "Ò": 147,
      "Ó": 148,
      "Ô": 149,
      "Õ": 150,
      "Ö": 151,
      "×": 152,
      "Ø": 153,
      "Ù": 154,
      "Ú": 155,
      "Û": 156,
      "Ü": 157,
      "Ý": 158,
      "Þ": 159,
      "ß": 160,
      "à": 161,
      "á": 162,
      "â": 163,
      "ã": 164,
      "ä": 165,
      "å": 166,
      "æ": 167,
      "ç": 168,
      "è": 169,
      "é": 170,
      "ê": 171,
      "ë": 172,
      "ì": 173,
      "í": 174,
      "î": 175,
      "ï": 176,
      "ð": 177,
      "ñ": 178,
      "ò": 179,
      "ó": 180,
      "ô": 181,
      "õ": 182,
      "ö": 183,
      "÷": 184,
      "ø": 185,
      "ù": 186,
      "ú": 187,
      "û": 188,
      "ü": 189,
      "ý": 190,
      "þ": 191,
      "ÿ": 192,
      "Ā": 193,
      "ā": 194,
      "Ă": 195,
      "ă": 196,
      "Ą": 197,
      "ą": 198,
      "Ć": 199,
      "ć": 200,
      "Ĉ": 201,
      "ĉ": 202,
      "Ċ": 203,
      "ċ": 204,
      "Č": 205,
      "č": 206,
      "Ď": 207,
      "ď": 208,
      "Đ": 209,
      "đ": 210,
      "Ē": 211,
      "ē": 212,
      "Ĕ": 213,
      "ĕ": 214,
      "Ė": 215,
      "ė": 216,
      "Ę": 217,
      "ę": 218,
      "Ě": 219,
      "ě": 220,
      "Ĝ": 221,
      "ĝ": 222,
      "Ğ": 223,
      "ğ": 224,
      "Ġ": 225,
      "ġ": 226,
      "Ģ": 227,
      "ģ": 228,
      "Ĥ": 229,
      "ĥ": 230,
      "Ħ": 231,
      "ħ": 232,
      "Ĩ": 233,
      "ĩ": 234,
      "Ī": 235,
      "ī": 236,
      "Ĭ": 237,
      "ĭ": 238,
      "Į": 239,
      "į": 240,
      "İ": 241,
      "ı": 242,
      "Ĳ": 243,
      "ĳ": 244,
      "Ĵ": 245,
      "ĵ": 246,
      "Ķ": 247,
      "ķ": 248,
      "ĸ": 249,
      "Ĺ": 250,
      "ĺ": 251,
      "Ļ": 252,
      "ļ": 253,
      "Ľ": 254,
      "ľ": 255,
      "Ŀ": 256,
      "ŀ": 257,
      "Ł": 258,
      "ł": 259,
      "Ń": 260,
      "Ġt": 261,
      "er": 262,
      "in": 263,
      "Ġa": 264,
      "he": 265,
      "en": 266,
      "Ġo": 267,
      "an": 268,
      "Ġs": 269,
      "on": 270,
      "es": 271,
      "at": 272,
      "Ġd": 273,
      "Ġthe": 274,
      "or": 275,
      "ie": 276,
      "Ġw": 277,
      "is": 278,
      "it": 279,
      "Ġb": 280,
      "ar": 281,
      "ed": 282,
      "Ġm": 283,
      "Ġp": 284,
      "re": 285,
      "al": 286,
      "Ġc": 287,
      "ing": 288,
      "Ġv": 289,
      "el": 290,
      "Ġin": 291,
      "Ġof": 292,
      "Ġf": 293,
      "Ġan": 294,
      "ro": 295,
      "Ġh": 296,
      "le": 297,
      "ion": 298,
      "Ġn": 299,
      "as": 300,
      "Ġg": 301,
      "ic": 302,
      "et": 303,
      "ou": 304,
      "Ġto": 305,
      "Ġand": 306,
      "ent": 307,
      "Ġdie": 308,
      "ĠS": 309,
      "om": 310,
      "st": 311,
      "Ġe": 312,
      "Ġis": 313,
      "Ġ1": 314,
      "âĢ": 315,
      "Ġl": 316,
      "il": 317,
      "id": 318,
      "ct": 319,
      "ig": 320,
      "Ġth": 321,
      "ĠT": 322,
      "ĠA": 323,
      "ur": 324,
      "ol": 325,
      "Ġen": 326,
      "ĠM": 327,
      "ĠC": 328,
      "Ġon": 329,
      "Ġk": 330,
      "ra": 331,
      "Ġbe": 332,
      "ot": 333,
      "ir": 334,
      "ers": 335,
      "Ġre": 336,
      "Ġ2": 337,
      "ĠD": 338,
      "ul": 339,
      "em": 340,
      "im": 341,
      "ĠI": 342,
      "Ġ(": 343,
      "us": 344,
      "Ġhe": 345,
      "am": 346,
      "ĠB": 347,
      "ĠP": 348,
      "ation": 349,
      "ut": 350,
      "de": 351,
      "os": 352,
      "ik": 353,
      "aar": 354,
      "un": 355,
      "Ġvan": 356,
      "ce": 357,
      "Ġst": 358,
      "ag": 359,
      "Ġfor": 360,
      "ch": 361,
      "iv": 362,
      "ĠH": 363,
      "ly": 364,
      "Ġas": 365,
      "ĠâĢ": 366,
      "and": 367,
      "ek": 368,
      "ies": 369,
      "ter": 370,
      "00": 371,
      "Ġr": 372,
      "ad": 373,
      "ay": 374,
      "ow": 375,
      "od": 376,
      "ĠE": 377,
      "ak": 378,
      "ĠF": 379,
      "ĠW": 380,
      "te": 381,
      "ere": 382,
      "th": 383,
      "ĠG": 384,
      "Ġcon": 385,
      "ĠR": 386,
      "Ġal": 387,
      "ith": 388,
      "ĠN": 389,
      "Ġde": 390,
      "se": 391,
      "Ġj": 392,
      "Ġpro": 393,
      "ess": 394,
      "ĠL": 395,
      "Ġby": 396,
      "..": 397,
      "ĠO": 398,
      "Ġte": 399,
      "Ġthat": 400,
      "est": 401,
      "Ġse": 402,
      "Ġop": 403,
      "if": 404,
      "Ġwh": 405,
      "op": 406,
      "der": 407,
      "Ġor": 408,
      "Ġhet": 409,
      "um": 410,
      "Ġwith": 411,
      "ĠJ": 412,
      "Ġnie": 413,
      "ord": 414,
      "ab": 415,
      "Ġver": 416,
      "ĠThe": 417,
      "ate": 418,
      "ect": 419,
      "ver": 420,
      "ap": 421,
      "Ġwas": 422,
      "ĠV": 423,
      "ve": 424,
      "ant": 425,
      "Ġge": 426,
      "Ġwat": 427,
      "Ġ3": 428,
      "Ġsu": 429,
      "Ġcom": 430,
      "Ġom": 431,
      "Ġat": 432,
      "ge": 433,
      "qu": 434,
      "Ġit": 435,
      "ens": 436,
      "ill": 437,
      "ĠK": 438,
      "ac": 439,
      "01": 440,
      "Ġu": 441,
      "we": 442,
      "ist": 443,
      "ort": 444,
      "Ġex": 445,
      "Ġle": 446,
      "pp": 447,
      "Ġwe": 448,
      "art": 449,
      "Ġ'": 450,
      "ment": 451,
      "og": 452,
      "ry": 453,
      "Ġmet": 454,
      "rom": 455,
      "ain": 456,
      "ri": 457,
      "ans": 458,
      "end": 459,
      "ld": 460,
      "Ġ4": 461,
      "ity": 462,
      "ĠIn": 463,
      "Ġare": 464,
      "oc": 465,
      "ru": 466,
      "ok": 467,
      "ore": 468,
      "Ġy": 469,
      "oor": 470,
      "eer": 471,
      "Ġ5": 472,
      "ich": 473,
      "ell": 474,
      "our": 475,
      "Ġvir": 476,
      "Ġsp": 477,
      "ang": 478,
      "Ġnot": 479,
      "oun": 480,
      "ond": 481,
      "Ġdat": 482,
      "igh": 483,
      "ure": 484,
      "Ġfrom": 485,
      "la": 486,
      "ive": 487,
      "Ġso": 488,
      "ier": 489,
      "ep": 490,
      "lik": 491,
      "ff": 492,
      "Ġmo": 493,
      "ud": 494,
      "Ġsh": 495,
      "Ġun": 496,
      "pl": 497,
      "ction": 498,
      "Ġha": 499,
      "ber": 500,
      "ard": 501,
      "ien": 502,
      "ated": 503,
      "Ġpr": 504,
      "all": 505,
      "Ġsy": 506,
      "ec": 507,
      "ind": 508,
      "ine": 509,
      "ial": 510,
      "ide": 511,
      "ke": 512,
      "Ġ-": 513,
      "Ġwhich": 514,
      ".,": 515,
      "Ġ6": 516,
      "Ġaan": 517,
      "aan": 518,
      "ug": 519,
      "Ġus": 520,
      "Ġdit": 521,
      "ip": 522,
      "Ġ.": 523,
      "Ġthis": 524,
      "ĠU": 525,
      "ia": 526,
      "orm": 527,
      "Ġch": 528,
      "ust": 529,
      "ings": 530,
      "Ġ201": 531,
      "age": 532,
      "Ġme": 533,
      "cc": 534,
      "Ġne": 535,
      "Ġcomp": 536,
      "ast": 537,
      ").": 538,
      "Ġword": 539,
      "Ġcont": 540,
      "ther": 541,
      "ub": 542,
      "Ġres": 543,
      "ĠSt": 544,
      "ice": 545,
      "Ġad": 546,
      "ite": 547,
      "oe": 548,
      "ĠâĢĺ": 549,
      "per": 550,
      "able": 551,
      "ts": 552,
      "ĠØ": 553,
      "Ġma": 554,
      "Ġ\"": 555,
      "cl": 556,
      "ue": 557,
      "iz": 558,
      "Ġons": 559,
      "ulle": 560,
      "ical": 561,
      "erm": 562,
      "Ġ0": 563,
      "Ġmay": 564,
      "âĢĿ": 565,
      "ï¿": 566,
      "Ġapp": 567,
      "ï¿½": 568,
      "ous": 569,
      "Ġall": 570,
      "Ġpl": 571,
      "ition": 572,
      "Ġhave": 573,
      "fer": 574,
      "âĢĻ": 575,
      "ould": 576,
      "Ġmy": 577,
      "ight": 578,
      "ne": 579,
      "erk": 580,
      "Ġsa": 581,
      "Ġdo": 582,
      "ong": 583,
      "ass": 584,
      "ary": 585,
      "Ġdis": 586,
      "Ãª": 587,
      "ĠTh": 588,
      "of": 589,
      "pt": 590,
      "Ġim": 591,
      "Ġkan": 592,
      "Ġ7": 593,
      "du": 594,
      "ste": 595,
      "pr": 596,
      "ied": 597,
      "ome": 598,
      "ase": 599,
      "Ġ8": 600,
      "to": 601,
      "ks": 602,
      "Ġman": 603,
      "ents": 604,
      "ib": 605,
      "ire": 606,
      "ele": 607,
      "ys": 608,
      "Ġaf": 609,
      "Ġ19": 610,
      "Ġar": 611,
      "ence": 612,
      "Ġcan": 613,
      "ĠâĢľ": 614,
      "act": 615,
      "ance": 616,
      "ty": 617,
      "Ġsk": 618,
      "Ġhis": 619,
      "ood": 620,
      "Ġro": 621,
      "Ã«": 622,
      "Ġgro": 623,
      "ont": 624,
      "Ġper": 625,
      "hen": 626,
      "Ġek": 627,
      "Ġjy": 628,
      "ost": 629,
      "10": 630,
      "form": 631,
      "ations": 632,
      "Ġoor": 633,
      "els": 634,
      "are": 635,
      "ige": 636,
      "Ġuit": 637,
      "Ġone": 638,
      "....": 639,
      "ĠDie": 640,
      "),": 641,
      "out": 642,
      "ear": 643,
      "Ġna": 644,
      "Ġab": 645,
      "Ġsal": 646,
      "ach": 647,
      "Ġreg": 648,
      "Ġel": 649,
      "Ġ10": 650,
      "ĠâĢĻ": 651,
      "oek": 652,
      "Ġpart": 653,
      "Ġdaar": 654,
      "iss": 655,
      "ign": 656,
      "heid": 657,
      "Ġbes": 658,
      "ende": 659,
      "Ġges": 660,
      "'s": 661,
      "one": 662,
      "ee": 663,
      "pos": 664,
      "Ġwill": 665,
      "ĠCh": 666,
      "ink": 667,
      "ple": 668,
      "lo": 669,
      "Ġ9": 670,
      "die": 671,
      "Ġbet": 672,
      "eks": 673,
      "elf": 674,
      "ÙĦ": 675,
      "77": 676,
      "her": 677,
      "ely": 678,
      "Ġhulle": 679,
      "ame": 680,
      "Ġjou": 681,
      "ER": 682,
      "Ġtr": 683,
      "ors": 684,
      "Ġhas": 685,
      "ĠAn": 686,
      "Ġag": 687,
      "Ġpre": 688,
      "Ġwere": 689,
      "omm": 690,
      "20": 691,
      "ions": 692,
      "ank": 693,
      "ack": 694,
      "aat": 695,
      "Ġgen": 696,
      "Ġ18": 697,
      "be": 698,
      "ult": 699,
      "Ġno": 700,
      "Ġinter": 701,
      "erv": 702,
      "wo": 703,
      "Ġ[": 704,
      "ale": 705,
      "av": 706,
      "Ġem": 707,
      "ĠEn": 708,
      "Ġam": 709,
      "ement": 710,
      "Ġbut": 711,
      "uit": 712,
      "pe": 713,
      "Ġacc": 714,
      "ime": 715,
      "Ġhy": 716,
      "lic": 717,
      "ĠY": 718,
      "Ġvoor": 719,
      "ater": 720,
      "eg": 721,
      "Ã©": 722,
      "Ġvol": 723,
      "000": 724,
      "Ġhier": 725,
      "ons": 726,
      "iese": 727,
      "own": 728,
      "Ġthere": 729,
      "ile": 730,
      "ann": 731,
      "sk": 732,
      "Ġup": 733,
      "ose": 734,
      "yl": 735,
      "Ġother": 736,
      "Ġout": 737,
      "ount": 738,
      "oll": 739,
      "und": 740,
      "Ġsub": 741,
      "Ġqu": 742,
      "int": 743,
      "EN": 744,
      "Ġany": 745,
      "ert": 746,
      "irst": 747,
      "ork": 748,
      "Ġvers": 749,
      "ree": 750,
      "ï¿½ï¿½": 751,
      "11": 752,
      "ew": 753,
      "ĠOn": 754,
      "Ġi": 755,
      "Ġwaar": 756,
      "Ġdeur": 757,
      "sp": 758,
      "ÙĨ": 759,
      "Ġ12": 760,
      "Ġbeen": 761,
      "Ġass": 762,
      "ark": 763,
      "Ġra": 764,
      "Ġook": 765,
      "Ġdes": 766,
      "ĠÂ": 767,
      "Ġnet": 768,
      "Ġcl": 769,
      "Ġbl": 770,
      "Ġtheir": 771,
      "ike": 772,
      "ual": 773,
      "ph": 774,
      "Ġ$": 775,
      "fr": 776,
      "Ġ20": 777,
      "ugh": 778,
      "Ġyou": 779,
      "port": 780,
      "19": 781,
      "eld": 782,
      "Ġsuch": 783,
      "ll": 784,
      "orn": 785,
      "the": 786,
      "Ġhad": 787,
      "âĪ": 788,
      "ates": 789,
      "ense": 790,
      "Ġ200": 791,
      "Ġfl": 792,
      "Ġsec": 793,
      "ov": 794,
      "red": 795,
      "ail": 796,
      "Ġtot": 797,
      "Ġ;": 798,
      "wer": 799,
      "anc": 800,
      "uis": 801,
      "aal": 802,
      "tt": 803,
      "Ġsaid": 804,
      "Ġcomm": 805,
      "Ġgeb": 806,
      "ath": 807,
      "ake": 808,
      "ON": 809,
      "res": 810,
      "Ġ11": 811,
      "Ġmaar": 812,
      "so": 813,
      "Ġmore": 814,
      "...": 815,
      "ram": 816,
      "Ġ|": 817,
      "Ġfirst": 818,
      "ef": 819,
      "Ġhand": 820,
      "Ø§": 821,
      "up": 822,
      "Ġits": 823,
      "Ġpres": 824,
      "Ġthey": 825,
      "ock": 826,
      "ĠAs": 827,
      "like": 828,
      "ish": 829,
      "ific": 830,
      "Ġprov": 831,
      "ating": 832,
      "af": 833,
      "Ġgo": 834,
      "ember": 835,
      "ject": 836,
      "pro": 837,
      "Ġincl": 838,
      "Ġtrans": 839,
      "Die": 840,
      "itt": 841,
      "ĠâĢĶ": 842,
      "Ġrec": 843,
      "yn": 844,
      "oon": 845,
      "ai": 846,
      "ief": 847,
      "ory": 848,
      "rib": 849,
      "enc": 850,
      "Ġform": 851,
      "Ġet": 852,
      "Ġinv": 853,
      "uur": 854,
      "Ġunder": 855,
      "old": 856,
      "Ġind": 857,
      "12": 858,
      "Ġmoet": 859,
      "Ġla": 860,
      "IN": 861,
      "Ġwhere": 862,
      "Ġdev": 863,
      "Ġgr": 864,
      "yd": 865,
      "ound": 866,
      "aie": 867,
      "ck": 868,
      "ace": 869,
      "ES": 870,
      "Ġpos": 871,
      "Ġwho": 872,
      "Ġev": 873,
      "iew": 874,
      "Ġmod": 875,
      "stem": 876,
      "50": 877,
      "Ġbel": 878,
      "io": 879,
      "__": 880,
      "In": 881,
      "Ġdata": 882,
      "ex": 883,
      "reat": 884,
      "The": 885,
      "Ġob": 886,
      "aak": 887,
      "ric": 888,
      "Ġtra": 889,
      "30": 890,
      "uid": 891,
      "ob": 892,
      "ress": 893,
      "Ġtime": 894,
      "ool": 895,
      "oop": 896,
      "ĠIt": 897,
      "--": 898,
      "Ġonder": 899,
      "Ġvo": 900,
      "hed": 901,
      "âĢĶ": 902,
      "Ġval": 903,
      "Ġpers": 904,
      "Ġdet": 905,
      "tern": 906,
      "Ġhierdie": 907,
      "ede": 908,
      "uss": 909,
      "Ġher": 910,
      "ian": 911,
      "Ġsc": 912,
      "oth": 913,
      "IG": 914,
      "ĠAm": 915,
      "ĠÙ": 916,
      "AN": 917,
      "ins": 918,
      "ook": 919,
      "ĠHe": 920,
      "ise": 921,
      "??": 922,
      "Ġinto": 923,
      "Ġcons": 924,
      "rough": 925,
      "me": 926,
      "22": 927,
      "ting": 928,
      "ĠPro": 929,
      "Ġmin": 930,
      "its": 931,
      "âĢĵ": 932,
      "15": 933,
      "ene": 934,
      "Ġif": 935,
      "ular": 936,
      "Ġwhen": 937,
      "Ġrel": 938,
      "Ġ:": 939,
      "Ġwould": 940,
      "Ġalso": 941,
      "wn": 942,
      "Ġeen": 943,
      "Ġ14": 944,
      "les": 945,
      "Ġdi": 946,
      "Ġthan": 947,
      "use": 948,
      "omp": 949,
      "eral": 950,
      "cess": 951,
      "ĠMr": 952,
      "Ġac": 953,
      "eng": 954,
      "Ġinc": 955,
      "Ġadd": 956,
      "ĠâĢĵ": 957,
      "13": 958,
      "Ġpol": 959,
      "ery": 960,
      "ious": 961,
      "Ġsome": 962,
      "ring": 963,
      "asie": 964,
      "olog": 965,
      "AR": 966,
      "ĠWe": 967,
      "gh": 968,
      "Ġ15": 969,
      "onder": 970,
      "ient": 971,
      "Ġ&": 972,
      "Ġsecond": 973,
      "Ġact": 974,
      "Ġeff": 975,
      "14": 976,
      "oh": 977,
      "ays": 978,
      "ix": 979,
      "201": 980,
      "ĠAl": 981,
      "Ġbaie": 982,
      "Ġover": 983,
      "Ġ=": 984,
      "ĠUn": 985,
      "Ġgaan": 986,
      "gin": 987,
      "Ġ13": 988,
      "ased": 989,
      "Ġ16": 990,
      "Ġour": 991,
      "Ġthem": 992,
      "OR": 993,
      "ution": 994,
      "ev": 995,
      "ention": 996,
      "over": 997,
      "pect": 998,
      "Ġsystem": 999,
      "Ġhim": 1000,
      "Ġmeer": 1001,
      "ities": 1002,
      "mo": 1003,
      "Ġsur": 1004,
      "AT": 1005,
      "ative": 1006,
      "Ġdif": 1007,
      "Ġtwo": 1008,
      "oi": 1009,
      "ÙĬ": 1010,
      "ident": 1011,
      "AL": 1012,
      "ĠDit": 1013,
      "18": 1014,
      "ween": 1015,
      "ower": 1016,
      "land": 1017,
      "Ġent": 1018,
      "urn": 1019,
      "Ġx": 1020,
      "ĠÎ": 1021,
      "16": 1022,
      "Ġwees": 1023,
      "Ġprodu": 1024,
      "Ġsoos": 1025,
      "Ġ,": 1026,
      "Ġeach": 1027,
      "ft": 1028,
      "frik": 1029,
      "oy": 1030,
      "ample": 1031,
      "iek": 1032,
      "Ġoff": 1033,
      "eb": 1034,
      "IS": 1035,
      "Ġyear": 1036,
      "Ġwerk": 1037,
      "air": 1038,
      "Ġgev": 1039,
      "ough": 1040,
      "Ġont": 1041,
      "fore": 1042,
      "23": 1043,
      "uk": 1044,
      "ering": 1045,
      "arm": 1046,
      "erg": 1047,
      "Ġfe": 1048,
      "ced": 1049,
      "ps": 1050,
      "ruik": 1051,
      "Ġrem": 1052,
      "ss": 1053,
      "Ġkn": 1054,
      "ron": 1055,
      "Ġdef": 1056,
      "ments": 1057,
      "Ġsign": 1058,
      "rek": 1059,
      "........": 1060,
      "rit": 1061,
      "ild": 1062,
      "formation": 1063,
      "Ġsl": 1064,
      "Ġ17": 1065,
      "Ġint": 1066,
      "Ġonly": 1067,
      "org": 1068,
      "ĠThis": 1069,
      "ract": 1070,
      "Ġkom": 1071,
      "ble": 1072,
      "Ġter": 1073,
      "ited": 1074,
      "Ġsupp": 1075,
      "iet": 1076,
      "Ġatt": 1077,
      "Ġgel": 1078,
      "17": 1079,
      "ĠEk": 1080,
      "Ġrequ": 1081,
      "yk": 1082,
      "rol": 1083,
      "Ġbetween": 1084,
      "ally": 1085,
      "Ġthrough": 1086,
      "Ġpar": 1087,
      "Ġset": 1088,
      "ollow": 1089,
      "ined": 1090,
      "rag": 1091,
      "ĠSeks": 1092,
      "Ġinst": 1093,
      "Ġinclud": 1094,
      "ures": 1095,
      "24": 1096,
      "Ġrece": 1097,
      "Ġthese": 1098,
      "com": 1099,
      "arg": 1100,
      "hod": 1101,
      "Ġpla": 1102,
      "iÃ«": 1103,
      "ick": 1104,
      "Ġmense": 1105,
      "IC": 1106,
      "Ġused": 1107,
      "Ġpresent": 1108,
      "Ġgroot": 1109,
      "Ġbo": 1110,
      "Ġander": 1111,
      "Ġabout": 1112,
      "ange": 1113,
      "ern": 1114,
      "//": 1115,
      "ĠZ": 1116,
      "bod": 1117,
      "Ġ30": 1118,
      "Ġhaar": 1119,
      "ĠNo": 1120,
      "25": 1121,
      "Ġhul": 1122,
      "Ãªre": 1123,
      "inn": 1124,
      "ature": 1125,
      "Ġstud": 1126,
      "eds": 1127,
      "als": 1128,
      "Ġ*": 1129,
      "Ġhoe": 1130,
      "ission": 1131,
      "Ã¢": 1132,
      "ility": 1133,
      "laim": 1134,
      "Ġend": 1135,
      "ris": 1136,
      "Ġmaak": 1137,
      "ton": 1138,
      "Ġke": 1139,
      "Ġged": 1140,
      "ublic": 1141,
      "ĠGod": 1142,
      "Ġmade": 1143,
      "uring": 1144,
      "Ġspec": 1145,
      "amp": 1146,
      "ible": 1147,
      "Ġdr": 1148,
      "ĠMar": 1149,
      "Ġnu": 1150,
      "ward": 1151,
      "Ġafter": 1152,
      "Ùħ": 1153,
      "ane": 1154,
      "Ġtoe": 1155,
      "by": 1156,
      "Ġmed": 1157,
      "ets": 1158,
      "hou": 1159,
      "ection": 1160,
      "Ġshe": 1161,
      "Ġkind": 1162,
      "iener": 1163,
      "ving": 1164,
      "oms": 1165,
      "21": 1166,
      "par": 1167,
      "Ġhigh": 1168,
      "Ġstr": 1169,
      "Ġbest": 1170,
      "Ġâ": 1171,
      "ĠFor": 1172,
      "Ġmak": 1173,
      "atis": 1174,
      "Ġshould": 1175,
      "ĠAd": 1176,
      "ĠAr": 1177,
      "Ġfollow": 1178,
      "Ġho": 1179,
      "ĠX": 1180,
      "emb": 1181,
      "Ġself": 1182,
      "enn": 1183,
      "Ġcol": 1184,
      "Ġsw": 1185,
      "Ġprocess": 1186,
      "elik": 1187,
      "Ġvar": 1188,
      "ule": 1189,
      "Ġcar": 1190,
      "GE": 1191,
      "ants": 1192,
      "Ġoper": 1193,
      "Ġjaar": 1194,
      "Ġsame": 1195,
      "Ġthen": 1196,
      "26": 1197,
      "Ġwil": 1198,
      "ah": 1199,
      "Ġins": 1200,
      "ute": 1201,
      "ude": 1202,
      "ening": 1203,
      "Ġph": 1204,
      "ull": 1205,
      "://": 1206,
      "any": 1207,
      "ĠMe": 1208,
      "Ġserv": 1209,
      "ash": 1210,
      "âĪĴ": 1211,
      "eling": 1212,
      "Ġbu": 1213,
      "ected": 1214,
      "Ġdist": 1215,
      "Ġext": 1216,
      "tic": 1217,
      "Ġnum": 1218,
      "40": 1219,
      "Ġgra": 1220,
      "mm": 1221,
      "Ġdire": 1222,
      "Ġpo": 1223,
      "ues": 1224,
      "Ġgem": 1225,
      "ax": 1226,
      "Ġnew": 1227,
      "app": 1228,
      "Ġpur": 1229,
      "ED": 1230,
      "Ġdiffer": 1231,
      "777": 1232,
      "Ġpat": 1233,
      "ized": 1234,
      "Ġbeing": 1235,
      "ii": 1236,
      "Ġpartic": 1237,
      "Ġwork": 1238,
      "Ġkl": 1239,
      "ict": 1240,
      "Ġcor": 1241,
      "Ġmon": 1242,
      "ider": 1243,
      "Ġport": 1244,
      "Ġco": 1245,
      "Ġclaim": 1246,
      "dag": 1247,
      "Ġaut": 1248,
      "ational": 1249,
      "Ġinformation": 1250,
      "Ġteen": 1251,
      "Ġmethod": 1252,
      "Ġnog": 1253,
      "Ġgebruik": 1254,
      "Ġfil": 1255,
      "ption": 1256,
      "Ġuse": 1257,
      "uch": 1258,
      "ages": 1259,
      "isie": 1260,
      "ove": 1261,
      "ices": 1262,
      "ines": 1263,
      "ĠComm": 1264,
      "ium": 1265,
      "arge": 1266,
      "Ġwater": 1267,
      "Ġtyd": 1268,
      "28": 1269,
      "Ġwell": 1270,
      "ause": 1271,
      "Ùĩ": 1272,
      "ND": 1273,
      "ret": 1274,
      "ĠFr": 1275,
      "rist": 1276,
      "bodim": 1277,
      "oen": 1278,
      "ator": 1279,
      "ĠSh": 1280,
      "Ġhom": 1281,
      "Ġever": 1282,
      "inal": 1283,
      "Ġ/": 1284,
      "led": 1285,
      "man": 1286,
      "rou": 1287,
      "Ġsm": 1288,
      "tain": 1289,
      "Ġbegin": 1290,
      "ved": 1291,
      "hes": 1292,
      "Ġterm": 1293,
      "ourt": 1294,
      "ces": 1295,
      "ording": 1296,
      "Ġget": 1297,
      "ĠWh": 1298,
      "eel": 1299,
      "ctions": 1300,
      "Ġloc": 1301,
      "Ġgew": 1302,
      "Ġdesc": 1303,
      "Ġland": 1304,
      "Ġhere": 1305,
      "other": 1306,
      "Ġbr": 1307,
      "Ġcell": 1308,
      "sh": 1309,
      "60": 1310,
      "aw": 1311,
      "uro": 1312,
      "jie": 1313,
      "Ġred": 1314,
      "99": 1315,
      ".âĢĿ": 1316,
      "Ġest": 1317,
      "Ġsit": 1318,
      "Ġnou": 1319,
      "ĠSp": 1320,
      "urg": 1321,
      "Ġprovid": 1322,
      "ĠsÃª": 1323,
      "eth": 1324,
      "arn": 1325,
      "ĠAnd": 1326,
      "gram": 1327,
      "irc": 1328,
      "Ġdevice": 1329,
      "ĠQ": 1330,
      "lyn": 1331,
      "33": 1332,
      "Ġverk": 1333,
      "Ġsim": 1334,
      "Ġupon": 1335,
      "ural": 1336,
      "Ġyour": 1337,
      "vel": 1338,
      "ven": 1339,
      "hem": 1340,
      "80": 1341,
      "ww": 1342,
      "Ø¨": 1343,
      "ĠAf": 1344,
      "Ġexample": 1345,
      "Ġsol": 1346,
      "ĠRe": 1347,
      "ision": 1348,
      "Ġembodim": 1349,
      "press": 1350,
      "AC": 1351,
      "Ġeer": 1352,
      "Ġpe": 1353,
      ".\"": 1354,
      "27": 1355,
      "xt": 1356,
      "gel": 1357,
      "bl": 1358,
      "ĠNew": 1359,
      "OL": 1360,
      "Ġbeh": 1361,
      "dition": 1362,
      "ĠHy": 1363,
      "vo": 1364,
      "urther": 1365,
      "Ġthose": 1366,
      "ION": 1367,
      "ĠÃ": 1368,
      "Ø¯": 1369,
      "Ġ25": 1370,
      "ĠØ§": 1371,
      "Ø±": 1372,
      "Ġbec": 1373,
      "ĠBl": 1374,
      "face": 1375,
      "HE": 1376,
      "ker": 1377,
      "alth": 1378,
      "ryf": 1379,
      "Ġcould": 1380,
      "Ġconf": 1381,
      "put": 1382,
      "Ġhou": 1383,
      "ivers": 1384,
      "Ġtwe": 1385,
      "ideo": 1386,
      "Ġeffect": 1387,
      "ever": 1388,
      "ases": 1389,
      "ept": 1390,
      "Ġhandel": 1391,
      "ĠJoh": 1392,
      "Ġcase": 1393,
      "Ġvery": 1394,
      "Ġdoen": 1395,
      "Ġcap": 1396,
      "ges": 1397,
      "Ġhel": 1398,
      "vers": 1399,
      "Ġcur": 1400,
      "Ġbed": 1401,
      "ived": 1402,
      "ily": 1403,
      "vol": 1404,
      "ics": 1405,
      "Ġmil": 1406,
      "ired": 1407,
      "Ġelect": 1408,
      "On": 1409,
      "ield": 1410,
      "Ġgek": 1411,
      "con": 1412,
      "min": 1413,
      "Ġdan": 1414,
      "Ġie": 1415,
      "ted": 1416,
      "Ġagain": 1417,
      "ĠCl": 1418,
      "200": 1419,
      "ĠØ§ÙĦ": 1420,
      "Ġorder": 1421,
      "fl": 1422,
      "ful": 1423,
      "Ġversk": 1424,
      "oss": 1425,
      "val": 1426,
      "Ġdel": 1427,
      "Ġple": 1428,
      "ms": 1429,
      "gg": 1430,
      "Ġdeterm": 1431,
      "ï¿½ï¿½ï¿½ï¿½": 1432,
      "âĢľ": 1433,
      "ĠØ¹": 1434,
      "Ġfun": 1435,
      "na": 1436,
      "lect": 1437,
      "Ġdra": 1438,
      "35": 1439,
      "ruct": 1440,
      "ET": 1441,
      "St": 1442,
      "Ġwhat": 1443,
      "ye": 1444,
      "Ġ24": 1445,
      "ĠOF": 1446,
      "29": 1447,
      "ĠGr": 1448,
      "Ġmost": 1449,
      "ife": 1450,
      "EL": 1451,
      "AS": 1452,
      "ically": 1453,
      "ination": 1454,
      "Ġconn": 1455,
      "____": 1456,
      "gan": 1457,
      "Ġhow": 1458,
      "Ġkon": 1459,
      "uc": 1460,
      "ured": 1461,
      "idd": 1462,
      "Ġdec": 1463,
      "ING": 1464,
      "wing": 1465,
      "ĠFIG": 1466,
      "van": 1467,
      "Ġcontrol": 1468,
      "iven": 1469,
      "UR": 1470,
      "Ġser": 1471,
      "ĠGro": 1472,
      "IT": 1473,
      "dat": 1474,
      "Ġgood": 1475,
      "entr": 1476,
      "Ġstor": 1477,
      "iteit": 1478,
      "outh": 1479,
      "ified": 1480,
      "Ġlay": 1481,
      "ives": 1482,
      "frika": 1483,
      "aats": 1484,
      "lis": 1485,
      "inc": 1486,
      "ENT": 1487,
      "Ġapplic": 1488,
      "gen": 1489,
      "Ġtem": 1490,
      "ness": 1491,
      "Ġnumber": 1492,
      "iron": 1493,
      "ĠIs": 1494,
      "Ġshow": 1495,
      "_{": 1496,
      "Ġusing": 1497,
      "ize": 1498,
      "Ġops": 1499,
      "Ġbro": 1500,
      "kap": 1501,
      "Ġview": 1502,
      "ĠSc": 1503,
      "iqu": 1504,
      "Ġstat": 1505,
      "ĠCon": 1506,
      "Ġ?": 1507,
      "Ġlike": 1508,
      "iver": 1509,
      "Ġproper": 1510,
      "Ġdisc": 1511,
      "ner": 1512,
      "lig": 1513,
      "Ġret": 1514,
      "Ġappro": 1515,
      "ĠChrist": 1516,
      "wys": 1517,
      "Ġline": 1518,
      "ĠEx": 1519,
      "ĠØ¨": 1520,
      "Ġwant": 1521,
      "atter": 1522,
      "ĠPl": 1523,
      "sc": 1524,
      "Ġequ": 1525,
      "Ġnow": 1526,
      "ote": 1527,
      "Ġbesk": 1528,
      "Ġpass": 1529,
      "Ġconst": 1530,
      "Ġ100": 1531,
      "Ġou": 1532,
      "Ġbefore": 1533,
      "oci": 1534,
      "Ek": 1535,
      "¼n": 1536,
      "ively": 1537,
      "rent": 1538,
      "Ġer": 1539,
      "ency": 1540,
      "Ġfact": 1541,
      "Ġhaving": 1542,
      "ox": 1543,
      "ars": 1544,
      "ateg": 1545,
      "Ġgreat": 1546,
      "CH": 1547,
      "Ġyears": 1548,
      "Ġdifferent": 1549,
      "kom": 1550,
      "Ġing": 1551,
      "Ġz": 1552,
      "ves": 1553,
      "ference": 1554,
      "90": 1555,
      "As": 1556,
      "ina": 1557,
      "att": 1558,
      "iewe": 1559,
      "eken": 1560,
      "aring": 1561,
      "34": 1562,
      "hor": 1563,
      "ente": 1564,
      "Ġweer": 1565,
      "line": 1566,
      "Ġleast": 1567,
      "day": 1568,
      "urs": 1569,
      "Ġperform": 1570,
      "ister": 1571,
      "aste": 1572,
      "Ġmust": 1573,
      "Ġ50": 1574,
      "Ġshall": 1575,
      "Ġsaam": 1576,
      "ivid": 1577,
      "pend": 1578,
      "ization": 1579,
      "ĠRes": 1580,
      "cept": 1581,
      "Ġvolg": 1582,
      "ott": 1583,
      "Ê¼n": 1584,
      "ribed": 1585,
      "mer": 1586,
      "Ġboth": 1587,
      "Ġconc": 1588,
      "Ġwherein": 1589,
      "Ġwithin": 1590,
      "Ġmark": 1591,
      "let": 1592,
      "ĠCo": 1593,
      "ertain": 1594,
      "Ġtak": 1595,
      "Ġanal": 1596,
      "Ġfin": 1597,
      "Ġlong": 1598,
      "ees": 1599,
      "Ġkle": 1600,
      "Ġwor": 1601,
      "Ġresp": 1602,
      "alk": 1603,
      "Ġopt": 1604,
      "for": 1605,
      "ave": 1606,
      "riend": 1607,
      "75": 1608,
      "Ġ26": 1609,
      "ially": 1610,
      "part": 1611,
      "igheid": 1612,
      "oel": 1613,
      "stand": 1614,
      "way": 1615,
      "Ġpublic": 1616,
      "IL": 1617,
      "Ġ21": 1618,
      "Ġverb": 1619,
      "Ġcommun": 1620,
      "Ġda": 1621,
      "less": 1622,
      "Ġincre": 1623,
      "pres": 1624,
      "Ġ2017": 1625,
      "baar": 1626,
      "Ġrespect": 1627,
      "Ġvert": 1628,
      "ads": 1629,
      "Ġmeans": 1630,
      "ding": 1631,
      "chn": 1632,
      "ders": 1633,
      "reg": 1634,
      "Ġcirc": 1635,
      "Ġposs": 1636,
      "TR": 1637,
      "Ġsel": 1638,
      "Ġmot": 1639,
      "Ġsubst": 1640,
      "38": 1641,
      "Ġmake": 1642,
      "oot": 1643,
      "ĠSy": 1644,
      "Ġant": 1645,
      "ĠÊ¼n": 1646,
      "ements": 1647,
      "Ġevery": 1648,
      "ross": 1649,
      "Ġcontain": 1650,
      "eter": 1651,
      "Ġbek": 1652,
      "ande": 1653,
      "ĠAmer": 1654,
      "ĠDe": 1655,
      "ĠVol": 1656,
      "AM": 1657,
      "Ġwithout": 1658,
      "ople": 1659,
      "reek": 1660,
      "ĠOns": 1661,
      "Ġ28": 1662,
      "Ġmens": 1663,
      "ĠBy": 1664,
      "Ġhelp": 1665,
      "Ġduring": 1666,
      "Ġstand": 1667,
      "ather": 1668,
      "aanse": 1669,
      "Ġgoed": 1670,
      "45": 1671,
      "por": 1672,
      "Ġseks": 1673,
      "ateur": 1674,
      "ĠIf": 1675,
      "ustr": 1676,
      "ĠPr": 1677,
      "ĠComp": 1678,
      "Ġder": 1679,
      "36": 1680,
      "ster": 1681,
      "EC": 1682,
      "Ġocc": 1683,
      "Ġreport": 1684,
      "get": 1685,
      "werk": 1686,
      "ĠInd": 1687,
      "az": 1688,
      "Ġaff": 1689,
      "Ġalle": 1690,
      "Ġinvention": 1691,
      "Ġday": 1692,
      "li": 1693,
      "co": 1694,
      "Ġgeneral": 1695,
      "Ġmen": 1696,
      "Ġread": 1697,
      "Ġdid": 1698,
      "aam": 1699,
      "nal": 1700,
      "Ġside": 1701,
      "Ġmeas": 1702,
      "Ġty": 1703,
      "Ġsien": 1704,
      "Ġsurface": 1705,
      "Ġbus": 1706,
      "Ġthree": 1707,
      "ĠBe": 1708,
      "aterial": 1709,
      "70": 1710,
      "aatsoek": 1711,
      "gr": 1712,
      "----": 1713,
      "iness": 1714,
      "Ġkry": 1715,
      "aars": 1716,
      "ason": 1717,
      ",\"": 1718,
      "woord": 1719,
      "Ġknow": 1720,
      "imes": 1721,
      "jies": 1722,
      "ital": 1723,
      "ĠTo": 1724,
      "Ġdown": 1725,
      "anneer": 1726,
      "ody": 1727,
      "Ġlaat": 1728,
      "iving": 1729,
      "moet": 1730,
      "].": 1731,
      "kt": 1732,
      "elop": 1733,
      "Ġtwee": 1734,
      "ÙĪ": 1735,
      "mal": 1736,
      "Ġfurther": 1737,
      "ante": 1738,
      "Ġsupport": 1739,
      "Ġcondition": 1740,
      "rans": 1741,
      "Ġdeel": 1742,
      "luit": 1743,
      "ls": 1744,
      "Ġbas": 1745,
      "Ġ22": 1746,
      "posed": 1747,
      "Ġve": 1748,
      "Ġcall": 1749,
      "Ġown": 1750,
      "ĠIN": 1751,
      ",âĢĿ": 1752,
      "ism": 1753,
      "Ġnon": 1754,
      "ille": 1755,
      "ĠJul": 1756,
      "med": 1757,
      "ĠMy": 1758,
      "Ġweb": 1759,
      "Ġlewe": 1760,
      "arr": 1761,
      "Ġart": 1762,
      "Ġabove": 1763,
      "au": 1764,
      "Ġcount": 1765,
      "Ġconsider": 1766,
      "Ġprof": 1767,
      "reet": 1768,
      "Ġfound": 1769,
      "ĠAt": 1770,
      "asse": 1771,
      "Ġmag": 1772,
      "ĠTHE": 1773,
      "ade": 1774,
      "Ġgl": 1775,
      "gro": 1776,
      "wh": 1777,
      "iod": 1778,
      "ĠOr": 1779,
      "Ġste": 1780,
      "sel": 1781,
      "iff": 1782,
      "Ġlim": 1783,
      "amer": 1784,
      "Ġcompris": 1785,
      "Ġeerste": 1786,
      "ope": 1787,
      "ince": 1788,
      "Ġelke": 1789,
      "work": 1790,
      "Ġcost": 1791,
      "ids": 1792,
      "Ġ#": 1793,
      "duct": 1794,
      "ten": 1795,
      "Ġmany": 1796,
      "Ġaang": 1797,
      "Ġprob": 1798,
      "br": 1799,
      "ird": 1800,
      "Ġed": 1801,
      "Ġ23": 1802,
      "ĠSch": 1803,
      "ĠMaatsoek": 1804,
      "viron": 1805,
      "Ġsou": 1806,
      "Ġadv": 1807,
      "OM": 1808,
      "Ġuser": 1809,
      "Ġdag": 1810,
      "ource": 1811,
      "Ġposition": 1812,
      "Ġaccording": 1813,
      "Th": 1814,
      "ĠRo": 1815,
      "Ġgesk": 1816,
      "Ġvalue": 1817,
      "ĠSuid": 1818,
      "ĠGen": 1819,
      "Ãªreld": 1820,
      "46": 1821,
      "ĠPh": 1822,
      "Ġdoes": 1823,
      "dig": 1824,
      "Ġaddition": 1825,
      "Ġ40": 1826,
      "Ġill": 1827,
      "ĠJan": 1828,
      "ulation": 1829,
      "elling": 1830,
      "Ġben": 1831,
      "Ġsee": 1832,
      "Ġident": 1833,
      "self": 1834,
      "Ġverl": 1835,
      "Ġprev": 1836,
      "Ġsek": 1837,
      "iel": 1838,
      "Ġsens": 1839,
      "Ġcourt": 1840,
      "Ġvideo": 1841,
      "Ġsex": 1842,
      "een": 1843,
      "vert": 1844,
      "Ġwhe": 1845,
      "ĠâĢ¢": 1846,
      "ining": 1847,
      "Ġes": 1848,
      "ĠThere": 1849,
      "Ġbre": 1850,
      "48": 1851,
      "Ġten": 1852,
      "ument": 1853,
      "An": 1854,
      "isc": 1855,
      "ior": 1856,
      "ended": 1857,
      "ĠSo": 1858,
      "Ġinclude": 1859,
      "Ġlight": 1860,
      "Ġresult": 1861,
      "Ġopen": 1862,
      "Ġfollowing": 1863,
      "Ġhtt": 1864,
      "oto": 1865,
      "LE": 1866,
      "Ġanother": 1867,
      "Ġperson": 1868,
      "ĠâĪ": 1869,
      "II": 1870,
      "Ġgeh": 1871,
      "Ġprogram": 1872,
      "tyd": 1873,
      "Ġstate": 1874,
      "Ġnuwe": 1875,
      "Ġ27": 1876,
      "Ġdescribed": 1877,
      "Ġinterest": 1878,
      "ably": 1879,
      "96": 1880,
      "EP": 1881,
      "Ġnat": 1882,
      "Ġshown": 1883,
      "room": 1884,
      "ĠAug": 1885,
      "ification": 1886,
      "hede": 1887,
      "Ġsection": 1888,
      "Ġ48": 1889,
      "ĠDaar": 1890,
      "ploy": 1891,
      "ger": 1892,
      "Ġproble": 1893,
      "31": 1894,
      "Ġfam": 1895,
      "Ġjust": 1896,
      "55": 1897,
      "ĠVan": 1898,
      ".)": 1899,
      "iat": 1900,
      "ĠBr": 1901,
      "lag": 1902,
      "ames": 1903,
      "ats": 1904,
      "ĠBut": 1905,
      "ley": 1906,
      "Ġlig": 1907,
      "estion": 1908,
      "Ġdirect": 1909,
      "37": 1910,
      "Ġgroup": 1911,
      "ĠØ¨ÙĨ": 1912,
      "Ġjulle": 1913,
      "................": 1914,
      "lish": 1915,
      "Ġtest": 1916,
      "Ġref": 1917,
      "raat": 1918,
      "oeg": 1919,
      "ussen": 1920,
      "44": 1921,
      "Ġpower": 1922,
      "Ġparticular": 1923,
      "oog": 1924,
      "Ġmain": 1925,
      "Ġlang": 1926,
      "arly": 1927,
      "ouse": 1928,
      "ĠOp": 1929,
      "Ġportion": 1930,
      "ma": 1931,
      "ĠLe": 1932,
      "Ġ2019": 1933,
      "Ġwhile": 1934,
      "Ø³": 1935,
      "ology": 1936,
      "andel": 1937,
      "Ġway": 1938,
      "alf": 1939,
      "Ġgiven": 1940,
      "Ġplaas": 1941,
      "di": 1942,
      "ults": 1943,
      "ware": 1944,
      "Ġporn": 1945,
      "acter": 1946,
      "oed": 1947,
      "Ġiss": 1948,
      "Ġmaterial": 1949,
      "resp": 1950,
      "Ġsle": 1951,
      "Ġ^": 1952,
      "idence": 1953,
      "Ġris": 1954,
      "Ġembodiment": 1955,
      "Ġ%": 1956,
      "view": 1957,
      "erc": 1958,
      "inge": 1959,
      "Ġplace": 1960,
      "ica": 1961,
      "Ġimp": 1962,
      "Ġdem": 1963,
      "bel": 1964,
      "rik": 1965,
      "Ġvra": 1966,
      "Ġbin": 1967,
      "Ġbased": 1968,
      "Ġlaw": 1969,
      "Ġsignal": 1970,
      "Ġagainst": 1971,
      "ij": 1972,
      "Ġcle": 1973,
      "estel": 1974,
      "Ġarr": 1975,
      "Ġprovided": 1976,
      "ĠJohn": 1977,
      "39": 1978,
      "âĢ¢": 1979,
      "Ġweet": 1980,
      "Ġkinders": 1981,
      "gem": 1982,
      "ĠCom": 1983,
      "Ġindic": 1984,
      "Ġ\\": 1985,
      "ĠSe": 1986,
      "ĠSk": 1987,
      "Ġrest": 1988,
      "'t": 1989,
      "Ġhuis": 1990,
      "Ġtri": 1991,
      "Ġrepres": 1992,
      "Ġbelang": 1993,
      "Ġneed": 1994,
      "ĠState": 1995,
      "Ġlast": 1996,
      "Ġorgan": 1997,
      "ury": 1998,
      "tig": 1999,
      "ĠEuro": 2000,
      "oof": 2001,
      "ander": 2002,
      "US": 2003,
      "row": 2004,
      "nment": 2005,
      "xx": 2006,
      "este": 2007,
      "âĢĺ": 2008,
      "Ġcomput": 2009,
      "ĠMaar": 2010,
      "ify": 2011,
      "FIG": 2012,
      "iding": 2013,
      "play": 2014,
      "ĠEng": 2015,
      "ampl": 2016,
      "net": 2017,
      "Ġincluding": 2018,
      "ently": 2019,
      "Ġgu": 2020,
      "Ġ+": 2021,
      "htt": 2022,
      "Î±": 2023,
      "ĠApp": 2024,
      "Ġgee": 2025,
      "Ġbecause": 2026,
      "32": 2027,
      "Ġleg": 2028,
      "ID": 2029,
      "ances": 2030,
      "ĠgesÃª": 2031,
      "Ġvis": 2032,
      "raph": 2033,
      "ĠÏ": 2034,
      "ither": 2035,
      "ged": 2036,
      "itted": 2037,
      "Ġpeople": 2038,
      "ability": 2039,
      "Ġsmall": 2040,
      "ĠOnt": 2041,
      "vironment": 2042,
      "Ġpay": 2043,
      "atch": 2044,
      "ĠJun": 2045,
      "Ġ60": 2046,
      "Ġlo": 2047,
      "oint": 2048,
      "Ġback": 2049,
      "Ġ!": 2050,
      "Ġgeen": 2051,
      "Ġchar": 2052,
      "EE": 2053,
      "read": 2054,
      "ffic": 2055,
      ".;": 2056,
      "ĠMet": 2057,
      "ĠCol": 2058,
      "unt": 2059,
      "ĠVer": 2060,
      "Ġassoci": 2061,
      "not": 2062,
      "Ġless": 2063,
      "Ġlayer": 2064,
      "Ġprote": 2065,
      "ĠØ£": 2066,
      "Ġmuch": 2067,
      "Ġcoun": 2068,
      "Ġdevelop": 2069,
      "itte": 2070,
      "elt": 2071,
      "Ġ>": 2072,
      "isies": 2073,
      "Ġhead": 2074,
      "geb": 2075,
      "AP": 2076,
      "ĠAll": 2077,
      "ĠHow": 2078,
      "Ġcontin": 2079,
      "Â»": 2080,
      "Ġsum": 2081,
      "ittle": 2082,
      "earch": 2083,
      "Ġstep": 2084,
      "enskap": 2085,
      "orth": 2086,
      "Ġ2013": 2087,
      "Ġ2018": 2088,
      "ĠFig": 2089,
      "hip": 2090,
      "Ġ29": 2091,
      "OT": 2092,
      "ĠMan": 2093,
      "Ġpoint": 2094,
      "enis": 2095,
      "ieke": 2096,
      "ĠFl": 2097,
      "aint": 2098,
      "ĠGe": 2099,
      "ĠDec": 2100,
      "bed": 2101,
      "Ġsing": 2102,
      "ality": 2103,
      "Ġwr": 2104,
      "Â°": 2105,
      "Ġ31": 2106,
      "Ġmanag": 2107,
      "Ġterug": 2108,
      "bo": 2109,
      "asion": 2110,
      "En": 2111,
      "ĠRep": 2112,
      "Ġtake": 2113,
      "ask": 2114,
      "Ġnec": 2115,
      "Ġrecord": 2116,
      "Ġauthor": 2117,
      "Ġmult": 2118,
      "Ġche": 2119,
      "ĠSept": 2120,
      "des": 2121,
      "ĠBo": 2122,
      "Ġadj": 2123,
      "Ġles": 2124,
      "IE": 2125,
      "88": 2126,
      "Ġdu": 2127,
      "Ã¡": 2128,
      "05": 2129,
      "Ġkeer": 2130,
      "ience": 2131,
      "ences": 2132,
      "ipp": 2133,
      "Ġhard": 2134,
      "Ġright": 2135,
      "estig": 2136,
      "Ġav": 2137,
      "lex": 2138,
      "ength": 2139,
      "Ġforex": 2140,
      "66": 2141,
      "95": 2142,
      "Ġpost": 2143,
      "ray": 2144,
      ");": 2145,
      "Ġnetwork": 2146,
      "Ġ...": 2147,
      "Ġfour": 2148,
      "wel": 2149,
      "ĠAan": 2150,
      "Ġvro": 2151,
      "Ġeven": 2152,
      "Ġlet": 2153,
      "ication": 2154,
      "voor": 2155,
      "Ġpress": 2156,
      "Ġsubject": 2157,
      "cle": 2158,
      "kel": 2159,
      "ren": 2160,
      "Ø¹": 2161,
      "ĠMay": 2162,
      "Ġlater": 2163,
      "mand": 2164,
      "ĠVir": 2165,
      "iesel": 2166,
      "Ġgener": 2167,
      "off": 2168,
      "Ġallow": 2169,
      "Ġactiv": 2170,
      "ĠTiener": 2171,
      "ession": 2172,
      "iers": 2173,
      "ierdie": 2174,
      "Ġinde": 2175,
      "ĠTe": 2176,
      "ode": 2177,
      "oord": 2178,
      "Ġservice": 2179,
      "Ġflow": 2180,
      "respond": 2181,
      "Ġtussen": 2182,
      "Ġbody": 2183,
      "ican": 2184,
      "Ġfind": 2185,
      "ĠNov": 2186,
      "burg": 2187,
      "ĠSte": 2188,
      "Ġger": 2189,
      "ĠDr": 2190,
      "son": 2191,
      "rict": 2192,
      "ung": 2193,
      "):": 2194,
      "Ġthough": 2195,
      "Ġweek": 2196,
      "Ġmodel": 2197,
      "Â«": 2198,
      "43": 2199,
      "Ġcertain": 2200,
      "ĠAND": 2201,
      "42": 2202,
      "RO": 2203,
      "78": 2204,
      "ĠApr": 2205,
      "king": 2206,
      "Ġair": 2207,
      "Ġproduct": 2208,
      "Ġ2016": 2209,
      "Ġperiod": 2210,
      "Ġlarge": 2211,
      "istr": 2212,
      "Ġexp": 2213,
      "Ġaand": 2214,
      "ĠTra": 2215,
      "oorde": 2216,
      "Ġamount": 2217,
      "Ġbly": 2218,
      "ised": 2219,
      "wasse": 2220,
      "Ġcurrent": 2221,
      "Ġmis": 2222,
      "Ġexper": 2223,
      "Ġstudy": 2224,
      "uck": 2225,
      "onde": 2226,
      "Ġstruct": 2227,
      "Ġtop": 2228,
      "serv": 2229,
      "Ġsn": 2230,
      "oeie": 2231,
      "Ġtemper": 2232,
      "Ġfunction": 2233,
      "Ġexpress": 2234,
      "itor": 2235,
      "ĠMed": 2236,
      "Ġlow": 2237,
      "ĠWat": 2238,
      "ÙĨØ§": 2239,
      "ysis": 2240,
      "Ġobject": 2241,
      "Ø§ÙĦ": 2242,
      "ole": 2243,
      "Ġsent": 2244,
      "Ġtransm": 2245,
      "ĠDep": 2246,
      "ape": 2247,
      "Ġaccess": 2248,
      "ĠwÃªreld": 2249,
      "ribut": 2250,
      "Ġhum": 2251,
      "AD": 2252,
      "ideos": 2253,
      "oud": 2254,
      "Ġbev": 2255,
      "Ġgele": 2256,
      "aut": 2257,
      "ken": 2258,
      "Ġgratis": 2259,
      "49": 2260,
      "Ġeie": 2261,
      "47": 2262,
      "ending": 2263,
      "Ġcal": 2264,
      "Ġglo": 2265,
      "Ġcomb": 2266,
      "Ġapplication": 2267,
      "?ï¿½": 2268,
      "Ġcent": 2269,
      "eder": 2270,
      "ØŃ": 2271,
      "staan": 2272,
      "ĠMrs": 2273,
      "str": 2274,
      "Ġenige": 2275,
      "atic": 2276,
      "plement": 2277,
      "ĠSw": 2278,
      "Ġtre": 2279,
      "Ġwanneer": 2280,
      "laai": 2281,
      "Dit": 2282,
      "Ġperm": 2283,
      "ĠCar": 2284,
      "ĠÂ·": 2285,
      "ĠAg": 2286,
      "Ġpa": 2287,
      "Ġrepresent": 2288,
      "Ã¤": 2289,
      "Ġhealth": 2290,
      "action": 2291,
      "Ġpurpos": 2292,
      "Ġcells": 2293,
      "inder": 2294,
      "Ġplek": 2295,
      "iam": 2296,
      "Ġtro": 2297,
      "rel": 2298,
      "Ġmonth": 2299,
      "ĠEl": 2300,
      "Ġobtain": 2301,
      "Ġreceived": 2302,
      "ĠWill": 2303,
      "ĠJes": 2304,
      "Ġverh": 2305,
      "Ġincludes": 2306,
      "inter": 2307,
      "ists": 2308,
      "Ġclass": 2309,
      "elike": 2310,
      "ett": 2311,
      "ĠPorn": 2312,
      "Ġverd": 2313,
      "Ġleer": 2314,
      "Ġindivid": 2315,
      "Ġca": 2316,
      "Ġfre": 2317,
      "vang": 2318,
      "Ġpriv": 2319,
      "Ġimport": 2320,
      "Ġmight": 2321,
      "ruk": 2322,
      "ese": 2323,
      "ume": 2324,
      "Ġsla": 2325,
      "ĠPers": 2326,
      "ĠMa": 2327,
      "Ġide": 2328,
      "lie": 2329,
      "Ġspe": 2330,
      "Ĥ¬": 2331,
      "Ġtechn": 2332,
      "Ġcompon": 2333,
      "100": 2334,
      "oit": 2335,
      "wik": 2336,
      "roll": 2337,
      "Ġ{": 2338,
      "Ġredu": 2339,
      "Ġdink": 2340,
      "Ġtru": 2341,
      "uns": 2342,
      "Ġmeet": 2343,
      "Ġeng": 2344,
      "Ġwhether": 2345,
      "ĠAct": 2346,
      "Ġ)": 2347,
      "ually": 2348,
      "ĠOntmoet": 2349,
      "ĠReg": 2350,
      "uf": 2351,
      "Ġef": 2352,
      "ader": 2353,
      "98": 2354,
      "Ġcre": 2355,
      "Ġbeste": 2356,
      "Ġpot": 2357,
      "Ġeg": 2358,
      "olg": 2359,
      "osp": 2360,
      "Ġ<": 2361,
      "Ġmemb": 2362,
      "ferred": 2363,
      "Ġgover": 2364,
      "Ġnod": 2365,
      "ling": 2366,
      "with": 2367,
      "ones": 2368,
      "ĠAugust": 2369,
      "ĠCO": 2370,
      "Afrika": 2371,
      "ĠThey": 2372,
      "Ġfr": 2373,
      "ĠSouth": 2374,
      "56": 2375,
      "Ġgeld": 2376,
      "Ġappear": 2377,
      "arch": 2378,
      "spra": 2379,
      "Ġmember": 2380,
      "ards": 2381,
      "Ġprovide": 2382,
      "kte": 2383,
      "ides": 2384,
      "Ġconfig": 2385,
      "**": 2386,
      "Ġtreat": 2387,
      "TE": 2388,
      "TER": 2389,
      "ceed": 2390,
      "Ġimpro": 2391,
      "ots": 2392,
      "Ons": 2393,
      "Ġlook": 2394,
      "ĠBro": 2395,
      "ĠMaatsoekery": 2396,
      "za": 2397,
      "Ġmem": 2398,
      "Ġfree": 2399,
      "ata": 2400,
      "ĠCommission": 2401,
      "ament": 2402,
      "Ġemploy": 2403,
      "pre": 2404,
      "Ġfac": 2405,
      "ÃĬ": 2406,
      "ĠFeb": 2407,
      "skap": 2408,
      "Tiener": 2409,
      "Ġconduct": 2410,
      "Ġiets": 2411,
      "ĠAss": 2412,
      "pg": 2413,
      "Ġreturn": 2414,
      "!!": 2415,
      "Ġpersoon": 2416,
      "Ġquestion": 2417,
      "41": 2418,
      "ĠSeptember": 2419,
      "orex": 2420,
      "ete": 2421,
      "ared": 2422,
      "ules": 2423,
      "nem": 2424,
      "END": 2425,
      "Ġbusiness": 2426,
      "da": 2427,
      "Ġdue": 2428,
      "ĠStates": 2429,
      "Ġlief": 2430,
      "Ġappar": 2431,
      "ĠApril": 2432,
      "Ġlittle": 2433,
      "76": 2434,
      "stel": 2435,
      "Ġtaken": 2436,
      "Ġsever": 2437,
      "ĠHere": 2438,
      "ĠSu": 2439,
      "ĠWhen": 2440,
      "Ġomdat": 2441,
      "aap": 2442,
      "ĠRev": 2443,
      "85": 2444,
      "ctor": 2445,
      "Ġnecess": 2446,
      "Ġcontent": 2447,
      "Ã³": 2448,
      "Ġfull": 2449,
      "Ġgere": 2450,
      "Î¹": 2451,
      "gs": 2452,
      "Ġsod": 2453,
      "gew": 2454,
      "86": 2455,
      "ccess": 2456,
      "Ġpred": 2457,
      "ensies": 2458,
      "ately": 2459,
      "Ġalmal": 2460,
      "Ġdesign": 2461,
      "Ġcharacter": 2462,
      "ĠkeÃ¢": 2463,
      "Î¿": 2464,
      "Ch": 2465,
      "OS": 2466,
      "Ġsource": 2467,
      "fe": 2468,
      "rop": 2469,
      "ĠAmateur": 2470,
      "ential": 2471,
      "ĠdiÃ©": 2472,
      "rys": 2473,
      "ilar": 2474,
      "iol": 2475,
      "Ġgre": 2476,
      "xim": 2477,
      "cy": 2478,
      "Ġpaar": 2479,
      "Ġillustr": 2480,
      "Ġunit": 2481,
      "oem": 2482,
      "ĠPar": 2483,
      "Ġden": 2484,
      "Ġlife": 2485,
      "ublis": 2486,
      "ued": 2487,
      "omen": 2488,
      "den": 2489,
      "OE": 2490,
      "cont": 2491,
      "rior": 2492,
      "ĠGroot": 2493,
      "inde": 2494,
      "Ġname": 2495,
      "74": 2496,
      "Ġput": 2497,
      "Ġopsies": 2498,
      ".-": 2499,
      "lement": 2500,
      "veel": 2501,
      "Ġber": 2502,
      "Ġalles": 2503,
      "uation": 2504,
      "Ġhyd": 2505,
      "Ġrate": 2506,
      "Ġreal": 2507,
      "Øª": 2508,
      "SA": 2509,
      "tes": 2510,
      "ino": 2511,
      "Ġresults": 2512,
      "ĸł": 2513,
      "02": 2514,
      "ĠNO": 2515,
      "Ġneem": 2516,
      "ÙĦÙĩ": 2517,
      "Ġamong": 2518,
      "til": 2519,
      "Ġmill": 2520,
      "Ġgive": 2521,
      "ems": 2522,
      "oes": 2523,
      "Ġ35": 2524,
      "89": 2525,
      "ning": 2526,
      "It": 2527,
      "ĠMil": 2528,
      "Ġdays": 2529,
      "lied": 2530,
      "ĠCoun": 2531,
      "Ġreference": 2532,
      "jpg": 2533,
      "06": 2534,
      "ror": 2535,
      "OD": 2536,
      "ĠSec": 2537,
      "ights": 2538,
      "oo": 2539,
      "Ġhome": 2540,
      "ension": 2541,
      "Ġlearn": 2542,
      "aster": 2543,
      "Ġkyk": 2544,
      "Ġassociated": 2545,
      "ĠUnivers": 2546,
      "ĠCompany": 2547,
      "Ġinf": 2548,
      "Ġtw": 2549,
      "asies": 2550,
      "Ġchang": 2551,
      "ĠÙĪ": 2552,
      "ĠAanlyn": 2553,
      "ries": 2554,
      "Ġlower": 2555,
      "ĠDis": 2556,
      "ĠBu": 2557,
      "atus": 2558,
      "00000": 2559,
      "waar": 2560,
      "Ġnever": 2561,
      "ĠPa": 2562,
      "Ġcorrespond": 2563,
      "Ġproject": 2564,
      "ĠThat": 2565,
      "ters": 2566,
      "Ġaccount": 2567,
      "IR": 2568,
      "ĠDes": 2569,
      "Ġ2015": 2570,
      "Ġremain": 2571,
      "wyl": 2572,
      "osed": 2573,
      "iety": 2574,
      "Ġli": 2575,
      "Ġvarious": 2576,
      "ĠJesus": 2577,
      "ĠOm": 2578,
      "Ġrequired": 2579,
      "ĠCor": 2580,
      "Ġdig": 2581,
      "aks": 2582,
      "ailable": 2583,
      "ergy": 2584,
      "TION": 2585,
      "ours": 2586,
      "itle": 2587,
      "ÃĻ": 2588,
      "Ġaddress": 2589,
      "laas": 2590,
      "ler": 2591,
      "Ġprom": 2592,
      "08": 2593,
      "Ġarea": 2594,
      "Ġ36": 2595,
      "ways": 2596,
      "Ġcases": 2597,
      "CR": 2598,
      "urb": 2599,
      "used": 2600,
      "ources": 2601,
      "Ġcountry": 2602,
      "IP": 2603,
      "79": 2604,
      "ournal": 2605,
      "yf": 2606,
      "Ġexpl": 2607,
      "71": 2608,
      "Ġmus": 2609,
      "Ġknown": 2610,
      "lang": 2611,
      "Ġgoeie": 2612,
      "bare": 2613,
      "Ġorig": 2614,
      "Ġold": 2615,
      "Al": 2616,
      "ĠAb": 2617,
      "Ġjud": 2618,
      "Ġ2014": 2619,
      "Ġklein": 2620,
      "Ġkw": 2621,
      "iseer": 2622,
      "amples": 2623,
      "Ġformed": 2624,
      "Ġimplement": 2625,
      "Ġsch": 2626,
      "eke": 2627,
      "Ġvari": 2628,
      "NA": 2629,
      "Ġgelede": 2630,
      "Ġcover": 2631,
      "Ġblock": 2632,
      "Ġvia": 2633,
      "Ġpossible": 2634,
      "Ġsay": 2635,
      ")(": 2636,
      "arie": 2637,
      "aff": 2638,
      "iter": 2639,
      "ĠOct": 2640,
      "Ġneg": 2641,
      "Ġproperty": 2642,
      "Ġacid": 2643,
      "idge": 2644,
      "Ġ32": 2645,
      "frikaanse": 2646,
      "Î½": 2647,
      "ĠSm": 2648,
      "Ġhoof": 2649,
      "ream": 2650,
      "ription": 2651,
      "}\\": 2652,
      "pes": 2653,
      "Ġthird": 2654,
      "Ġrequire": 2655,
      "raad": 2656,
      "tr": 2657,
      "itive": 2658,
      "aps": 2659,
      "iÃ«r": 2660,
      "Ġsom": 2661,
      "Ġplan": 2662,
      "Ġvrou": 2663,
      "Ġreason": 2664,
      "cent": 2665,
      "oney": 2666,
      "beeld": 2667,
      "opp": 2668,
      "Ġobserv": 2669,
      "ari": 2670,
      "urch": 2671,
      "________": 2672,
      "aai": 2673,
      "Ġwel": 2674,
      "Ġverw": 2675,
      "Ġembodiments": 2676,
      "Ġbar": 2677,
      "Ġalong": 2678,
      "Ġcontact": 2679,
      "Ġtable": 2680,
      "Ġdon": 2681,
      "Ġtemperature": 2682,
      "\":": 2683,
      "ĠThese": 2684,
      ".âĢĶ": 2685,
      "Ġtimes": 2686,
      "Ġabs": 2687,
      "ney": 2688,
      "ĠForex": 2689,
      "Ġcircuit": 2690,
      "Ġmeasure": 2691,
      "Ġcommon": 2692,
      "bal": 2693,
      "Ġgene": 2694,
      "ĠUnited": 2695,
      "ĠJy": 2696,
      "ittee": 2697,
      "ĠDIS": 2698,
      "Ġrele": 2699,
      "Ġheld": 2700,
      "Ġseveral": 2701,
      "ĠKe": 2702,
      "Ġregion": 2703,
      "54": 2704,
      "Ġnear": 2705,
      "Ġplac": 2706,
      "www": 2707,
      "order": 2708,
      "elk": 2709,
      "Ġvolgende": 2710,
      "ĠShe": 2711,
      "Ġselfs": 2712,
      "Ġstill": 2713,
      "Ġaanlyn": 2714,
      "Ġthink": 2715,
      "ĠOff": 2716,
      "Ġspes": 2717,
      "ony": 2718,
      "Ġhist": 2719,
      "ligting": 2720,
      "Ġgebe": 2721,
      "oph": 2722,
      "rug": 2723,
      "Ġdood": 2724,
      "Ġskool": 2725,
      "Ġgrond": 2726,
      "59": 2727,
      "Ġgest": 2728,
      "Ġbied": 2729,
      "ĠJanu": 2730,
      "alle": 2731,
      "icro": 2732,
      "my": 2733,
      "ĠHulle": 2734,
      "ĠÙħ": 2735,
      "vironmental": 2736,
      "onom": 2737,
      "Ġprepar": 2738,
      "ommer": 2739,
      "Ġann": 2740,
      "ĠYork": 2741,
      "82": 2742,
      "ĠÐ": 2743,
      "ison": 2744,
      "rodu": 2745,
      "Ġreview": 2746,
      "Ġcontract": 2747,
      "Ġgemaak": 2748,
      "ĠJuly": 2749,
      "09": 2750,
      "Ġwet": 2751,
      "ĠAfrika": 2752,
      "Ġ2020": 2753,
      "Ġbase": 2754,
      "met": 2755,
      "Ġrep": 2756,
      "atory": 2757,
      "Ġsonder": 2758,
      "Ġeither": 2759,
      "Ġlocal": 2760,
      "ui": 2761,
      "Ġegter": 2762,
      "No": 2763,
      "ĠDan": 2764,
      "Ã¯": 2765,
      "Ġboek": 2766,
      "Ġmix": 2767,
      "83": 2768,
      "ruction": 2769,
      "04": 2770,
      "load": 2771,
      "Ġagre": 2772,
      "Ġcr": 2773,
      "raf": 2774,
      "Ġestim": 2775,
      "CC": 2776,
      "Ġmm": 2777,
      "usion": 2778,
      "Ġsil": 2779,
      "Ġkont": 2780,
      "otos": 2781,
      "Ġstorage": 2782,
      "ological": 2783,
      "Ġmemory": 2784,
      "Ġwit": 2785,
      "Ġmar": 2786,
      "Ġpack": 2787,
      "Ġstaan": 2788,
      "Ġpoly": 2789,
      "Ġut": 2790,
      "Ġaltyd": 2791,
      "che": 2792,
      "sequ": 2793,
      "Ġlevel": 2794,
      "Ġoffic": 2795,
      "Ġpressure": 2796,
      "ukk": 2797,
      "cul": 2798,
      "iple": 2799,
      "Ġsingle": 2800,
      "Ġdies": 2801,
      "round": 2802,
      "agte": 2803,
      "je": 2804,
      "Ġlek": 2805,
      "artment": 2806,
      "werf": 2807,
      "Ġaction": 2808,
      "chan": 2809,
      "Ġdisplay": 2810,
      "ux": 2811,
      "vaar": 2812,
      "Ad": 2813,
      "bert": 2814,
      "ĠOf": 2815,
      "ĠÂ»": 2816,
      "iting": 2817,
      "pper": 2818,
      "ekaar": 2819,
      "ĠHar": 2820,
      "73": 2821,
      "ops": 2822,
      "ha": 2823,
      "Ġdus": 2824,
      "itter": 2825,
      "Ġartic": 2826,
      "Ġpract": 2827,
      "Ġthus": 2828,
      "Ġprim": 2829,
      "UT": 2830,
      "kell": 2831,
      "58": 2832,
      "ĠhÃª": 2833,
      "rie": 2834,
      "UL": 2835,
      "math": 2836,
      "^{": 2837,
      "ĠIntern": 2838,
      "onse": 2839,
      "Ġhowever": 2840,
      "Ġelement": 2841,
      "Ġpolit": 2842,
      "eil": 2843,
      "ham": 2844,
      "Ġtoeg": 2845,
      "Ġconditions": 2846,
      "ĠEurope": 2847,
      "03": 2848,
      "ĠHer": 2849,
      "abor": 2850,
      "Ġspecific": 2851,
      "ĠMc": 2852,
      "Ġuntil": 2853,
      "stit": 2854,
      "Ġregard": 2855,
      "position": 2856,
      "Ġbelow": 2857,
      "Ġmoont": 2858,
      "Â§": 2859,
      "ÏĦ": 2860,
      "Ġanalysis": 2861,
      "RE": 2862,
      "Ġleft": 2863,
      "esk": 2864,
      "ĠSen": 2865,
      "ĠHierdie": 2866,
      "????": 2867,
      "Ã«r": 2868,
      "Ġhalf": 2869,
      "ĠPer": 2870,
      "elfde": 2871,
      "Ġcomputer": 2872,
      "ental": 2873,
      "ĠSA": 2874,
      "Ġpap": 2875,
      "Ġfew": 2876,
      "kellop": 2877,
      "aby": 2878,
      "rig": 2879,
      "Ġlink": 2880,
      "ĠPart": 2881,
      "ĠVolwasse": 2882,
      "ĠWith": 2883,
      "Ġevidence": 2884,
      "Ġspel": 2885,
      "Ġ2010": 2886,
      "lor": 2887,
      "53": 2888,
      "Ġplay": 2889,
      "Ġgeme": 2890,
      "Ġbank": 2891,
      "07": 2892,
      "94": 2893,
      "ÙĤ": 2894,
      "itit": 2895,
      "Ġprior": 2896,
      "Ġwhole": 2897,
      "Ġconnected": 2898,
      "Ġanim": 2899,
      "Ġparty": 2900,
      "Ġestab": 2901,
      "Ġprinc": 2902,
      "Ġbeteken": 2903,
      "ei": 2904,
      "hib": 2905,
      "Ġens": 2906,
      "Ġimage": 2907,
      "ender": 2908,
      "ĠSee": 2909,
      "dom": 2910,
      "amb": 2911,
      "orts": 2912,
      "Ġweg": 2913,
      "Ġchange": 2914,
      "omb": 2915,
      "ICT": 2916,
      "urality": 2917,
      "57": 2918,
      "Îµ": 2919,
      "Ġcour": 2920,
      "ĠST": 2921,
      "Ġmaat": 2922,
      "Ġ2011": 2923,
      "ube": 2924,
      "Ġsince": 2925,
      "loed": 2926,
      "Ġagter": 2927,
      "Ġhttps": 2928,
      "icy": 2929,
      "ĠIND": 2930,
      "Ġ2012": 2931,
      "gment": 2932,
      "Ġnodig": 2933,
      "aling": 2934,
      "Ġfriend": 2935,
      "nt": 2936,
      "Ġchild": 2937,
      "ĠØ¹ÙĨ": 2938,
      "ĠAfr": 2939,
      "Ġcomprising": 2940,
      "Ġbring": 2941,
      "ĠGu": 2942,
      "ogn": 2943,
      "51": 2944,
      "ients": 2945,
      "aking": 2946,
      "Ġcou": 2947,
      "ĠPres": 2948,
      "Ġcare": 2949,
      "Ġdrie": 2950,
      "Ġavailable": 2951,
      "Ġmean": 2952,
      "Ġregul": 2953,
      "Ġherein": 2954,
      "voer": 2955,
      "93": 2956,
      "Ġdiff": 2957,
      "Ġrequest": 2958,
      "Ġdinge": 2959,
      "Ġrule": 2960,
      "Ġbele": 2961,
      "Ġdom": 2962,
      "ĠCourt": 2963,
      "ificant": 2964,
      "AB": 2965,
      "isting": 2966,
      "Ġvoel": 2967,
      "Ġremov": 2968,
      "Ġson": 2969,
      "Ġvl": 2970,
      "Ġopin": 2971,
      "IV": 2972,
      "Ġcity": 2973,
      "doi": 2974,
      "ĠMiss": 2975,
      "ĠCont": 2976,
      "Ġsize": 2977,
      "anger": 2978,
      "Ġworld": 2979,
      "ĠEm": 2980,
      "Ġoutput": 2981,
      "Ġoperation": 2982,
      "ĠHowever": 2983,
      "gee": 2984,
      "Ġrot": 2985,
      "rif": 2986,
      "uel": 2987,
      "Ġpop": 2988,
      "],": 2989,
      "Ġsite": 2990,
      "ands": 2991,
      "Ġconv": 2992,
      "inary": 2993,
      "Ġloss": 2994,
      "Ġinit": 2995,
      "iger": 2996,
      "Ġtherefore": 2997,
      "92": 2998,
      "ategor": 2999,
      "52": 3000,
      "ekt": 3001,
      "ales": 3002,
      "Ġplurality": 3003,
      "97": 3004,
      "elde": 3005,
      "ump": 3006,
      "Ġiemand": 3007,
      "oer": 3008,
      "Ġhold": 3009,
      "rate": 3010,
      "ws": 3011,
      "Ġinfl": 3012,
      "Ġbott": 3013,
      "âĢ²": 3014,
      "ĠNe": 3015,
      "oung": 3016,
      "ĠBrit": 3017,
      "Ġdaardie": 3018,
      "Ġassess": 3019,
      "thers": 3020,
      "ĠAfspra": 3021,
      "Ġindividual": 3022,
      "81": 3023,
      "lim": 3024,
      "uff": 3025,
      "icle": 3026,
      "izing": 3027,
      "Ġbi": 3028,
      "Ġmass": 3029,
      "acy": 3030,
      "hel": 3031,
      "Ġmer": 3032,
      "Ġloop": 3033,
      "ĠHouse": 3034,
      "Ġetc": 3035,
      "Ġcome": 3036,
      "Ġfluid": 3037,
      "rem": 3038,
      "alt": 3039,
      "Ġdeg": 3040,
      "ĠPersoon": 3041,
      "hing": 3042,
      "Ġcross": 3043,
      "ires": 3044,
      "iks": 3045,
      "Ġsepar": 3046,
      "ading": 3047,
      "ĠTrans": 3048,
      "Ġbelie": 3049,
      "Ġelectro": 3050,
      "ĠEd": 3051,
      "ribution": 3052,
      "Ġnext": 3053,
      "Ġarg": 3054,
      "Ġperf": 3055,
      "Ġstructure": 3056,
      "iale": 3057,
      "http": 3058,
      "Ġax": 3059,
      "Ġwarm": 3060,
      "Ġvind": 3061,
      "Ġbeg": 3062,
      "Ġ46": 3063,
      "Ð°": 3064,
      "Ġmount": 3065,
      "Ġvry": 3066,
      "Ġfram": 3067,
      "Ġlees": 3068,
      "Ġrad": 3069,
      "Ġinvol": 3070,
      "ging": 3071,
      "ius": 3072,
      "Ġsimilar": 3073,
      "Ġseker": 3074,
      "ĠNa": 3075,
      "Ġground": 3076,
      "91": 3077,
      "ĠPol": 3078,
      "Ġsuper": 3079,
      "Ġmanagement": 3080,
      "web": 3081,
      "Ġyet": 3082,
      "Ġfail": 3083,
      "Ġmakel": 3084,
      "ze": 3085,
      "ered": 3086,
      "Ġfar": 3087,
      "Ġtoo": 3088,
      "Ġlew": 3089,
      "Ġcompound": 3090,
      "OOL": 3091,
      "ĠCH": 3092,
      "vertensies": 3093,
      "embly": 3094,
      "aande": 3095,
      "Ġvalues": 3096,
      "Ġterwyl": 3097,
      "Ġcalled": 3098,
      "ĠBar": 3099,
      "Ġsuit": 3100,
      "Ġshort": 3101,
      "ĠØ§ÙĦÙĦÙĩ": 3102,
      "Ġcause": 3103,
      "eker": 3104,
      "Ġdetail": 3105,
      "EM": 3106,
      "ĠMin": 3107,
      "tegr": 3108,
      "Ġgehad": 3109,
      "Ïģ": 3110,
      "Ġdiv": 3111,
      "TRICT": 3112,
      "ĠWes": 3113,
      "ĠKle": 3114,
      "Ġdieselfde": 3115,
      "enk": 3116,
      "Ġmat": 3117,
      "ĠAcc": 3118,
      "ams": 3119,
      "though": 3120,
      "ĠGover": 3121,
      "ript": 3122,
      "Ġtype": 3123,
      "enes": 3124,
      "Ġturn": 3125,
      "Ġwie": 3126,
      "ĠSCH": 3127,
      "ival": 3128,
      "Ġmodule": 3129,
      "ĠWilliam": 3130,
      "Ġhuman": 3131,
      "ĠID": 3132,
      "Ġdou": 3133,
      "ieÃ«": 3134,
      "Ġlog": 3135,
      "ĠPat": 3136,
      "Ġoffer": 3137,
      "ÂŃ": 3138,
      "Ġbenef": 3139,
      "ĠDISTRICT": 3140,
      "Am": 3141,
      "ĠÙĨØ§": 3142,
      "Ġinligting": 3143,
      "Ġwind": 3144,
      "Ġsale": 3145,
      "ĠFebru": 3146,
      "Ġwonder": 3147,
      "umb": 3148,
      "Ġverg": 3149,
      "berg": 3150,
      "elsel": 3151,
      "ville": 3152,
      "Ġterms": 3153,
      "Ġarrang": 3154,
      "Ġcannot": 3155,
      "Ġï¿½ï¿½ï¿½ï¿½": 3156,
      "Ġmidd": 3157,
      "Ġfield": 3158,
      "ĠCan": 3159,
      "Ġstreet": 3160,
      "LS": 3161,
      "PP": 3162,
      "sy": 3163,
      "reen": 3164,
      "Ġfund": 3165,
      "opy": 3166,
      "Ġsoek": 3167,
      "ĠNovember": 3168,
      "ette": 3169,
      "ĠEnkellop": 3170,
      "Ġprevious": 3171,
      "Ġgas": 3172,
      "Ġgebeur": 3173,
      "Ġenc": 3174,
      "Ġ2008": 3175,
      "Ġfrequ": 3176,
      "Ġwall": 3177,
      "ensie": 3178,
      "vent": 3179,
      "endes": 3180,
      "ustom": 3181,
      "Ġprobeer": 3182,
      "Ġfamil": 3183,
      "Ġfut": 3184,
      "Ġstel": 3185,
      "ekte": 3186,
      "Ġnecessary": 3187,
      "jor": 3188,
      "Ġhor": 3189,
      "Ġear": 3190,
      "ilities": 3191,
      "ĠVrou": 3192,
      "Ġexc": 3193,
      "Ġstem": 3194,
      "appy": 3195,
      "ĠCal": 3196,
      "ograph": 3197,
      "ĠÙģ": 3198,
      "IB": 3199,
      "ached": 3200,
      "Ġnorm": 3201,
      "Ġheat": 3202,
      "AY": 3203,
      "hold": 3204,
      "ĠOne": 3205,
      "Ġcompos": 3206,
      "ĠQu": 3207,
      "Ġhouse": 3208,
      "Ġpet": 3209,
      "Ġdaarvan": 3210,
      "werp": 3211,
      "Ġtreatment": 3212,
      "Ġexec": 3213,
      "ables": 3214,
      "Ġdiscl": 3215,
      "tige": 3216,
      "onds": 3217,
      "Ġhydro": 3218,
      "AA": 3219,
      "IM": 3220,
      "ERS": 3221,
      "Ġvas": 3222,
      "ĠAmerican": 3223,
      "iaal": 3224,
      "ministr": 3225,
      "ĠYou": 3226,
      "Î¼": 3227,
      "ĠAN": 3228,
      "ulf": 3229,
      "Ġstart": 3230,
      "Ġmoontlik": 3231,
      "ĠSer": 3232,
      "ĠIm": 3233,
      "Ġadjust": 3234,
      "Ġraak": 3235,
      "urity": 3236,
      "Ġonline": 3237,
      "clud": 3238,
      "eal": 3239,
      "TS": 3240,
      "ows": 3241,
      "Ġsteeds": 3242,
      "Ġapparatus": 3243,
      "entral": 3244,
      "ĠTable": 3245,
      "huis": 3246,
      "AND": 3247,
      "Ġbill": 3248,
      "Ġkoop": 3249,
      "Ġcompl": 3250,
      "Ġ2009": 3251,
      "ancial": 3252,
      "ira": 3253,
      ".:": 3254,
      "Ġsoc": 3255,
      "Ġinput": 3256,
      "Ġhele": 3257,
      "Ġsolution": 3258,
      "Ġmembers": 3259,
      "Ġru": 3260,
      "Ġdefend": 3261,
      "Pro": 3262,
      "Ġtax": 3263,
      "su": 3264,
      "ĠII": 3265,
      "Ġsuccess": 3266,
      "ĠSCHOOL": 3267,
      "Ġbra": 3268,
      "Ġpraat": 3269,
      "ĠLa": 3270,
      "Ġcomple": 3271,
      "ibility": 3272,
      "Ġgedoen": 3273,
      "ester": 3274,
      "Ġdone": 3275,
      "Ġontwik": 3276,
      "ĠJune": 3277,
      "_(": 3278,
      "Ã¶": 3279,
      "Ùī": 3280,
      "Ġincrease": 3281,
      "oers": 3282,
      "ĠDepartment": 3283,
      "Ġcy": 3284,
      "Ġreeds": 3285,
      "Ġdetermined": 3286,
      "Ġmatter": 3287,
      "ĠNet": 3288,
      "ibr": 3289,
      "Ġoccur": 3290,
      "Wh": 3291,
      "ĠSE": 3292,
      "ends": 3293,
      "Ġtotal": 3294,
      "Ø©": 3295,
      "Ġpath": 3296,
      "Ġnav": 3297,
      "Ġbuild": 3298,
      "84": 3299,
      "ĠHoe": 3300,
      "Ġnooit": 3301,
      "Ġmotor": 3302,
      "utes": 3303,
      "EPEND": 3304,
      "aintiff": 3305,
      "Ġvolt": 3306,
      "gn": 3307,
      "Ġdoc": 3308,
      "elle": 3309,
      "Ġdiscuss": 3310,
      "67": 3311,
      "ians": 3312,
      "Ġcomprises": 3313,
      "iate": 3314,
      "arget": 3315,
      "ĠINDEPEND": 3316,
      "=\"": 3317,
      "saak": 3318,
      "venue": 3319,
      "OP": 3320,
      "ĠINDEPENDENT": 3321,
      "inger": 3322,
      "Ġgovernment": 3323,
      "Ã¼": 3324,
      "ished": 3325,
      "iction": 3326,
      "65": 3327,
      "onk": 3328,
      "ĠGE": 3329,
      "Ġdise": 3330,
      "Ġ33": 3331,
      "Ġmechan": 3332,
      "ashing": 3333,
      "Ġbeskik": 3334,
      "log": 3335,
      "orge": 3336,
      "Ġhart": 3337,
      "ryst": 3338,
      "Ġroom": 3339,
      "Ġconcern": 3340,
      "87": 3341,
      "uted": 3342,
      "We": 3343,
      "Ġeas": 3344,
      "ipl": 3345,
      "Ġalways": 3346,
      "asting": 3347,
      "\",": 3348,
      "Ġgep": 3349,
      "SS": 3350,
      "ipe": 3351,
      "eters": 3352,
      "aart": 3353,
      "Ġstock": 3354,
      "Ġphys": 3355,
      "ture": 3356,
      "Ġvandag": 3357,
      "ada": 3358,
      "Ġnatuur": 3359,
      "Ġtoget": 3360,
      "ĠÙĤ": 3361,
      "ĠDecember": 3362,
      "swer": 3363,
      "Î·": 3364,
      "Ġ34": 3365,
      "kl": 3366,
      "itch": 3367,
      "ses": 3368,
      "ints": 3369,
      "arde": 3370,
      "ankie": 3371,
      "Ġsix": 3372,
      "Ġlekker": 3373,
      "Ġsignificant": 3374,
      "atisf": 3375,
      "Ġadditional": 3376,
      "Ġtogether": 3377,
      "ext": 3378,
      "oort": 3379,
      "Ġcred": 3380,
      "ara": 3381,
      "que": 3382,
      "Ġmob": 3383,
      "gaan": 3384,
      "Ġrun": 3385,
      "illende": 3386,
      "Ġbetter": 3387,
      "ĠbinÃªre": 3388,
      "asionale": 3389,
      "Ex": 3390,
      "Ġmoney": 3391,
      "heer": 3392,
      "Ġeers": 3393,
      "vey": 3394,
      "itting": 3395,
      "erman": 3396,
      "Un": 3397,
      "ises": 3398,
      "Ġmess": 3399,
      "asing": 3400,
      "Ġlines": 3401,
      "teen": 3402,
      "Ġspeel": 3403,
      "Ġcontroll": 3404,
      "pa": 3405,
      "ĠâĪĴ": 3406,
      "Ġdik": 3407,
      "Ġdepend": 3408,
      "wards": 3409,
      "osis": 3410,
      "span": 3411,
      "Ġhoog": 3412,
      "fficient": 3413,
      "Ġimm": 3414,
      "ĠChar": 3415,
      "Ġaccept": 3416,
      "Im": 3417,
      "Ġsyn": 3418,
      "Ġonders": 3419,
      "Ġdam": 3420,
      "Re": 3421,
      "rok": 3422,
      "ĠMon": 3423,
      "Ġverske": 3424,
      "cil": 3425,
      "ened": 3426,
      "ores": 3427,
      "ksie": 3428,
      "Ùĥ": 3429,
      "Ġmoes": 3430,
      "pec": 3431,
      "Ġpad": 3432,
      "akel": 3433,
      "ĠNu": 3434,
      "rees": 3435,
      "Ġpast": 3436,
      "oul": 3437,
      "ĠSoek": 3438,
      "irm": 3439,
      "SP": 3440,
      "atal": 3441,
      "ederal": 3442,
      "ĠWest": 3443,
      "houd": 3444,
      "isions": 3445,
      "Ġprivate": 3446,
      "}}": 3447,
      "rad": 3448,
      "deel": 3449,
      "aker": 3450,
      "ĠLG": 3451,
      "ector": 3452,
      "Ġnor": 3453,
      "Ġkop": 3454,
      "maak": 3455,
      "Ġbelangrik": 3456,
      "Ġstad": 3457,
      "ï£": 3458,
      "ĠJe": 3459,
      "ips": 3460,
      "Ġmaking": 3461,
      "ĠStreet": 3462,
      "Ġir": 3463,
      "ĠCity": 3464,
      "Ġdate": 3465,
      "oria": 3466,
      "Ġsequ": 3467,
      "uma": 3468,
      "Ġwa": 3469,
      "Ġwords": 3470,
      "Ġsodat": 3471,
      "ĠSim": 3472,
      "Ġverander": 3473,
      "ĠVal": 3474,
      "Ġplat": 3475,
      "Ġmarket": 3476,
      "cm": 3477,
      "ators": 3478,
      "Ġlength": 3479,
      "Ġobtained": 3480,
      "vement": 3481,
      "Ġce": 3482,
      "ĠNorth": 3483,
      "ĠÎ¼": 3484,
      "Ġapplied": 3485,
      "CE": 3486,
      "cer": 3487,
      "Ġlist": 3488,
      "annes": 3489,
      "rede": 3490,
      "Ġfilter": 3491,
      "Ġmanner": 3492,
      "69": 3493,
      "ĠVideos": 3494,
      "Ġletter": 3495,
      "64": 3496,
      "Ġang": 3497,
      "Ġmanier": 3498,
      "Ġperformed": 3499,
      "ĠGeneral": 3500,
      "rect": 3501,
      "Ġep": 3502,
      "Ġstrateg": 3503,
      "Ġnad": 3504,
      "ĠPe": 3505,
      "verage": 3506,
      "apt": 3507,
      "Ġseen": 3508,
      "Ġjong": 3509,
      "Ġselected": 3510,
      "Ġox": 3511,
      "Ġplant": 3512,
      "Ġconfigured": 3513,
      "lying": 3514,
      "Ġsystems": 3515,
      "72": 3516,
      "Fig": 3517,
      "ties": 3518,
      "Ġlank": 3519,
      "itten": 3520,
      "Ġswart": 3521,
      ".'": 3522,
      "gress": 3523,
      "ober": 3524,
      "Ġsin": 3525,
      "Ġbook": 3526,
      "Ġgevolg": 3527,
      "Ġothers": 3528,
      "Ġentire": 3529,
      "Ġconnection": 3530,
      "ains": 3531,
      "Ġdiag": 3532,
      "ae": 3533,
      "men": 3534,
      "oman": 3535,
      "uration": 3536,
      "2019": 3537,
      "ST": 3538,
      "ications": 3539,
      "Ġsoft": 3540,
      "ĠMeisies": 3541,
      "--------": 3542,
      "ĨĴ": 3543,
      "anks": 3544,
      "Ġpp": 3545,
      "eland": 3546,
      "Ġtown": 3547,
      "obs": 3548,
      "Ġverskillende": 3549,
      "ĠFigure": 3550,
      "pri": 3551,
      "Ġaans": 3552,
      "woon": 3553,
      "ĠGratis": 3554,
      "oos": 3555,
      "Ġcommunication": 3556,
      "Ġsumm": 3557,
      "Ġpurpose": 3558,
      "uig": 3559,
      "Ġforce": 3560,
      "Ġexpect": 3561,
      "ĠAflaai": 3562,
      "cal": 3563,
      "Ġstra": 3564,
      "Ġdeb": 3565,
      "mark": 3566,
      "Ġspring": 3567,
      "Ġservices": 3568,
      "Ġpurch": 3569,
      "##": 3570,
      "ĠÂ§": 3571,
      "Ġmedia": 3572,
      "Ġmillion": 3573,
      "ĠOffice": 3574,
      "Ġcourse": 3575,
      "Ġ45": 3576,
      "Ġhimself": 3577,
      "conom": 3578,
      "iere": 3579,
      "ooi": 3580,
      "rac": 3581,
      "dra": 3582,
      "Ġ00": 3583,
      "Ġ120": 3584,
      "Ġlyk": 3585,
      "Ġ42": 3586,
      "ronic": 3587,
      "Ġshows": 3588,
      "Ġimportant": 3589,
      "Ġ]": 3590,
      "Ġlik": 3591,
      "Ġhttp": 3592,
      "UN": 3593,
      "ches": 3594,
      "imum": 3595,
      "ĠNot": 3596,
      "Ġeval": 3597,
      "Ġpattern": 3598,
      "ryk": 3599,
      "Ġtrial": 3600,
      "Ġ000": 3601,
      "igte": 3602,
      "ATION": 3603,
      "likes": 3604,
      "set": 3605,
      "ana": 3606,
      "that": 3607,
      "Ġdecl": 3608,
      "illed": 3609,
      "Ġsubstant": 3610,
      "Ġlimited": 3611,
      "Ġvorm": 3612,
      "stad": 3613,
      "Ġcompany": 3614,
      "Ġ80": 3615,
      "Ġwar": 3616,
      "Ġkerk": 3617,
      "ench": 3618,
      "ĠPre": 3619,
      "ained": 3620,
      "back": 3621,
      "Ġkos": 3622,
      "Ġfilm": 3623,
      "ĠPaul": 3624,
      "\":\"": 3625,
      "ĠTO": 3626,
      "ĠWhat": 3627,
      "Ġdog": 3628,
      "itation": 3629,
      "Ġkort": 3630,
      "Ġdirection": 3631,
      "Ġveil": 3632,
      "Ġpas": 3633,
      "Ġfix": 3634,
      "umn": 3635,
      "Ġbuy": 3636,
      "ethyl": 3637,
      "Ġskryf": 3638,
      "Ġable": 3639,
      "more": 3640,
      "ĠRec": 3641,
      "rim": 3642,
      "Ġaud": 3643,
      "Ġlat": 3644,
      "Ġdevices": 3645,
      "Ġweight": 3646,
      "isl": 3647,
      "Ġrek": 3648,
      "Sk": 3649,
      "Ġchanges": 3650,
      "Ġbeter": 3651,
      "Ġschool": 3652,
      "awe": 3653,
      "Ġbal": 3654,
      "This": 3655,
      "uth": 3656,
      "Ġimpl": 3657,
      "steun": 3658,
      "Ġmach": 3659,
      "ique": 3660,
      "Ġveh": 3661,
      "atures": 3662,
      "Ġask": 3663,
      "istic": 3664,
      "Ġnotice": 3665,
      "ussy": 3666,
      "ĠFOR": 3667,
      "Ġligg": 3668,
      "most": 3669,
      "keÃ¢": 3670,
      "Ġprefer": 3671,
      "Ġgenerally": 3672,
      "Ġcomposition": 3673,
      "Ġsays": 3674,
      "ĠHealth": 3675,
      "Ġcollect": 3676,
      "atively": 3677,
      "Ġrange": 3678,
      "BS": 3679,
      "ĠFin": 3680,
      "Ġgroep": 3681,
      "Ġdalk": 3682,
      "isk": 3683,
      "Ġfive": 3684,
      "Ġfile": 3685,
      "ĠLond": 3686,
      "aj": 3687,
      "Ġvier": 3688,
      "Ġdepos": 3689,
      "Ġrelated": 3690,
      "hal": 3691,
      "ided": 3692,
      "ĠAdvertensies": 3693,
      "Ġoften": 3694,
      "ietjie": 3695,
      "Ġacqu": 3696,
      "ford": 3697,
      "Ġwys": 3698,
      "ĠNie": 3699,
      "Ġveral": 3700,
      "Ġaccord": 3701,
      "Ġprocessing": 3702,
      "................................": 3703,
      "rew": 3704,
      "ĠSat": 3705,
      "Ġcorresponding": 3706,
      "Ð¾": 3707,
      "Ġcheck": 3708,
      "ried": 3709,
      "Ġconstit": 3710,
      "Ġmonths": 3711,
      "Ġdae": 3712,
      "Ġconsidered": 3713,
      "tion": 3714,
      "Ġbewe": 3715,
      "Ġkeep": 3716,
      "Ġopsie": 3717,
      "ģĦ": 3718,
      "ush": 3719,
      "Ġarm": 3720,
      "ĠYE": 3721,
      "bon": 3722,
      "Ġcut": 3723,
      "irt": 3724,
      "une": 3725,
      "Ġresponse": 3726,
      "Ġontvang": 3727,
      "Ġbasis": 3728,
      "Ġarticle": 3729,
      "akers": 3730,
      "ĠKing": 3731,
      "Ġoop": 3732,
      "Ġlarg": 3733,
      "Ġrecogn": 3734,
      "Ġintrodu": 3735,
      "Ġspecial": 3736,
      "OC": 3737,
      "Ġfront": 3738,
      "68": 3739,
      "Ġdest": 3740,
      "Daar": 3741,
      "TH": 3742,
      "ĠAc": 3743,
      "Ġdepart": 3744,
      "ecting": 3745,
      "eerde": 3746,
      "ÏĤ": 3747,
      "iles": 3748,
      "Ġquant": 3749,
      "see": 3750,
      "Ġvertel": 3751,
      "amin": 3752,
      "Ġthereof": 3753,
      "Ġage": 3754,
      "ĠMarch": 3755,
      "right": 3756,
      "likheid": 3757,
      "ipal": 3758,
      "ml": 3759,
      "ny": 3760,
      "ĠFR": 3761,
      "Ġnaam": 3762,
      "61": 3763,
      "Ar": 3764,
      "now": 3765,
      "ika": 3766,
      "ĠHom": 3767,
      "Ġverstaan": 3768,
      "Ġintegr": 3769,
      "osure": 3770,
      "Ġ90": 3771,
      "Ġsugg": 3772,
      "Ġresearch": 3773,
      "Ġparts": 3774,
      "Ġincluded": 3775,
      "Ġrespons": 3776,
      "Ġonce": 3777,
      "Ġintern": 3778,
      "ufact": 3779,
      "Ġplaintiff": 3780,
      "Ġstrong": 3781,
      "63": 3782,
      "hand": 3783,
      "lin": 3784,
      "Ġsem": 3785,
      "Ġyoung": 3786,
      "Ġgrant": 3787,
      "ĠPark": 3788,
      "Ġmethods": 3789,
      "Ġfav": 3790,
      "ternal": 3791,
      "Ġreported": 3792,
      "Ġaway": 3793,
      "Ġhol": 3794,
      "ills": 3795,
      "Ġrelative": 3796,
      "âĤ¬": 3797,
      "text": 3798,
      "Ġ2007": 3799,
      "ĠAM": 3800,
      "thern": 3801,
      "Ġelements": 3802,
      "Ġadded": 3803,
      "Ġwaarde": 3804,
      "Ġhigher": 3805,
      "orp": 3806,
      "ĠMal": 3807,
      "thing": 3808,
      "Ġfuture": 3809,
      "Ġstudies": 3810,
      "uele": 3811,
      "ilt": 3812,
      "enheid": 3813,
      "Ġsatisf": 3814,
      "Ġwoorde": 3815,
      "Ġsett": 3816,
      "Ø¨ÙĬ": 3817,
      "Ġconcentr": 3818,
      "Ġtrue": 3819,
      "ĠMilf": 3820,
      "Ġsold": 3821,
      "mathb": 3822,
      "Ġerv": 3823,
      "ĠBor": 3824,
      "bet": 3825,
      "ds": 3826,
      "vl": 3827,
      "orpor": 3828,
      "iste": 3829,
      "Ġnature": 3830,
      "ĠJac": 3831,
      "Ġparticip": 3832,
      "yle": 3833,
      "Ġgir": 3834,
      "rak": 3835,
      "ĠInter": 3836,
      "ublished": 3837,
      "Ġerror": 3838,
      "Ġbekend": 3839,
      "wels": 3840,
      "ÃŃ": 3841,
      "Ġster": 3842,
      "Ġmeeste": 3843,
      "Ġfamily": 3844,
      "Ġbinne": 3845,
      "unction": 3846,
      "ĠInt": 3847,
      "ready": 3848,
      "62": 3849,
      "ologie": 3850,
      "Ġreceive": 3851,
      "Ġmekaar": 3852,
      "Ġ70": 3853,
      "rought": 3854,
      "Ġ**": 3855,
      "Ġmaintain": 3856,
      "Ġanders": 3857,
      "Ġblack": 3858,
      "Ġdevelopment": 3859,
      "empl": 3860,
      "ects": 3861,
      "Ġincreased": 3862,
      "Ġcomponents": 3863,
      "wood": 3864,
      "Ġnight": 3865,
      "Ġsow": 3866,
      "Ġupper": 3867,
      "ĠHigh": 3868,
      "ĠHood": 3869,
      "Ġmooi": 3870,
      "ennis": 3871,
      "Ġlocation": 3872,
      "iatiese": 3873,
      "iment": 3874,
      "ĠEX": 3875,
      "Ġdefined": 3876,
      "Ġcapac": 3877,
      "Ġliefde": 3878,
      "Ġfall": 3879,
      "Ġ41": 3880,
      "ĠÂ«": 3881,
      "ĠBlack": 3882,
      "Ġband": 3883,
      "ĠTR": 3884,
      "Ġprys": 3885,
      "Ġcosts": 3886,
      "ising": 3887,
      "Ġcame": 3888,
      "istance": 3889,
      "Ġwer": 3890,
      "Ġanswer": 3891,
      "rax": 3892,
      "ula": 3893,
      "UM": 3894,
      "pers": 3895,
      "Ùģ": 3896,
      "ored": 3897,
      "Ġbere": 3898,
      "utions": 3899,
      "Ġstation": 3900,
      "ogen": 3901,
      "ĠÂ±": 3902,
      "aft": 3903,
      "Ġvoltage": 3904,
      "Ġbew": 3905,
      "empt": 3906,
      "osph": 3907,
      "ags": 3908,
      "Ġprice": 3909,
      "Ġplate": 3910,
      "ĠThus": 3911,
      "Ġ2005": 3912,
      "Ġissue": 3913,
      "Ġvroue": 3914,
      "ĠSoc": 3915,
      "water": 3916,
      "ĠJournal": 3917,
      "Ġrol": 3918,
      "ĠAfrikaans": 3919,
      "jaar": 3920,
      "Ġdro": 3921,
      "Ġbietjie": 3922,
      "uses": 3923,
      "olution": 3924,
      "based": 3925,
      "ĠStr": 3926,
      "Ġliqu": 3927,
      "Ġ44": 3928,
      "Ġmaklik": 3929,
      "Ġviol": 3930,
      "Ġtydens": 3931,
      "ĠUniversity": 3932,
      "Ġvinn": 3933,
      "irit": 3934,
      "akk": 3935,
      "ested": 3936,
      "Ġporno": 3937,
      "Ġtarget": 3938,
      "Ġniks": 3939,
      "ĠAfter": 3940,
      "iw": 3941,
      "ĠLou": 3942,
      "Ġvoort": 3943,
      "Ġrelations": 3944,
      "Ã¨": 3945,
      "Ġaltern": 3946,
      "âĢĿ.": 3947,
      "Ġassembly": 3948,
      "Ġsluit": 3949,
      "ĠEnglish": 3950,
      "ĠAL": 3951,
      "oper": 3952,
      "Ġ38": 3953,
      "gene": 3954,
      "Î»": 3955,
      "ĠWil": 3956,
      "Ġsym": 3957,
      "ĠÂ£": 3958,
      "oogle": 3959,
      "%,": 3960,
      "iation": 3961,
      "mod": 3962,
      "edia": 3963,
      "rying": 3964,
      "Ïī": 3965,
      "Ġlearning": 3966,
      "och": 3967,
      "Ġcustom": 3968,
      "Ġrisk": 3969,
      "Ġcomponent": 3970,
      "ĠGovernment": 3971,
      "Ø«": 3972,
      "lu": 3973,
      "ming": 3974,
      "enz": 3975,
      "Ġfig": 3976,
      "ĠSal": 3977,
      "elyk": 3978,
      "Ġtu": 3979,
      "ories": 3980,
      "kamer": 3981,
      "oep": 3982,
      "Ġ`": 3983,
      "ĠRE": 3984,
      "Wat": 3985,
      "Ġap": 3986,
      "Ġfa": 3987,
      "Ġthings": 3988,
      "ĠPM": 3989,
      "ĠBybel": 3990,
      "Ġduid": 3991,
      "ĠNational": 3992,
      "Ġdeath": 3993,
      "aces": 3994,
      "loop": 3995,
      "Ġinsert": 3996,
      "bor": 3997,
      "mon": 3998,
      "Ġmicro": 3999,
      "Ġcyl": 4000,
      "Ġcharge": 4001,
      "Ġoperations": 4002,
      "Ġmilj": 4003,
      "AG": 4004,
      "Ġmajor": 4005,
      "Ġfinancial": 4006,
      "vels": 4007,
      "Ġwire": 4008,
      "change": 4009,
      "ĠLi": 4010,
      "ift": 4011,
      "where": 4012,
      "Ġmaatsk": 4013,
      "Ġcoll": 4014,
      "Ġbetaal": 4015,
      "field": 4016,
      "Ġwoord": 4017,
      "Ġdep": 4018,
      "Ġsitu": 4019,
      "nd": 4020,
      "ĠHol": 4021,
      "Ġ54": 4022,
      "bar": 4023,
      "Ġnm": 4024,
      "acc": 4025,
      "ACK": 4026,
      "ĠServ": 4027,
      "Ġvanaf": 4028,
      "wise": 4029,
      "ĠJap": 4030,
      "annel": 4031,
      "Ġinvestig": 4032,
      "Ġmotion": 4033,
      "ĠLet": 4034,
      "Ġprec": 4035,
      "ledge": 4036,
      "akt": 4037,
      "ĠON": 4038,
      "Ġvoord": 4039,
      "ched": 4040,
      "Ġfoto": 4041,
      "Ġhous": 4042,
      "ĠAT": 4043,
      "ĠFrom": 4044,
      "Ġalready": 4045,
      "ĠInc": 4046,
      "Ġ51": 4047,
      "Ġcode": 4048,
      "gor": 4049,
      "ĠSP": 4050,
      "Ġpolicy": 4051,
      "For": 4052,
      "igned": 4053,
      "ĠâĤ¬": 4054,
      "uage": 4055,
      "Ġtel": 4056,
      "roue": 4057,
      "ĠAre": 4058,
      "Ġgreater": 4059,
      "ĠOctober": 4060,
      "atives": 4061,
      "ÙĦÙĬ": 4062,
      "ini": 4063,
      "Ġbuit": 4064,
      "ĠPret": 4065,
      "oft": 4066,
      "mee": 4067,
      "Ġkrag": 4068,
      "âĪĤ": 4069,
      "Ġbecome": 4070,
      "Ġaccordance": 4071,
      "Ver": 4072,
      "{\\": 4073,
      "ites": 4074,
      "ĠThen": 4075,
      "500": 4076,
      "Ġsus": 4077,
      "https": 4078,
      "vant": 4079,
      "eterm": 4080,
      "ĠWor": 4081,
      "bre": 4082,
      "}$": 4083,
      "ĠMod": 4084,
      "Ġdiffic": 4085,
      "Ġwrit": 4086,
      "Ġ110": 4087,
      "Ġbesluit": 4088,
      "eding": 4089,
      "Ġlock": 4090,
      "Ïĥ": 4091,
      "erde": 4092,
      "Ġwomen": 4093,
      "ĠHis": 4094,
      "Ġoriginal": 4095,
      "OW": 4096,
      "cing": 4097,
      "Ġcrit": 4098,
      "Ġrand": 4099,
      "Ġinflu": 4100,
      "gestel": 4101,
      "Ġwhose": 4102,
      "ĠØŃ": 4103,
      "Ġeffects": 4104,
      "Ġhours": 4105,
      "Ġproduction": 4106,
      "Ġcounty": 4107,
      "wers": 4108,
      "ords": 4109,
      "ĠVig": 4110,
      "Ġoptim": 4111,
      "Ġwritten": 4112,
      "Om": 4113,
      "gek": 4114,
      "Ġonderwys": 4115,
      "aries": 4116,
      "amber": 4117,
      "ĠÙĬ": 4118,
      "Ġexpression": 4119,
      "%)": 4120,
      "ym": 4121,
      "Â¬": 4122,
      "isme": 4123,
      "Op": 4124,
      "esp": 4125,
      "ĠPort": 4126,
      "vis": 4127,
      "Ġaround": 4128,
      "Ġtoek": 4129,
      "Ġmoeil": 4130,
      "best": 4131,
      "lies": 4132,
      "ran": 4133,
      "âĸł": 4134,
      "sec": 4135,
      "ĠAfspraak": 4136,
      "ĠÙĤØ§ÙĦ": 4137,
      "Ġlos": 4138,
      "Ġinternal": 4139,
      "Ð¸": 4140,
      "Ġparam": 4141,
      "book": 4142,
      "ĠBank": 4143,
      "ĠWal": 4144,
      "airs": 4145,
      "ĠNat": 4146,
      "Ġproced": 4147,
      "Ġpatient": 4148,
      "inf": 4149,
      "omas": 4150,
      "Ġfollows": 4151,
      "Ġfinal": 4152,
      "Ġchat": 4153,
      "ĠStud": 4154,
      "ref": 4155,
      "Ġkant": 4156,
      "ht": 4157,
      "Ġdien": 4158,
      "ĠAir": 4159,
      "term": 4160,
      "Ġrat": 4161,
      "istics": 4162,
      "Ġregte": 4163,
      "Ġcalcul": 4164,
      "Ġdoll": 4165,
      "Ġ37": 4166,
      "Ġprevent": 4167,
      "Ġdisease": 4168,
      "Ġ52": 4169,
      "Ġdefin": 4170,
      "aa": 4171,
      "Ġwed": 4172,
      "Ġbad": 4173,
      "ĠMo": 4174,
      "Ġdetermine": 4175,
      "Ġactivity": 4176,
      "Ġaandele": 4177,
      "band": 4178,
      "rip": 4179,
      "Ġproblem": 4180,
      "mathbf": 4181,
      "bs": 4182,
      "yes": 4183,
      "Ġthing": 4184,
      "ĠAut": 4185,
      "aged": 4186,
      "Ġaspect": 4187,
      "tein": 4188,
      "thou": 4189,
      "ĠRed": 4190,
      "standing": 4191,
      "Ġpaid": 4192,
      "enty": 4193,
      "Ġstap": 4194,
      "section": 4195,
      "Ġagent": 4196,
      "Ġnadat": 4197,
      "ional": 4198,
      "Ġnam": 4199,
      "Ġsterk": 4200,
      "inding": 4201,
      "Ġproducts": 4202,
      "Image": 4203,
      "',": 4204,
      "Ġ01": 4205,
      "Ġhon": 4206,
      "ĠCons": 4207,
      "ivery": 4208,
      "Ġprem": 4209,
      "Ġmessage": 4210,
      "actions": 4211,
      "comm": 4212,
      "âģĦ": 4213,
      "unst": 4214,
      "ĠâĢĺâĢĺ": 4215,
      "Ġmedium": 4216,
      "Ġequal": 4217,
      "oste": 4218,
      "Ġpie": 4219,
      "Ġfood": 4220,
      "Ġje": 4221,
      "uits": 4222,
      "ĠDist": 4223,
      "chie": 4224,
      "Ġlead": 4225,
      "Ġadm": 4226,
      "Ġlewens": 4227,
      "SD": 4228,
      "iging": 4229,
      "ĠTr": 4230,
      "Ġdoel": 4231,
      "Ġchildren": 4232,
      "trans": 4233,
      "Ġinner": 4234,
      "ĠJud": 4235,
      "Ġcolle": 4236,
      "Dis": 4237,
      "Ġfeet": 4238,
      "Ġthought": 4239,
      "Ġbeskikbaar": 4240,
      "Ġnothing": 4241,
      "Ġminder": 4242,
      "MS": 4243,
      "Ġmind": 4244,
      "olle": 4245,
      "Ġquality": 4246,
      "produ": 4247,
      "101": 4248,
      "Ġstaat": 4249,
      "ĠAugustus": 4250,
      "Ġpage": 4251,
      "Ġkey": 4252,
      "ĠJohannes": 4253,
      "uer": 4254,
      "uld": 4255,
      "Ġradi": 4256,
      "Ġinstit": 4257,
      "Ġverkoop": 4258,
      "Ġchem": 4259,
      "ĠBel": 4260,
      "Ġondersteun": 4261,
      "Ġrespectively": 4262,
      "Ġbound": 4263,
      "Ġpan": 4264,
      "Ġfem": 4265,
      "Ġgay": 4266,
      "ĠDOE": 4267,
      "Ġwhom": 4268,
      "Ġobserved": 4269,
      "ĠVrouens": 4270,
      "Ðµ": 4271,
      "Ġdut": 4272,
      "ĠSub": 4273,
      "irect": 4274,
      "Ġactive": 4275,
      "rm": 4276,
      "ÈĽ": 4277,
      "Ġbestaan": 4278,
      "Ġcarried": 4279,
      "Ġmonitor": 4280,
      "tra": 4281,
      "},": 4282,
      "ĠDev": 4283,
      "Ġund": 4284,
      "Ġversion": 4285,
      "Ġaverage": 4286,
      "Ġpen": 4287,
      "Ġtook": 4288,
      "stelling": 4289,
      "ĠCle": 4290,
      "ikel": 4291,
      "Ġproposed": 4292,
      "ĠLes": 4293,
      "gewing": 4294,
      "lace": 4295,
      "Ġpow": 4296,
      "Ġ2000": 4297,
      "Afrikaanse": 4298,
      "uous": 4299,
      "Ġtool": 4300,
      "Ġmetal": 4301,
      "Ġ08": 4302,
      "ESS": 4303,
      "ĠChristus": 4304,
      "wa": 4305,
      "anch": 4306,
      "ĠMag": 4307,
      "Ġ2004": 4308,
      "Ġsites": 4309,
      "fully": 4310,
      "Ġmultiple": 4311,
      "ĠCounty": 4312,
      "Ġslaap": 4313,
      "Ġeet": 4314,
      "Ġgoing": 4315,
      "Ġeffective": 4316,
      "eu": 4317,
      "nes": 4318,
      "Ġproceed": 4319,
      "ache": 4320,
      "weet": 4321,
      "oekom": 4322,
      "ÙĦÙħ": 4323,
      "ØŃÙħ": 4324,
      "Ġbrought": 4325,
      "Ġhot": 4326,
      "Ġlot": 4327,
      "Ġhem": 4328,
      "Ġrather": 4329,
      "eph": 4330,
      "Mr": 4331,
      "kto": 4332,
      "ils": 4333,
      "ĠDi": 4334,
      "Ġgenoeg": 4335,
      "Ġcommand": 4336,
      "selves": 4337,
      "AK": 4338,
      "Ġeinde": 4339,
      "Ġwaste": 4340,
      "Ġ55": 4341,
      "Ġbesoek": 4342,
      "Ġpatients": 4343,
      "aard": 4344,
      "FR": 4345,
      "pel": 4346,
      "Ġrig": 4347,
      "Ġjare": 4348,
      "Ġoffice": 4349,
      "ĠEnkellopendes": 4350,
      "ĠFurther": 4351,
      "ĠGl": 4352,
      "umber": 4353,
      "Ġsubm": 4354,
      "ĠJanuary": 4355,
      "link": 4356,
      "inks": 4357,
      "Ġdeep": 4358,
      "iete": 4359,
      "Ġmode": 4360,
      "Ġslegs": 4361,
      "ald": 4362,
      "Ġcharg": 4363,
      "Ġstatus": 4364,
      "Ġimpact": 4365,
      "ners": 4366,
      "side": 4367,
      "Ġadop": 4368,
      "spec": 4369,
      "Ġpurposes": 4370,
      "ÃĻee": 4371,
      "Ġaange": 4372,
      "Ġjudgment": 4373,
      "Hy": 4374,
      "ĠOR": 4375,
      "attle": 4376,
      "Ġpotential": 4377,
      "bit": 4378,
      "iated": 4379,
      "Ġexcept": 4380,
      "Ã«n": 4381,
      "plek": 4382,
      "Ġclamp": 4383,
      "Ġappropri": 4384,
      "Ġstandard": 4385,
      "Ġvehicle": 4386,
      "Ġfire": 4387,
      "oodskap": 4388,
      "ktober": 4389,
      "Cl": 4390,
      "Ġwent": 4391,
      "Ġcm": 4392,
      "ĠTer": 4393,
      "ĠIS": 4394,
      "ĠChem": 4395,
      "ĠDav": 4396,
      "Ġprot": 4397,
      "ondu": 4398,
      "ĠâĪĪ": 4399,
      "BL": 4400,
      "Ġvriend": 4401,
      "Ġface": 4402,
      "ĠMore": 4403,
      "Ġ65": 4404,
      "Ġdiss": 4405,
      "Ġplaced": 4406,
      "Ġplatform": 4407,
      "Ġfarm": 4408,
      "ĠEU": 4409,
      "Ġclose": 4410,
      "ĠâĨĴ": 4411,
      "ĠPresident": 4412,
      "Ġdefendant": 4413,
      "Ġrekening": 4414,
      "My": 4415,
      "Ġfiled": 4416,
      "Ġmeeting": 4417,
      "Hoe": 4418,
      "Ġsample": 4419,
      "ĠMark": 4420,
      "Ġrefer": 4421,
      "ulated": 4422,
      "issions": 4423,
      "Ġâĸł": 4424,
      "Ġbuite": 4425,
      "Ġmilf": 4426,
      "ellings": 4427,
      "Ġdesired": 4428,
      "Ġcorrect": 4429,
      "itz": 4430,
      "ico": 4431,
      "Ġheart": 4432,
      "Ġsure": 4433,
      "Ġliggaam": 4434,
      "Ġwou": 4435,
      "rec": 4436,
      "ĠUp": 4437,
      "Ġperformance": 4438,
      "ĠKaap": 4439,
      "Ġexam": 4440,
      "Ġunivers": 4441,
      "ught": 4442,
      "Ġbestuur": 4443,
      "sis": 4444,
      "Ġken": 4445,
      "ounts": 4446,
      "Ã©s": 4447,
      "fort": 4448,
      "gra": 4449,
      "Ġord": 4450,
      "orning": 4451,
      "Amateur": 4452,
      "sub": 4453,
      "Å¡": 4454,
      "ĠTH": 4455,
      "unity": 4456,
      "agement": 4457,
      "ady": 4458,
      "Ġsoon": 4459,
      "ommige": 4460,
      "Ġcoupl": 4461,
      "PS": 4462,
      "ÑĤ": 4463,
      "ffer": 4464,
      "Ġauthority": 4465,
      "Ġframe": 4466,
      "Ġliquid": 4467,
      "TA": 4468,
      "wat": 4469,
      "enb": 4470,
      "iques": 4471,
      "ersk": 4472,
      "Ġalgem": 4473,
      "Ġclean": 4474,
      "ĠPersoonlikes": 4475,
      "Ġteach": 4476,
      "ĠUE": 4477,
      "erve": 4478,
      "ĠSir": 4479,
      "Ġ39": 4480,
      "Ġsufficient": 4481,
      "athroom": 4482,
      "De": 4483,
      "entle": 4484,
      "ĠBra": 4485,
      "ests": 4486,
      "Ġtrade": 4487,
      "kses": 4488,
      "Ġconsum": 4489,
      "He": 4490,
      "Ġrond": 4491,
      "Ġtransfer": 4492,
      "Ġbrand": 4493,
      "Ġprepared": 4494,
      "pid": 4495,
      "Ġhost": 4496,
      "Ġlocated": 4497,
      "ÏĢ": 4498,
      "Ġfactors": 4499,
      "ĠResearch": 4500,
      "Post": 4501,
      "Ġmans": 4502,
      "ĠRiver": 4503,
      "à¸": 4504,
      "Ġhar": 4505,
      "Ġgate": 4506,
      "Ġ92": 4507,
      "ĠLondon": 4508,
      "pan": 4509,
      "uil": 4510,
      "Ġrepl": 4511,
      "ĠPost": 4512,
      "ĠFil": 4513,
      "Ġprovides": 4514,
      "Ġadvant": 4515,
      "'d": 4516,
      "arily": 4517,
      "Ġther": 4518,
      "ryd": 4519,
      "plan": 4520,
      "ECTION": 4521,
      "ĠAfrica": 4522,
      "Ġwag": 4523,
      "Ġminute": 4524,
      "Ġcontaining": 4525,
      "Ġagreement": 4526,
      "Ġinsp": 4527,
      "charge": 4528,
      "adem": 4529,
      "Ġblood": 4530,
      "Ġboard": 4531,
      "ĠÏĦ": 4532,
      "ï£¿": 4533,
      "ĠEN": 4534,
      "Ġgrow": 4535,
      "Ġverskeie": 4536,
      "Ġlive": 4537,
      "from": 4538,
      "pat": 4539,
      "Ġmaande": 4540,
      "ĠCong": 4541,
      "ashington": 4542,
      "Ġwid": 4543,
      "ĠPL": 4544,
      "Ġseries": 4545,
      "Ġinform": 4546,
      "etic": 4547,
      "Ġverder": 4548,
      "Ġspace": 4549,
      "Ġcompared": 4550,
      "olf": 4551,
      "Ġheav": 4552,
      "organ": 4553,
      "ĠSwart": 4554,
      "Ġfair": 4555,
      "erse": 4556,
      "Ġforward": 4557,
      "Ġitself": 4558,
      "ukkig": 4559,
      "itude": 4560,
      "Ġgold": 4561,
      "frikan": 4562,
      "CD": 4563,
      "Ġ??": 4564,
      "Ġ53": 4565,
      "eration": 4566,
      "Ġdivid": 4567,
      "Ġwoon": 4568,
      "Ġtweede": 4569,
      "Ġcircum": 4570,
      "Ġforth": 4571,
      "Ġprint": 4572,
      "Ġvolume": 4573,
      "Ġcombination": 4574,
      "Ġontwikkel": 4575,
      "gorith": 4576,
      "rum": 4577,
      "âĢĭ": 4578,
      "ĠPR": 4579,
      "Ġalmost": 4580,
      "Ġareas": 4581,
      "Ġtit": 4582,
      "Ġmes": 4583,
      "Ġcomplex": 4584,
      "Ġpetition": 4585,
      "kn": 4586,
      "wor": 4587,
      "Ġdok": 4588,
      "ĠNor": 4589,
      "Ġroad": 4590,
      "Ġpolisie": 4591,
      "Ġdocument": 4592,
      "Ġvoors": 4593,
      "Ġmachine": 4594,
      "EW": 4595,
      "Ġenig": 4596,
      "ĠCD": 4597,
      "Ġ2003": 4598,
      "Ġpresented": 4599,
      "Ġcredit": 4600,
      "OO": 4601,
      "bou": 4602,
      "dis": 4603,
      "hanc": 4604,
      "Ġjo": 4605,
      "astic": 4606,
      "Ġvoorraad": 4607,
      "houding": 4608,
      "Ġclear": 4609,
      "BB": 4610,
      "\\/": 4611,
      "gl": 4612,
      "ero": 4613,
      "Ġmor": 4614,
      "Ġspan": 4615,
      "iteite": 4616,
      "Ġpersons": 4617,
      "Ġhoor": 4618,
      "ĠCON": 4619,
      "Ġnucle": 4620,
      "Ġdikwels": 4621,
      "pass": 4622,
      "Ġaant": 4623,
      "stige": 4624,
      "ĠPublic": 4625,
      "Ġ500": 4626,
      "Ġbesig": 4627,
      "ĠOnline": 4628,
      "Ġinvest": 4629,
      "ĠEuropean": 4630,
      "Ġduidelik": 4631,
      "Ġachie": 4632,
      "Ġoud": 4633,
      "Ġhoop": 4634,
      "Ġbep": 4635,
      "ĠEr": 4636,
      "ĠMeisie": 4637,
      "Ġexist": 4638,
      "heids": 4639,
      "Ġtransport": 4640,
      "Ġmedical": 4641,
      "Ġtim": 4642,
      "Ġol": 4643,
      "esÃ¢": 4644,
      "urt": 4645,
      "ivity": 4646,
      "pendent": 4647,
      "ifying": 4648,
      "Ġeconom": 4649,
      "âĢĲ": 4650,
      "raction": 4651,
      "Ġwhite": 4652,
      "ustral": 4653,
      "Ġmid": 4654,
      "Ġmention": 4655,
      "ĠKan": 4656,
      "Ġserver": 4657,
      "onn": 4658,
      "onstr": 4659,
      "Ġveel": 4660,
      "Ġstack": 4661,
      "âĢĿ,": 4662,
      "ĠStat": 4663,
      "stead": 4664,
      "Ġreceiving": 4665,
      "Ġbelieve": 4666,
      ")-": 4667,
      "antwoord": 4668,
      "Ġcolumn": 4669,
      "Ġanaly": 4670,
      "comp": 4671,
      "Ġ101": 4672,
      "ĠAC": 4673,
      "ething": 4674,
      "</": 4675,
      "AIL": 4676,
      "rical": 4677,
      "Ġtitle": 4678,
      "oue": 4679,
      "anning": 4680,
      "ĠFrank": 4681,
      "bro": 4682,
      "Î³": 4683,
      "under": 4684,
      "Ġ2006": 4685,
      "Ġondersoek": 4686,
      "ja": 4687,
      "Ġtub": 4688,
      "Ġakt": 4689,
      "ulating": 4690,
      "aging": 4691,
      "Ġdiens": 4692,
      "alm": 4693,
      "Ġdelivery": 4694,
      "Ġdecre": 4695,
      "Ġworks": 4696,
      "bers": 4697,
      "date": 4698,
      "iner": 4699,
      "Ġbab": 4700,
      "ĠSL": 4701,
      "ĠGra": 4702,
      "Ġ57": 4703,
      "Ġprotect": 4704,
      "diesel": 4705,
      "Ġhulp": 4706,
      "verse": 4707,
      "Ġrelationship": 4708,
      "car": 4709,
      "Ġgeword": 4710,
      "ĠSystem": 4711,
      "Me": 4712,
      "boek": 4713,
      "lec": 4714,
      "Ġthick": 4715,
      "Ġopening": 4716,
      "Ġnatural": 4717,
      "IA": 4718,
      "ongs": 4719,
      "iedenis": 4720,
      "Ġoors": 4721,
      "Ġwaarsk": 4722,
      "yp": 4723,
      "Ġbond": 4724,
      "Ġfine": 4725,
      "ĠSpr": 4726,
      "undred": 4727,
      "Ġrail": 4728,
      "Ġkies": 4729,
      "ĠEst": 4730,
      "Ġ300": 4731,
      "Ġexamples": 4732,
      "Ġleef": 4733,
      "Ġii": 4734,
      "ÈĽie": 4735,
      "Îº": 4736,
      "Ġess": 4737,
      "Ġearly": 4738,
      "ĠDo": 4739,
      "Ġautom": 4740,
      "uw": 4741,
      "plex": 4742,
      "Ġestablish": 4743,
      "ĠDown": 4744,
      "Ġgegee": 4745,
      "Ġ49": 4746,
      "ĠØ¥": 4747,
      "Ġappoint": 4748,
      "Ġmakes": 4749,
      "Ġmobile": 4750,
      "ares": 4751,
      "ĠCent": 4752,
      "Ġoppos": 4753,
      "Ġbelegg": 4754,
      "Ġliter": 4755,
      "Ġbearing": 4756,
      "cs": 4757,
      "Ġtrek": 4758,
      "ita": 4759,
      "iring": 4760,
      "Ġlegisl": 4761,
      "voorbeeld": 4762,
      "Jy": 4763,
      "ĠItal": 4764,
      "ARD": 4765,
      "bt": 4766,
      "Ġdruk": 4767,
      "ĠSol": 4768,
      "ĠHen": 4769,
      "gemaak": 4770,
      "pecially": 4771,
      "aur": 4772,
      "nr": 4773,
      "Ġpub": 4774,
      "odes": 4775,
      "Ġlei": 4776,
      "Ġpercent": 4777,
      "Ġbetrok": 4778,
      "go": 4779,
      "Ġlie": 4780,
      "ĠMat": 4781,
      "Ġheel": 4782,
      "ART": 4783,
      "Ġenter": 4784,
      "Ïħ": 4785,
      "Ġly": 4786,
      "Ġadministr": 4787,
      "Ġapproxim": 4788,
      "Ġwen": 4789,
      "omin": 4790,
      "agraph": 4791,
      "oke": 4792,
      "Ġball": 4793,
      "Ġongel": 4794,
      "Ġfore": 4795,
      "Ġskoon": 4796,
      "Ġgeval": 4797,
      "Ġsubstrate": 4798,
      "zz": 4799,
      "ĠSam": 4800,
      "ĠBay": 4801,
      "Ġ102": 4802,
      "iefde": 4803,
      "Ġsensor": 4804,
      "Ġtion": 4805,
      "oring": 4806,
      "ĠData": 4807,
      "ocks": 4808,
      "emed": 4809,
      "wet": 4810,
      "Ġinj": 4811,
      "ikaanse": 4812,
      "andag": 4813,
      "perk": 4814,
      "Ġlesb": 4815,
      "OU": 4816,
      "Ñģ": 4817,
      "Ġgot": 4818,
      "andering": 4819,
      "ĠKl": 4820,
      "rier": 4821,
      "oef": 4822,
      "va": 4823,
      "Ġbig": 4824,
      "ĠSl": 4825,
      "ĠMer": 4826,
      "ortg": 4827,
      "Ġouter": 4828,
      "ĠSpec": 4829,
      "ĠEngland": 4830,
      "do": 4831,
      "ĠAfrikaanse": 4832,
      "peel": 4833,
      "Ġclaims": 4834,
      "ĠPhil": 4835,
      "Ġmakelaars": 4836,
      "cription": 4837,
      "Ġak": 4838,
      "Ġhapp": 4839,
      "Ġseun": 4840,
      "Ġdistribution": 4841,
      "Ġselect": 4842,
      "Ġstelsel": 4843,
      "Ġyield": 4844,
      "lished": 4845,
      "Ġgemeenskap": 4846,
      "ĠPage": 4847,
      "ums": 4848,
      "Ġsukses": 4849,
      "Ġapproach": 4850,
      "Ġwebwerf": 4851,
      "ully": 4852,
      "estions": 4853,
      "ĠGeorge": 4854,
      "name": 4855,
      "Ġmorning": 4856,
      "ĠJames": 4857,
      "Ġgewoon": 4858,
      "week": 4859,
      "ogg": 4860,
      "ĠThomas": 4861,
      "aves": 4862,
      "oemde": 4863,
      "Ġregtig": 4864,
      "Ġsuitable": 4865,
      "eto": 4866,
      "ĠCap": 4867,
      "teer": 4868,
      "ĠLord": 4869,
      "Ġwaarin": 4870,
      "Ġeenv": 4871,
      "which": 4872,
      "Ġmoeilik": 4873,
      "Ġnag": 4874,
      "Ġoccup": 4875,
      "oid": 4876,
      "Ġoil": 4877,
      "Ġdiam": 4878,
      "Ġproviding": 4879,
      "ĠChristian": 4880,
      "ĠIndian": 4881,
      "Ġperfect": 4882,
      "ĠFebruary": 4883,
      "uj": 4884,
      "Ġtele": 4885,
      "Ġuite": 4886,
      "Ġ522": 4887,
      "Ġapply": 4888,
      "LY": 4889,
      "ĠCOM": 4890,
      "Ġformer": 4891,
      "Ġ_": 4892,
      "ĠTop": 4893,
      "Ġstated": 4894,
      "ellow": 4895,
      "Ġfollowed": 4896,
      "Ġverloor": 4897,
      "Ġdim": 4898,
      "Ġink": 4899,
      "Ġnaby": 4900,
      "inkel": 4901,
      "iÃ«le": 4902,
      "Ġtransmission": 4903,
      "Ġgeneem": 4904,
      "Ġprimary": 4905,
      "ØŃÙħØ¯": 4906,
      "Je": 4907,
      "Ġpm": 4908,
      "Ġenergy": 4909,
      "iko": 4910,
      "ĠChina": 4911,
      "Ġvolgens": 4912,
      "Ġpaper": 4913,
      "aad": 4914,
      "vind": 4915,
      "Ġwww": 4916,
      "ĠHam": 4917,
      "ĠFederal": 4918,
      "Ġmanufact": 4919,
      "Ġsecurity": 4920,
      "Ġindust": 4921,
      "ĠBoard": 4922,
      "Ġdigital": 4923,
      "ĠSil": 4924,
      "Ġsaak": 4925,
      "Ġprofession": 4926,
      "col": 4927,
      "ĠOu": 4928,
      "iller": 4929,
      "ĠKn": 4930,
      "Ġexpos": 4931,
      "ÙĦÙī": 4932,
      "Ġrecomm": 4933,
      "Ġpoints": 4934,
      "ĠÃ©": 4935,
      "Ġindu": 4936,
      "Ġkar": 4937,
      "ĠGoogle": 4938,
      "Ġcontribut": 4939,
      "Ġpersonal": 4940,
      "Ġdirectly": 4941,
      "Ġhistor": 4942,
      "NO": 4943,
      "ĠÌ": 4944,
      "Ġexternal": 4945,
      "Ġ43": 4946,
      "encies": 4947,
      "Ġgeleent": 4948,
      "Ġpun": 4949,
      "ĠnÃ¡": 4950,
      "Ġ150": 4951,
      "Ġlate": 4952,
      "Ġkomm": 4953,
      "ĠWashington": 4954,
      "Ġnuus": 4955,
      "ĠHoodie": 4956,
      "yr": 4957,
      "ĠSO": 4958,
      "ĠlÃª": 4959,
      "0000": 4960,
      "aving": 4961,
      "2018": 4962,
      "\".": 4963,
      "Ġbou": 4964,
      "Ġnut": 4965,
      "ĠOur": 4966,
      "Ġsearch": 4967,
      "Ġdecision": 4968,
      "Ġreduced": 4969,
      "Ġfixed": 4970,
      "ĠPretoria": 4971,
      "Ġtiss": 4972,
      "ĠTw": 4973,
      "ĠAtt": 4974,
      "ulture": 4975,
      "ĠÎ´": 4976,
      "Ġdeliver": 4977,
      "Ġopinion": 4978,
      "Ġevalu": 4979,
      "Ġaanvaar": 4980,
      "Store": 4981,
      "Ġfamilie": 4982,
      "ias": 4983,
      "ĠMart": 4984,
      "imate": 4985,
      "ĠHo": 4986,
      "Ġwrite": 4987,
      "ĳÂ§": 4988,
      "Ġeerder": 4989,
      "Ġmiles": 4990,
      "Ġlanguage": 4991,
      "Ġsummary": 4992,
      "Sy": 4993,
      "ln": 4994,
      "ĠChe": 4995,
      "ĠRich": 4996,
      "apter": 4997,
      "ĠVideo": 4998,
      "Ġcompet": 4999,
      "Ġgesond": 5000,
      "Ġswitch": 5001,
      "PL": 5002,
      "Ġtiener": 5003,
      "Ġstop": 5004,
      "neem": 5005,
      "Ġgeniet": 5006,
      "gele": 5007,
      "Ġgave": 5008,
      "ĠMen": 5009,
      "Ġgesien": 5010,
      "lands": 5011,
      "ype": 5012,
      "Ġmit": 5013,
      "Ġpee": 5014,
      "Ġespecially": 5015,
      "Ġspesif": 5016,
      "Ġ@": 5017,
      "Ġ~": 5018,
      "Ġpain": 5019,
      "Ġreaction": 5020,
      "Ġvraag": 5021,
      "App": 5022,
      "pol": 5023,
      "Ð½": 5024,
      "Ġbron": 5025,
      "Ġrights": 5026,
      "ipment": 5027,
      "Ġ75": 5028,
      "ĠFrance": 5029,
      "preek": 5030,
      "Ġele": 5031,
      "NS": 5032,
      "ti": 5033,
      "Ġtum": 5034,
      "ĠMS": 5035,
      "aches": 5036,
      "clus": 5037,
      "iance": 5038,
      "Ã¸": 5039,
      "Ġtaal": 5040,
      "Ġfok": 5041,
      "Ġacross": 5042,
      "Af": 5043,
      "DE": 5044,
      "MR": 5045,
      "Met": 5046,
      "ral": 5047,
      "ÑĢ": 5048,
      "Ġvor": 5049,
      "ĠMor": 5050,
      "ĠIP": 5051,
      "ĠHet": 5052,
      "Ġasook": 5053,
      "abel": 5054,
      "ructions": 5055,
      "Ġuits": 5056,
      "ĠJulie": 5057,
      "ivil": 5058,
      "Ġprocessor": 5059,
      "Ġrequirements": 5060,
      "Ġdisclosure": 5061,
      "esien": 5062,
      "omet": 5063,
      "Ġlevels": 5064,
      "Ġdatab": 5065,
      "Ġlimit": 5066,
      "Joh": 5067,
      "Ġsources": 5068,
      "unk": 5069,
      "ĠFirst": 5070,
      "Ġouers": 5071,
      "mediate": 5072,
      "Ġutil": 5073,
      "arc": 5074,
      "edert": 5075,
      "Ġnational": 5076,
      "Ġappeal": 5077,
      "Ġuitge": 5078,
      "Ġlaaste": 5079,
      "Ġproduced": 5080,
      "Ġgeloof": 5081,
      "Ġcylinder": 5082,
      "Fr": 5083,
      "Ġske": 5084,
      "atiewe": 5085,
      "Ġthous": 5086,
      "ĠKom": 5087,
      "intlik": 5088,
      "ancy": 5089,
      "ĠArt": 5090,
      "Ġsomething": 5091,
      "Is": 5092,
      "Ġtell": 5093,
      "Ġbak": 5094,
      "ĠDel": 5095,
      "ĠId": 5096,
      "Ġdaarop": 5097,
      "ATE": 5098,
      "Ġproperties": 5099,
      "ĠBritish": 5100,
      "IF": 5101,
      "rey": 5102,
      "Ġhair": 5103,
      "ï¿½?ï¿½": 5104,
      "Ġgesels": 5105,
      "Ġoperating": 5106,
      "ĠCommittee": 5107,
      "Ġeduc": 5108,
      "Item": 5109,
      "Ġhundred": 5110,
      "Ġrates": 5111,
      "Ġtext": 5112,
      "riende": 5113,
      "Ph": 5114,
      "loss": 5115,
      "reer": 5116,
      "Ġelectronic": 5117,
      "dien": 5118,
      "fon": 5119,
      "no": 5120,
      "Â®": 5121,
      "Ġml": 5122,
      "Ġfurn": 5123,
      "enses": 5124,
      "ili": 5125,
      "Ġgrootste": 5126,
      "poration": 5127,
      "bes": 5128,
      "aser": 5129,
      "Ġenvironmental": 5130,
      "ivier": 5131,
      "Ġ622": 5132,
      "Ġsubstantially": 5133,
      "hang": 5134,
      "Ġtend": 5135,
      "ety": 5136,
      "ĠHier": 5137,
      "Ġseems": 5138,
      "Ġ400": 5139,
      "uister": 5140,
      "Ġeffic": 5141,
      "Ġverwag": 5142,
      "Ġhistory": 5143,
      "Ġborn": 5144,
      "Ġkm": 5145,
      "Ġ104": 5146,
      "Ġhands": 5147,
      "Ġgekom": 5148,
      "Ġconstruction": 5149,
      "well": 5150,
      "stances": 5151,
      "Ġreferred": 5152,
      "ĠDem": 5153,
      "ĠRuss": 5154,
      "Ġ61": 5155,
      "Ġmaand": 5156,
      "Ġqual": 5157,
      "jar": 5158,
      "wes": 5159,
      "Ġbur": 5160,
      "Ġcit": 5161,
      "Ġdied": 5162,
      "ilit": 5163,
      "ĠLee": 5164,
      "ĠKar": 5165,
      "Ġmechanism": 5166,
      "head": 5167,
      "Ġsat": 5168,
      "idelik": 5169,
      "ĠMont": 5170,
      "ĠWood": 5171,
      "Ġcompress": 5172,
      "Ġcommittee": 5173,
      "retary": 5174,
      "Ġgroups": 5175,
      "Ġengine": 5176,
      "LG": 5177,
      "aas": 5178,
      "Ġwife": 5179,
      "oles": 5180,
      "ĠOut": 5181,
      "asturb": 5182,
      "Ġnavors": 5183,
      "''": 5184,
      "Ġrepe": 5185,
      "rust": 5186,
      "Ġ56": 5187,
      "Ġskep": 5188,
      "ifications": 5189,
      "ĠTechn": 5190,
      "VAL": 5191,
      "keling": 5192,
      "Ġhosp": 5193,
      "ĠGood": 5194,
      "ellig": 5195,
      "Ġ68": 5196,
      "ĠFrench": 5197,
      "Ġparticularly": 5198,
      "\",\"": 5199,
      "nn": 5200,
      "Ġstru": 5201,
      "Ġry": 5202,
      "Ġitems": 5203,
      "Ġbox": 5204,
      "_{\\": 5205,
      "ously": 5206,
      "Ġpassed": 5207,
      "Ġknowledge": 5208,
      "aid": 5209,
      "stra": 5210,
      "Ġenough": 5211,
      "ĠMans": 5212,
      "Ġalgorith": 5213,
      "acks": 5214,
      "Ġgevoel": 5215,
      "rise": 5216,
      "Ġcam": 5217,
      "rog": 5218,
      "ĠBi": 5219,
      "ĠEast": 5220,
      "Ġthemselves": 5221,
      "ĠInternational": 5222,
      "CL": 5223,
      "EB": 5224,
      "Kaap": 5225,
      "time": 5226,
      "oration": 5227,
      "Ġkennis": 5228,
      "otic": 5229,
      "ception": 5230,
      "Ġspirit": 5231,
      "ĠAsiÃ«r": 5232,
      "Ġorigin": 5233,
      "Ġbottom": 5234,
      "midd": 5235,
      "arth": 5236,
      "Ġnood": 5237,
      "mentaar": 5238,
      "Ġconsist": 5239,
      "ĠUnder": 5240,
      "ĠJanuarie": 5241,
      "df": 5242,
      "han": 5243,
      "requ": 5244,
      "akke": 5245,
      "ĠLaw": 5246,
      "Ġoptical": 5247,
      "Ġverlede": 5248,
      "Ġprobleem": 5249,
      "ĠCouncil": 5250,
      "bi": 5251,
      "Ġvideos": 5252,
      "Ġhour": 5253,
      "amic": 5254,
      "umin": 5255,
      "Ġmolec": 5256,
      "Ġchannel": 5257,
      "^^": 5258,
      "prek": 5259,
      "urance": 5260,
      "ensity": 5261,
      "Ġgoods": 5262,
      "Ãĭ": 5263,
      "Ġid": 5264,
      "iments": 5265,
      "iest": 5266,
      "ocol": 5267,
      "Ġpret": 5268,
      "ĠSchool": 5269,
      "ĠANC": 5270,
      "'.": 5271,
      "rand": 5272,
      "ena": 5273,
      "ĠTV": 5274,
      "using": 5275,
      "Ġassum": 5276,
      "ĠUnion": 5277,
      "Ġattention": 5278,
      "Ġdifficult": 5279,
      "ÃĹ": 5280,
      "Ġtoday": 5281,
      "Ġ111": 5282,
      "Ġlove": 5283,
      "unde": 5284,
      "veer": 5285,
      "Ġago": 5286,
      "Ġmaterials": 5287,
      "stig": 5288,
      "rial": 5289,
      "Ġcho": 5290,
      "izes": 5291,
      "Ġarms": 5292,
      "Ġtypes": 5293,
      "Ġfriends": 5294,
      "Le": 5295,
      "Ġton": 5296,
      "Ġsqu": 5297,
      "ĠSund": 5298,
      "Ġei": 5299,
      "Ġvirt": 5300,
      "________________": 5301,
      "Ġphysical": 5302,
      "}^{": 5303,
      "Ġsul": 5304,
      "Ġgentle": 5305,
      "istry": 5306,
      "ĠChurch": 5307,
      "Ġrecords": 5308,
      "Ġbuilding": 5309,
      "gar": 5310,
      "Ġfoc": 5311,
      "rown": 5312,
      "Ġstore": 5313,
      "apons": 5314,
      "Ġchamber": 5315,
      "Ġpresence": 5316,
      "after": 5317,
      "Ġdistrict": 5318,
      "Ġrespond": 5319,
      "arried": 5320,
      "ruit": 5321,
      "ĠUs": 5322,
      "Ã«l": 5323,
      "Ġextent": 5324,
      "Hierdie": 5325,
      "RA": 5326,
      "Ġcopy": 5327,
      "ĠSan": 5328,
      "ĠHum": 5329,
      "Ġshaft": 5330,
      "Ġfeatures": 5331,
      "bw": 5332,
      "Ġmom": 5333,
      "oses": 5334,
      "akte": 5335,
      "Ġekonom": 5336,
      "Ġstored": 5337,
      "Ġissues": 5338,
      "cript": 5339,
      "faces": 5340,
      "rane": 5341,
      "Ø¬": 5342,
      "Ġpublished": 5343,
      "Ġlatter": 5344,
      "ĠOh": 5345,
      "Ġverwys": 5346,
      "itions": 5347,
      "Ġdisposed": 5348,
      "Ġregering": 5349,
      "Ġselection": 5350,
      "ground": 5351,
      "Ġfavor": 5352,
      "uut": 5353,
      "Ġkor": 5354,
      "Ġnote": 5355,
      "Ġ63": 5356,
      "Ġpresident": 5357,
      "ĠØ¹Ø¨": 5358,
      "Ġ..": 5359,
      "ĠGay": 5360,
      "istor": 5361,
      "ughter": 5362,
      "ĠPorno": 5363,
      "TM": 5364,
      "Ġsoms": 5365,
      "ati": 5366,
      "Ġwood": 5367,
      "ĠWater": 5368,
      "Ġontmoet": 5369,
      "Ġgekry": 5370,
      "Ġtaking": 5371,
      "Ġsensing": 5372,
      "site": 5373,
      "Ġtegn": 5374,
      "Ġsheet": 5375,
      "Ġsocial": 5376,
      "))": 5377,
      "Qu": 5378,
      "urities": 5379,
      "Ġmeisies": 5380,
      "Ġincome": 5381,
      "Ġinstance": 5382,
      "ĠWhite": 5383,
      "ĠMaart": 5384,
      "Ġcomplete": 5385,
      "ĠPet": 5386,
      "inders": 5387,
      "Ġrob": 5388,
      "ĠProv": 5389,
      "Ġverskyn": 5390,
      "ĠLouis": 5391,
      "arter": 5392,
      "Ġpair": 5393,
      "Ġdemonstr": 5394,
      "Ġexpected": 5395,
      "Ġfotos": 5396,
      "enth": 5397,
      "rael": 5398,
      "Ġ64": 5399,
      "Ġindicated": 5400,
      "Ġbetrokke": 5401,
      "enaar": 5402,
      "ito": 5403,
      "utel": 5404,
      "Ġresid": 5405,
      "Ġbesigheid": 5406,
      "Ġquite": 5407,
      "Ġincorpor": 5408,
      "Ġsteps": 5409,
      "ĠMad": 5410,
      "ago": 5411,
      "Ġrug": 5412,
      "weg": 5413,
      "posal": 5414,
      "Ġgraag": 5415,
      "ĠSupp": 5416,
      "Ġremoved": 5417,
      "Pl": 5418,
      "asure": 5419,
      "stuk": 5420,
      "ĠMaatsoekweb": 5421,
      "Ġdegree": 5422,
      "ĠBen": 5423,
      "Ġcontr": 5424,
      "new": 5425,
      "Ġanimal": 5426,
      "Ġmaatskappy": 5427,
      "Volg": 5428,
      "Ġproses": 5429,
      "Ġ47": 5430,
      "Ġroll": 5431,
      "issing": 5432,
      "Ġsupply": 5433,
      "Ġcash": 5434,
      "ctic": 5435,
      "oted": 5436,
      "ĠVry": 5437,
      "Ġresources": 5438,
      "Ġgroei": 5439,
      "ĠAnal": 5440,
      "Ġotherwise": 5441,
      "Ġmodels": 5442,
      "ĠDesember": 5443,
      "handel": 5444,
      "Ġsommer": 5445,
      "Ġding": 5446,
      "Ġdoor": 5447,
      "ĠSection": 5448,
      "ĠLat": 5449,
      "loot": 5450,
      "inner": 5451,
      "ĠTherefore": 5452,
      "Ġelectrode": 5453,
      "Ġfrequency": 5454,
      "gest": 5455,
      "Ġvere": 5456,
      "ĠMac": 5457,
      "very": 5458,
      "Ġparties": 5459,
      "oneel": 5460,
      "ounds": 5461,
      "pression": 5462,
      "Ġcapital": 5463,
      "Ġfoot": 5464,
      "ĠBer": 5465,
      "cean": 5466,
      "Ġprovision": 5467,
      "Ġpolar": 5468,
      "bra": 5469,
      "merk": 5470,
      "Ġvriende": 5471,
      "ĠProf": 5472,
      "Ġintended": 5473,
      "Ġexperience": 5474,
      "Gro": 5475,
      "was": 5476,
      "Ġaper": 5477,
      "Ġwinter": 5478,
      "Ġpussy": 5479,
      "Ġstates": 5480,
      "Ġtrack": 5481,
      "gineer": 5482,
      "ELL": 5483,
      "ĠBuy": 5484,
      "Ġnormal": 5485,
      "Net": 5486,
      "PA": 5487,
      "hest": 5488,
      "Ġeintlik": 5489,
      "Ġ130": 5490,
      "Ġrules": 5491,
      "Ġmeisie": 5492,
      "ĠMei": 5493,
      "So": 5494,
      "Ġtog": 5495,
      "ĠSuch": 5496,
      "Ġstream": 5497,
      "ĠGes": 5498,
      "ĠOktober": 5499,
      "ĠKon": 5500,
      "ipedia": 5501,
      "Ġround": 5502,
      "Ġ99": 5503,
      "mat": 5504,
      "iele": 5505,
      "Ġwiss": 5506,
      "uter": 5507,
      "Ġ85": 5508,
      "Ġpreferred": 5509,
      "iii": 5510,
      "Ġhousing": 5511,
      "TC": 5512,
      "wart": 5513,
      "ĠMus": 5514,
      "otal": 5515,
      "erson": 5516,
      "ĠLim": 5517,
      "ferences": 5518,
      "ĠProgram": 5519,
      "Ġworking": 5520,
      "Ġantwoord": 5521,
      "Ġasked": 5522,
      "Ġbepaal": 5523,
      "certain": 5524,
      "Ġvre": 5525,
      "ĠAustral": 5526,
      "ocation": 5527,
      "Ġunless": 5528,
      "Ġ2002": 5529,
      "EST": 5530,
      "Ġtraining": 5531,
      "Ġspeed": 5532,
      "koop": 5533,
      "anke": 5534,
      "ĠâĢŀ": 5535,
      "Ġalthough": 5536,
      "2013": 5537,
      "Ġverskil": 5538,
      "hyd": 5539,
      "Ġsiek": 5540,
      "Ġbeaut": 5541,
      "Ġrev": 5542,
      "Ġalk": 5543,
      "type": 5544,
      "ĠSenator": 5545,
      "SE": 5546,
      "yt": 5547,
      "aled": 5548,
      "2017": 5549,
      "conn": 5550,
      "Ġactivities": 5551,
      "Ġgovern": 5552,
      "ĠSmith": 5553,
      "ĠLE": 5554,
      "ynlik": 5555,
      "elinge": 5556,
      "gesk": 5557,
      "vious": 5558,
      "ĠDee": 5559,
      "uldig": 5560,
      "deur": 5561,
      "iÃ«n": 5562,
      "Ġdescription": 5563,
      "Ġlegal": 5564,
      "itaal": 5565,
      "uments": 5566,
      "Ġspl": 5567,
      "Ġbesef": 5568,
      "ucle": 5569,
      "Ġlayers": 5570,
      "Ġlabor": 5571,
      "Ġevent": 5572,
      "Ġattempt": 5573,
      "Ġmusiek": 5574,
      "Ġinvolved": 5575,
      "Ġsequence": 5576,
      "GR": 5577,
      "Ġmut": 5578,
      "Ġformation": 5579,
      "ĠMedia": 5580,
      "cam": 5581,
      "won": 5582,
      "road": 5583,
      "lease": 5584,
      "Ġonthou": 5585,
      "comes": 5586,
      "Ġdraw": 5587,
      "ercial": 5588,
      "Ġmeasurement": 5589,
      "Bl": 5590,
      "ĠSU": 5591,
      "ĠSur": 5592,
      "iker": 5593,
      "Ġring": 5594,
      "ĠWed": 5595,
      "oorte": 5596,
      "Ġ58": 5597,
      "laat": 5598,
      "Ġ95": 5599,
      "Ġhandels": 5600,
      "othing": 5601,
      "If": 5602,
      "haal": 5603,
      "Ġpra": 5604,
      "aped": 5605,
      "ocal": 5606,
      "Ġfees": 5607,
      "istered": 5608,
      "ILL": 5609,
      "Ġbreak": 5610,
      "onesia": 5611,
      "By": 5612,
      "bin": 5613,
      "goed": 5614,
      "mos": 5615,
      "rike": 5616,
      "agen": 5617,
      "ifically": 5618,
      "Ġchurch": 5619,
      "Ġabsol": 5620,
      "At": 5621,
      "jek": 5622,
      "rd": 5623,
      "Ġkamer": 5624,
      "Ġgehe": 5625,
      "ryse": 5626,
      "Ġcolor": 5627,
      "Ġsubstit": 5628,
      "ĠPhys": 5629,
      "Ġvinnig": 5630,
      "To": 5631,
      "ho": 5632,
      "rap": 5633,
      "ĠFe": 5634,
      "ĠAnn": 5635,
      "Ġvoice": 5636,
      "Ġverkies": 5637,
      "Ġapplicable": 5638,
      "Ġinitial": 5639,
      "Ġmiddel": 5640,
      "Ġrandom": 5641,
      "Ġappropriate": 5642,
      "nike": 5643,
      "rus": 5644,
      "amm": 5645,
      "Ġmaxim": 5646,
      "Ġdetermining": 5647,
      "ĠAmerikaanse": 5648,
      "CB": 5649,
      "KE": 5650,
      "Ġbon": 5651,
      "iges": 5652,
      "Ġbeheer": 5653,
      "Ġgenes": 5654,
      "skool": 5655,
      "Ġlikely": 5656,
      "uwe": 5657,
      "icated": 5658,
      "ades": 5659,
      "Ġ1990": 5660,
      "Ġrecover": 5661,
      "Ġbereik": 5662,
      "ĠJapan": 5663,
      "Ġvoordat": 5664,
      "Ġtissue": 5665,
      "light": 5666,
      "rs": 5667,
      "leiding": 5668,
      "ĠHand": 5669,
      "ĠJou": 5670,
      "ĠWeek": 5671,
      "Ġremed": 5672,
      "ĠJunie": 5673,
      "ĠAccording": 5674,
      "hoe": 5675,
      "ih": 5676,
      "Ġaarde": 5677,
      "omer": 5678,
      "Ġenj": 5679,
      "ĠBoth": 5680,
      "Ġprop": 5681,
      "Ġprogress": 5682,
      "Ġsaw": 5683,
      "Ġhoeveel": 5684,
      "Ġstatement": 5685,
      "Ã³n": 5686,
      "Ġpractice": 5687,
      "Ġestablished": 5688,
      "ĠKlein": 5689,
      "yse": 5690,
      "Ġprag": 5691,
      "Ġleave": 5692,
      "Ġye": 5693,
      "Ġ$\\": 5694,
      "Ġtransl": 5695,
      "Ġpositive": 5696,
      "Ġconstant": 5697,
      "Ġgehoor": 5698,
      "Ġtechniques": 5699,
      "path": 5700,
      "Ø£": 5701,
      "ĠPlaas": 5702,
      "Ġafgel": 5703,
      "Ġpersoonlike": 5704,
      "Ġbenefit": 5705,
      "Î¯": 5706,
      "ĠkesÃ¢": 5707,
      "amers": 5708,
      "aper": 5709,
      "Ġnode": 5710,
      "Baie": 5711,
      "iem": 5712,
      "Ġwoman": 5713,
      "Ġmal": 5714,
      "Ġcool": 5715,
      "lee": 5716,
      "Ġguid": 5717,
      "Ġlug": 5718,
      "otes": 5719,
      "ĠHot": 5720,
      "Ġtyp": 5721,
      "Ġtwenty": 5722,
      "Ġbloed": 5723,
      "Ġeyes": 5724,
      "ĠDef": 5725,
      "essie": 5726,
      "Ġ09": 5727,
      "Ġminimum": 5728,
      "Ġfunctions": 5729,
      "etermined": 5730,
      ",'": 5731,
      "rence": 5732,
      "ĠInstit": 5733,
      "ĠEnvironmental": 5734,
      "Ġ206": 5735,
      "Ġminutes": 5736,
      "Ġload": 5737,
      "pret": 5738,
      "ĠFree": 5739,
      "Ġwhy": 5740,
      "Ġfeit": 5741,
      "volle": 5742,
      "tre": 5743,
      "Ġfrag": 5744,
      "stood": 5745,
      "Ġonge": 5746,
      "Ġsignals": 5747,
      "Ġanimals": 5748,
      "Ass": 5749,
      "Ġil": 5750,
      "Ġvess": 5751,
      "Ġfif": 5752,
      "Ġtold": 5753,
      "ĠSex": 5754,
      "ĠDiesel": 5755,
      "eme": 5756,
      "ĠEach": 5757,
      "Ġclos": 5758,
      "Ġvalve": 5759,
      "komste": 5760,
      "Ġarranged": 5761,
      "ply": 5762,
      "sm": 5763,
      "vere": 5764,
      "Ġfather": 5765,
      "Ġfully": 5766,
      "ĠEnergy": 5767,
      "Ġamb": 5768,
      "Ġforms": 5769,
      "Ġartikel": 5770,
      "Ġreturned": 5771,
      "ĠCongress": 5772,
      "OH": 5773,
      "Øµ": 5774,
      "emal": 5775,
      "ĠPal": 5776,
      "add": 5777,
      "neakers": 5778,
      "Ġskry": 5779,
      "Ġslight": 5780,
      "Ġapplications": 5781,
      "kont": 5782,
      "Å¸": 5783,
      "Ġtou": 5784,
      "eck": 5785,
      "Ġmees": 5786,
      "ommod": 5787,
      "Ġcontains": 5788,
      "Ġemployed": 5789,
      "ua": 5790,
      "âĹ": 5791,
      "Ġtube": 5792,
      "Ġavo": 5793,
      "Ġsagte": 5794,
      "active": 5795,
      "IST": 5796,
      "ĠÃł": 5797,
      "Ġmentioned": 5798,
      "liek": 5799,
      "enig": 5800,
      "Ġliving": 5801,
      "olved": 5802,
      "ective": 5803,
      "ĠØ¹ÙĦÙĬ": 5804,
      "Ref": 5805,
      "Ġiron": 5806,
      "ĠMax": 5807,
      "Ġdeal": 5808,
      "ĠØµ": 5809,
      "ĠWeb": 5810,
      "Ġdrive": 5811,
      "Ġcapacity": 5812,
      "works": 5813,
      "Be": 5814,
      "Ġrender": 5815,
      "eerd": 5816,
      "Ġ66": 5817,
      "izer": 5818,
      "Ġsekere": 5819,
      "Ġpreferably": 5820,
      "Ġbid": 5821,
      "ĠSome": 5822,
      "Ġpayment": 5823,
      "itititit": 5824,
      "UE": 5825,
      "yst": 5826,
      "Î¸": 5827,
      "Ġoort": 5828,
      "Ġforming": 5829,
      "Ġcamp": 5830,
      "ĠCount": 5831,
      "ĠDu": 5832,
      "Ġunits": 5833,
      "Ġamend": 5834,
      "Ġdifference": 5835,
      "ĠIsrael": 5836,
      "Ġviews": 5837,
      "Ġidentified": 5838,
      "Ġillustrated": 5839,
      "Ġaxis": 5840,
      "ĠSEQ": 5841,
      "ani": 5842,
      "Ġdankie": 5843,
      "Ġbor": 5844,
      "Ġthy": 5845,
      "rab": 5846,
      "ĠBus": 5847,
      "ĠLand": 5848,
      "Ġ62": 5849,
      "aily": 5850,
      "ĠNuus": 5851,
      "cell": 5852,
      "Ġdiep": 5853,
      "ĠSum": 5854,
      "ĠMass": 5855,
      "ifier": 5856,
      "ĠView": 5857,
      "ansie": 5858,
      "ICE": 5859,
      "ĠBrown": 5860,
      "Ġseparate": 5861,
      "elandse": 5862,
      "specific": 5863,
      "FF": 5864,
      "VER": 5865,
      "lede": 5866,
      "ama": 5867,
      "akes": 5868,
      "likse": 5869,
      "Ġcompar": 5870,
      "MENT": 5871,
      "ault": 5872,
      "ras": 5873,
      "Ðº": 5874,
      "Ġapart": 5875,
      "Ġses": 5876,
      "Ġofthe": 5877,
      "Ġfast": 5878,
      "ighest": 5879,
      "ĠMich": 5880,
      "ado": 5881,
      "ĠLees": 5882,
      "ĠJust": 5883,
      "Ġsaf": 5884,
      "pose": 5885,
      "Ġrecent": 5886,
      "2016": 5887,
      "werking": 5888,
      "Ġglass": 5889,
      "Ġsoftware": 5890,
      "ĠArea": 5891,
      "Maar": 5892,
      "Sh": 5893,
      "Van": 5894,
      "gt": 5895,
      "kant": 5896,
      "Ġbore": 5897,
      "Ġmg": 5898,
      "ulations": 5899,
      "ĠRet": 5900,
      "Ġwatter": 5901,
      "Ġinstructions": 5902,
      "ÙħØ§": 5903,
      "blad": 5904,
      "Ġvisit": 5905,
      "Ġimplemented": 5906,
      "Ġsam": 5907,
      "Ġnw": 5908,
      "ĠSand": 5909,
      "Ġenvironment": 5910,
      "amination": 5911,
      "ĠRel": 5912,
      "aced": 5913,
      "ĠNoord": 5914,
      "ÙħØ±": 5915,
      "EEE": 5916,
      "Ġmixture": 5917,
      "-(": 5918,
      "can": 5919,
      "will": 5920,
      "Ġmos": 5921,
      "ĠMain": 5922,
      "ĠJos": 5923,
      "Ġvern": 5924,
      "eful": 5925,
      "Ġfeel": 5926,
      "ĠQue": 5927,
      "Ġreflect": 5928,
      "Ġduty": 5929,
      "iro": 5930,
      "Ġq": 5931,
      "Ġfuel": 5932,
      "stud": 5933,
      "Ġaccur": 5934,
      "Ġclaimed": 5935,
      "Ġbeskou": 5936,
      "Ġmagnet": 5937,
      "Ġedge": 5938,
      "Ġmiljoen": 5939,
      "ĠØ¹Ø¨Ø¯": 5940,
      "\">": 5941,
      "Îĵ": 5942,
      "ato": 5943,
      "iets": 5944,
      "Ġpoor": 5945,
      "Ġ71": 5946,
      "Ġinterface": 5947,
      "Ġsubsequ": 5948,
      "Ġassist": 5949,
      "Ġcommunity": 5950,
      "aksie": 5951,
      "ĠCharles": 5952,
      "Ġpages": 5953,
      "elaat": 5954,
      "Ġreach": 5955,
      "ĠBre": 5956,
      "indelik": 5957,
      "Ġclient": 5958,
      "Ġindien": 5959,
      "Ġmounted": 5960,
      "Ġmakelaar": 5961,
      "Ġcollected": 5962,
      "ĠSunday": 5963,
      "ben": 5964,
      "koms": 5965,
      "nl": 5966,
      "Ġsun": 5967,
      "Ġdry": 5968,
      "Ġpist": 5969,
      "Ġcryst": 5970,
      "urende": 5971,
      "ĠCur": 5972,
      "ĠDisc": 5973,
      "ĠBaie": 5974,
      "Ġmovement": 5975,
      "ĠUit": 5976,
      "Ġgroter": 5977,
      "Ġgenoem": 5978,
      "Ġsimple": 5979,
      "ĠPrice": 5980,
      "aag": 5981,
      "ns": 5982,
      "ÃŁ": 5983,
      "Ġult": 5984,
      "Ġlic": 5985,
      "ema": 5986,
      "ograf": 5987,
      "Ã«ls": 5988,
      "Ġregular": 5989,
      "haps": 5990,
      "Ġkoek": 5991,
      "Ġriver": 5992,
      "ĠOther": 5993,
      "Ġopport": 5994,
      "Ġevening": 5995,
      "Ġâī": 5996,
      "Ġorganic": 5997,
      "Ġallowed": 5998,
      "Ġverhoog": 5999,
      "ĠSH": 6000,
      "ĠTur": 6001,
      "ĠWarm": 6002,
      "rupt": 6003,
      "Ġnearly": 6004,
      "Ġcancer": 6005,
      "Ġ112": 6006,
      "Ġmilk": 6007,
      "Ġglad": 6008,
      "Ġpopulation": 6009,
      "Ġsen": 6010,
      "Ġft": 6011,
      "ura": 6012,
      "ĠLeg": 6013,
      "Ġweeks": 6014,
      "Ġaanb": 6015,
      "Ġverkl": 6016,
      "Ġlonger": 6017,
      "KS": 6018,
      "Â·": 6019,
      "Ġern": 6020,
      "Ġpor": 6021,
      "Ġcorn": 6022,
      "Ġfab": 6023,
      "ager": 6024,
      "Ġ59": 6025,
      "Ġdating": 6026,
      "Ġbeskerm": 6027,
      "Ġtablet": 6028,
      "Ġprincipal": 6029,
      "po": 6030,
      "Ġtor": 6031,
      "rete": 6032,
      "Ġinstead": 6033,
      "ĠDE": 6034,
      "Ġmoved": 6035,
      "Ġvoye": 6036,
      "Ġportions": 6037,
      "Ġbecame": 6038,
      "Ġdouble": 6039,
      "Ġgrowth": 6040,
      "bly": 6041,
      "box": 6042,
      "kie": 6043,
      "ðŁ": 6044,
      "het": 6045,
      "etjies": 6046,
      "Ġreally": 6047,
      "ought": 6048,
      "Ġforeign": 6049,
      "Ġvoyeur": 6050,
      "FT": 6051,
      "iens": 6052,
      "Ġtip": 6053,
      "Ġtree": 6054,
      "Ġsos": 6055,
      "Ġgod": 6056,
      "Ġtoward": 6057,
      "Ġheard": 6058,
      "ĠâĢĿ": 6059,
      "Ġspect": 6060,
      "Ġmax": 6061,
      "Ġsnow": 6062,
      "MP": 6063,
      "punt": 6064,
      "vention": 6065,
      "oei": 6066,
      "bedo": 6067,
      "Ġearth": 6068,
      "ĠSpe": 6069,
      "ĠWar": 6070,
      "Ġbeslis": 6071,
      "ocket": 6072,
      "Ġdetermination": 6073,
      "III": 6074,
      "ĠSuper": 6075,
      "Ġdiagram": 6076,
      "AV": 6077,
      "iy": 6078,
      "ona": 6079,
      "Ġsetting": 6080,
      "Ġstudente": 6081,
      "ĠFranc": 6082,
      "Ġgeskiedenis": 6083,
      "ĠVirgin": 6084,
      "Ġconvention": 6085,
      "ĠDownload": 6086,
      "yond": 6087,
      "Ġcas": 6088,
      "ulp": 6089,
      "Ġlett": 6090,
      "2020": 6091,
      "Ġentered": 6092,
      "Ġtoekoms": 6093,
      "Ġcircumstances": 6094,
      "zy": 6095,
      "Ġur": 6096,
      "Ġsense": 6097,
      "Ġvyf": 6098,
      "ĠExt": 6099,
      "Ġmyself": 6100,
      "ĠÂ©": 6101,
      "anced": 6102,
      "Ġwild": 6103,
      "itÃ©": 6104,
      "Ġment": 6105,
      "olar": 6106,
      "ĠBes": 6107,
      "ĠØ±": 6108,
      "Ġbrief": 6109,
      "Ġsituation": 6110,
      "itro": 6111,
      "ĠCP": 6112,
      "ĠDon": 6113,
      "ĠEen": 6114,
      "Ġexerc": 6115,
      "Ġsoveel": 6116,
      "ienaar": 6117,
      "allel": 6118,
      "Ġfloor": 6119,
      "Ġ140": 6120,
      "icted": 6121,
      "Ġshowing": 6122,
      "ĠFebruarie": 6123,
      "come": 6124,
      "rt": 6125,
      "}(": 6126,
      "Ġgang": 6127,
      "ĠTest": 6128,
      "ĠMond": 6129,
      "ĠBR": 6130,
      "ĠNow": 6131,
      "ĠLo": 6132,
      "Ġ523": 6133,
      "Ġ623": 6134,
      "enced": 6135,
      "Ġdetection": 6136,
      "ĠAlso": 6137,
      "ĠHenry": 6138,
      "Yes": 6139,
      "bol": 6140,
      "yer": 6141,
      "inct": 6142,
      "omy": 6143,
      "Ġled": 6144,
      "ĠCam": 6145,
      "Ġusually": 6146,
      "Ġneigh": 6147,
      "program": 6148,
      "Ġdistribut": 6149,
      "Ġorganis": 6150,
      "Ġgede": 6151,
      "ĠRob": 6152,
      "duc": 6153,
      "Ġconfiguration": 6154,
      "vi": 6155,
      "ĠHon": 6156,
      "Ġrede": 6157,
      "ĠWork": 6158,
      "ifiseer": 6159,
      "Ġverm": 6160,
      "Ġparagraph": 6161,
      "Ġdrink": 6162,
      "Ġlinear": 6163,
      "Ġcountries": 6164,
      "Ġradio": 6165,
      "Ba": 6166,
      "El": 6167,
      "vest": 6168,
      "osch": 6169,
      "oorsaak": 6170,
      "Ġoblig": 6171,
      "ĠÎ±": 6172,
      "Ġissued": 6173,
      "ĠAssoci": 6174,
      "Ġexisting": 6175,
      "ĠInde": 6176,
      "alled": 6177,
      "Ġregions": 6178,
      "Ġdistance": 6179,
      "ship": 6180,
      "Ġcontained": 6181,
      "Ġprobably": 6182,
      "arl": 6183,
      "Ġcard": 6184,
      "Ġtherm": 6185,
      "ĠMR": 6186,
      "anded": 6187,
      "Ġvoorkom": 6188,
      "process": 6189,
      "Ġouer": 6190,
      "hab": 6191,
      "ellect": 6192,
      "Ġhande": 6193,
      "lem": 6194,
      "Ġconsequ": 6195,
      "abin": 6196,
      "ĠIns": 6197,
      "Ġ72": 6198,
      "Ġsubsc": 6199,
      "Ġprovisions": 6200,
      "Ġrespective": 6201,
      "Ġrelevant": 6202,
      "Ġdollar": 6203,
      "eff": 6204,
      "inical": 6205,
      "Ġsommige": 6206,
      "Ġrank": 6207,
      "Ġalone": 6208,
      "Ġterminal": 6209,
      "Ġexposure": 6210,
      "sch": 6211,
      "ĠSonder": 6212,
      "Ġcontext": 6213,
      "Ġsust": 6214,
      "ensive": 6215,
      "Ġexchange": 6216,
      "Ġcomplet": 6217,
      "Ġstrength": 6218,
      "Ġcomputing": 6219,
      "Ġreasonable": 6220,
      "Ġgewoonlik": 6221,
      "'m": 6222,
      "cd": 6223,
      "xy": 6224,
      "anse": 6225,
      "Ġsampl": 6226,
      "itary": 6227,
      "Ġvak": 6228,
      "leg": 6229,
      "Ġgehou": 6230,
      "assing": 6231,
      "Ġerr": 6232,
      "IES": 6233,
      "MD": 6234,
      "ais": 6235,
      "ĠSelf": 6236,
      "ĠTown": 6237,
      "Ġking": 6238,
      "ĠLTE": 6239,
      "ouself": 6240,
      "undige": 6241,
      "ribute": 6242,
      "OLD": 6243,
      "data": 6244,
      "Ġconsideration": 6245,
      "daad": 6246,
      "ĠDistrict": 6247,
      "Ġmoment": 6248,
      "xi": 6249,
      "Ø²": 6250,
      "ano": 6251,
      "ĠTre": 6252,
      "ĠNaak": 6253,
      "ĠKerk": 6254,
      "angers": 6255,
      "Ġneeds": 6256,
      "ava": 6257,
      "Ġprotein": 6258,
      "Ġdeveloped": 6259,
      "eltemal": 6260,
      "ĠâĢĺâĢĺ(": 6261,
      "Ġvoorsien": 6262,
      "CO": 6263,
      "pot": 6264,
      "Â¥": 6265,
      "Ġlid": 6266,
      "Ġampl": 6267,
      "Ġthereby": 6268,
      "Ġposit": 6269,
      "Ġneeded": 6270,
      "Ġofficial": 6271,
      "ĠIII": 6272,
      "Ġ67": 6273,
      "werwe": 6274,
      "Ġsecondary": 6275,
      "Ġappears": 6276,
      "SK": 6277,
      "cks": 6278,
      "})": 6279,
      "Ġtans": 6280,
      "rot": 6281,
      "oudig": 6282,
      "Ġenerg": 6283,
      "Ġstuur": 6284,
      "law": 6285,
      "Ġcomprise": 6286,
      "Ġbelasting": 6287,
      "Ġsche": 6288,
      "2012": 6289,
      "Ġspecified": 6290,
      "Eng": 6291,
      "Ġconducted": 6292,
      "Figure": 6293,
      "oude": 6294,
      "ston": 6295,
      "Ġsuff": 6296,
      "Ġ2001": 6297,
      "Ġapproximately": 6298,
      "ĠPot": 6299,
      "Ġshare": 6300,
      "ĠUS": 6301,
      "Ġassessment": 6302,
      "Ġdoubt": 6303,
      "Ge": 6304,
      "fin": 6305,
      "âĨ": 6306,
      "Ġsak": 6307,
      "âĢŀ": 6308,
      "Ġkru": 6309,
      "ĠIss": 6310,
      "ĠHard": 6311,
      "Ġsea": 6312,
      "iform": 6313,
      "Ġuur": 6314,
      "Ġreduce": 6315,
      "Ġvrees": 6316,
      "elect": 6317,
      "ola": 6318,
      "olk": 6319,
      "ĠVers": 6320,
      "aining": 6321,
      "ella": 6322,
      "Ġgesin": 6323,
      "Ġverseker": 6324,
      "Ġentit": 6325,
      "Ġphase": 6326,
      "Ġgeskryf": 6327,
      "Ġï¿½ï¿½ï¿½ï¿½ï¿½ï¿½ï¿½ï¿½": 6328,
      "cluding": 6329,
      "Id": 6330,
      "Pr": 6331,
      "cribed": 6332,
      "gie": 6333,
      "hout": 6334,
      "ĠSn": 6335,
      "adering": 6336,
      "Ġjur": 6337,
      "Ġesc": 6338,
      "cons": 6339,
      "ded": 6340,
      "Ġtuis": 6341,
      "Ġinn": 6342,
      "ĠBa": 6343,
      "ĠGold": 6344,
      "Ġdisk": 6345,
      "Ġrelig": 6346,
      "Ġteenoor": 6347,
      "Ġpreviously": 6348,
      "View": 6349,
      "Ġsake": 6350,
      "Ġpin": 6351,
      "Ġven": 6352,
      "Ġnorth": 6353,
      "raag": 6354,
      "ĠDig": 6355,
      "Ġure": 6356,
      "Ġprices": 6357,
      "Ġunderstood": 6358,
      "Ġspecies": 6359,
      "Ġinsluit": 6360,
      "Ġcontinue": 6361,
      "ĠTrading": 6362,
      "Ġverdien": 6363,
      "Ġwireless": 6364,
      "Ġaantal": 6365,
      ",,": 6366,
      "greg": 6367,
      "mar": 6368,
      "Ø°": 6369,
      "inate": 6370,
      "Ġdans": 6371,
      "iled": 6372,
      "iday": 6373,
      "igr": 6374,
      "ĠWaar": 6375,
      "Ġflu": 6376,
      "Ġactual": 6377,
      "ditional": 6378,
      "oela": 6379,
      "Ġlangs": 6380,
      "ĠÏĢ": 6381,
      "Ġimprove": 6382,
      "Ġangle": 6383,
      "ĠSing": 6384,
      "ĠOnder": 6385,
      "Ġnumer": 6386,
      "Ġtreated": 6387,
      "PR": 6388,
      "iB": 6389,
      "isd": 6390,
      "arante": 6391,
      "Ġstil": 6392,
      "rix": 6393,
      "key": 6394,
      "Ġskin": 6395,
      "Ġagency": 6396,
      "Ġinvent": 6397,
      "ĠhoÃ«": 6398,
      "inese": 6399,
      "Ġstorie": 6400,
      "cluded": 6401,
      "Ġdatabase": 6402,
      "300": 6403,
      "eline": 6404,
      "Ġonts": 6405,
      "ĠWel": 6406,
      "Ġbyvoorbeeld": 6407,
      "ĠØ³": 6408,
      "duidelik": 6409,
      "ĠâĹ": 6410,
      "Ġplaaslike": 6411,
      "tered": 6412,
      "Ġjouself": 6413,
      "Ġveroorsaak": 6414,
      "Ġelse": 6415,
      "Ġdark": 6416,
      "Ġdyn": 6417,
      "Ġmaster": 6418,
      "asons": 6419,
      "iful": 6420,
      "laan": 6421,
      "Ġdoing": 6422,
      "ebruik": 6423,
      "Ġserved": 6424,
      "Ġbroad": 6425,
      "Ġmeasured": 6426,
      "Ġnatuurlik": 6427,
      "'ll": 6428,
      "OB": 6429,
      "Ġtill": 6430,
      "onal": 6431,
      "Ġtoer": 6432,
      "ĠToe": 6433,
      "irty": 6434,
      "Ġalbedo": 6435,
      "Ġlever": 6436,
      "ĠInformation": 6437,
      "Ġaanv": 6438,
      "Ġtransform": 6439,
      "2015": 6440,
      "body": 6441,
      "Ġaangesien": 6442,
      "Ġpolymer": 6443,
      "Ġmonitoring": 6444,
      "GL": 6445,
      "but": 6446,
      "anies": 6447,
      "Ġbeeld": 6448,
      "ĠDNA": 6449,
      "ĠForm": 6450,
      "Ġitem": 6451,
      "Ġuseful": 6452,
      "Ġproduce": 6453,
      "Ġcommunications": 6454,
      "gebied": 6455,
      "Ġindex": 6456,
      "ĠSeries": 6457,
      "Ġgirls": 6458,
      "Ġsympt": 6459,
      "iÃ«nte": 6460,
      "MB": 6461,
      "aand": 6462,
      "Ġau": 6463,
      "oma": 6464,
      "stof": 6465,
      "ĠAR": 6466,
      "Ġrear": 6467,
      "ĠBur": 6468,
      "dek": 6469,
      "ĠHome": 6470,
      "ĠNeder": 6471,
      "clusion": 6472,
      "ANT": 6473,
      "Ġfeed": 6474,
      "house": 6475,
      "Ġdiscover": 6476,
      "ĠAmerica": 6477,
      "ĠRoad": 6478,
      "enskappe": 6479,
      "Ġprocedure": 6480,
      "fontein": 6481,
      "RNA": 6482,
      "ga": 6483,
      "Ġbit": 6484,
      "ĠLos": 6485,
      "ĠLiefde": 6486,
      "Ġque": 6487,
      "Ġbelangrike": 6488,
      "ĠColle": 6489,
      "Ġcaused": 6490,
      "Ġlarger": 6491,
      "Ġcentral": 6492,
      "eler": 6493,
      "Ġinject": 6494,
      "Ġfee": 6495,
      "raft": 6496,
      "Ġomgewing": 6497,
      "Ġexact": 6498,
      "epe": 6499,
      "Ġshape": 6500,
      "ĠStand": 6501,
      "Ġestimated": 6502,
      "CT": 6503,
      "rink": 6504,
      "Ġmother": 6505,
      "Ġhope": 6506,
      "Ġparticles": 6507,
      "Ø³ÙĦÙħ": 6508,
      "Ġrisiko": 6509,
      "ĠReview": 6510,
      "ubliseer": 6511,
      ".]": 6512,
      "Gen": 6513,
      "year": 6514,
      "Ġsell": 6515,
      "ĠSou": 6516,
      "ĠGreat": 6517,
      "liks": 6518,
      "Ġplants": 6519,
      "Ġcontainer": 6520,
      "âĸłâĸł": 6521,
      "Ġadvantage": 6522,
      "Ġthousand": 6523,
      "cast": 6524,
      "nis": 6525,
      "Ġkans": 6526,
      "Ġfort": 6527,
      "Ġdead": 6528,
      "ĠOl": 6529,
      "Ġmov": 6530,
      "Ġanything": 6531,
      "Ġunderstand": 6532,
      "Ġextract": 6533,
      "Ġbehoort": 6534,
      "volg": 6535,
      "ĠCode": 6536,
      "related": 6537,
      "sor": 6538,
      "Ġfer": 6539,
      "urday": 6540,
      "ĠFour": 6541,
      "ĠFotos": 6542,
      "Ġvermo": 6543,
      "Ġrole": 6544,
      "Ġvolk": 6545,
      "Ġwaarop": 6546,
      "Ġdelay": 6547,
      "Ġcontroller": 6548,
      "ca": 6549,
      "Ġerk": 6550,
      "eros": 6551,
      "Ġware": 6552,
      "Ġfo": 6553,
      "Ġhof": 6554,
      "ĠPan": 6555,
      "Ġproport": 6556,
      "Ġworth": 6557,
      "Ġexpressed": 6558,
      "ĠUniversiteit": 6559,
      "Vir": 6560,
      "tjie": 6561,
      "Ġfit": 6562,
      "ĠAS": 6563,
      "ikasie": 6564,
      "cccc": 6565,
      "Ġ115": 6566,
      "ishing": 6567,
      "Ġindicate": 6568,
      "Con": 6569,
      "PG": 6570,
      "mond": 6571,
      "Ġvict": 6572,
      "ĠBest": 6573,
      "ĠPub": 6574,
      "ĠGreen": 6575,
      "ĠOpt": 6576,
      "aph": 6577,
      "Ġattached": 6578,
      "diens": 6579,
      "Ġcop": 6580,
      "Ġtoest": 6581,
      "ulate": 6582,
      "rome": 6583,
      "rij": 6584,
      "Ġ114": 6585,
      "Ġfacilities": 6586,
      "EX": 6587,
      "iÃ³n": 6588,
      "roid": 6589,
      "Ġlab": 6590,
      "Ġrent": 6591,
      "ĠEg": 6592,
      "antic": 6593,
      "Ġpatent": 6594,
      "ĠWhile": 6595,
      "Ġsolid": 6596,
      "ao": 6597,
      "dision": 6598,
      "hank": 6599,
      "voeg": 6600,
      "war": 6601,
      "ĠoÃ«": 6602,
      "reme": 6603,
      "icate": 6604,
      "Ġlost": 6605,
      "ĠMex": 6606,
      "ĠHel": 6607,
      "ĠFoto": 6608,
      "illing": 6609,
      "ï¿½??": 6610,
      "Ġ78": 6611,
      "enez": 6612,
      "Ġkommentaar": 6613,
      "inning": 6614,
      "Ġphosph": 6615,
      "Ġgraf": 6616,
      "tog": 6617,
      "Ø´": 6618,
      "Ġwide": 6619,
      "Ġtowards": 6620,
      "ĠCR": 6621,
      "Ġheer": 6622,
      "osa": 6623,
      "ĠâĢĭ": 6624,
      "Ġverhouding": 6625,
      "Ġverantwoord": 6626,
      "Ġvariety": 6627,
      "Ġantib": 6628,
      "omblik": 6629,
      "400": 6630,
      "cement": 6631,
      "ĠSK": 6632,
      "ĠDay": 6633,
      "ĠIV": 6634,
      "ĠWit": 6635,
      "Ġseason": 6636,
      "Ġequipment": 6637,
      "ekeÃ¢": 6638,
      "Ġopinie": 6639,
      "Med": 6640,
      "ĠMale": 6641,
      "ĠIll": 6642,
      "ĠWhe": 6643,
      "Ġ06": 6644,
      "prov": 6645,
      "rick": 6646,
      "Ġfourth": 6647,
      "Ġregarding": 6648,
      "Ġaspects": 6649,
      "CA": 6650,
      "UI": 6651,
      "bury": 6652,
      "dem": 6653,
      "lop": 6654,
      "icondu": 6655,
      "Ġonlang": 6656,
      "ulty": 6657,
      "ĠBas": 6658,
      "ĠWanneer": 6659,
      "iforn": 6660,
      "Ġexempl": 6661,
      "iency": 6662,
      "Ġquestions": 6663,
      "Ġthroughout": 6664,
      "Ġsleg": 6665,
      "Ġcreate": 6666,
      "Ġdesigned": 6667,
      "Ġbinn": 6668,
      "asm": 6669,
      "Ġkons": 6670,
      "Ġinternet": 6671,
      "Ġxxx": 6672,
      "woordig": 6673,
      "Ġgeleentheid": 6674,
      "cular": 6675,
      "Ġhearing": 6676,
      "ĠPress": 6677,
      "ĠEngel": 6678,
      "Ġminim": 6679,
      "blief": 6680,
      "INGS": 6681,
      "Ġsexy": 6682,
      "Ġvroe": 6683,
      "Ġconcentration": 6684,
      "oet": 6685,
      "Ġbod": 6686,
      "Ġgiving": 6687,
      "stream": 6688,
      "Ġresistance": 6689,
      "Ġpermit": 6690,
      "ĠAD": 6691,
      "ĠAvenue": 6692,
      "uta": 6693,
      "ria": 6694,
      "Ġagents": 6695,
      "Ġemissions": 6696,
      "AMP": 6697,
      "Ġargument": 6698,
      "known": 6699,
      "MA": 6700,
      "Ġcum": 6701,
      "ulu": 6702,
      "ulike": 6703,
      "acent": 6704,
      "Ġmove": 6705,
      "Ġaccepted": 6706,
      "Ġletters": 6707,
      "bur": 6708,
      "ta": 6709,
      "Ð»": 6710,
      "Ġded": 6711,
      "Ġmarried": 6712,
      "Ġasse": 6713,
      "Ġteeth": 6714,
      "Ġseven": 6715,
      "Ġrock": 6716,
      "Ġnoem": 6717,
      "skrif": 6718,
      "Ġsurfaces": 6719,
      "Ø±ÙĬ": 6720,
      "Ġlaws": 6721,
      "Ġcompleted": 6722,
      "ĠâĢĭâĢĭ": 6723,
      "All": 6724,
      "GS": 6725,
      "buis": 6726,
      "kers": 6727,
      "ng": 6728,
      "Ġion": 6729,
      "err": 6730,
      "Ġhop": 6731,
      "store": 6732,
      "Ġheeltemal": 6733,
      "ĠBL": 6734,
      "this": 6735,
      "Ġdaarna": 6736,
      "Ġschem": 6737,
      "Ġproblems": 6738,
      "Ġguide": 6739,
      "ĠRepublic": 6740,
      "Ġliber": 6741,
      "Ġstraight": 6742,
      "Ġinfluence": 6743,
      ">\\": 6744,
      "ios": 6745,
      "orney": 6746,
      "oming": 6747,
      "ĠBook": 6748,
      "abol": 6749,
      "Ġarch": 6750,
      "ĠAlthough": 6751,
      "mooth": 6752,
      "Ġprobleme": 6753,
      "urban": 6754,
      "geneem": 6755,
      "Ġvac": 6756,
      "rack": 6757,
      "ĠPRO": 6758,
      "ecause": 6759,
      "ALE": 6760,
      "Ġfinans": 6761,
      "ĠINSP": 6762,
      "Ġsynthe": 6763,
      "Ġratio": 6764,
      "ka": 6765,
      "Ġhighest": 6766,
      "Ġgives": 6767,
      "ĠTex": 6768,
      "Ġkept": 6769,
      "Ġstim": 6770,
      "2011": 6771,
      "ĠInternet": 6772,
      "ĠWorld": 6773,
      "Ġoorspr": 6774,
      "Ġtar": 6775,
      "ĠAfrikan": 6776,
      "ĠIr": 6777,
      "ĠIEEE": 6778,
      "amel": 6779,
      "ĠRad": 6780,
      "ĠVoor": 6781,
      "iences": 6782,
      "Ġ106": 6783,
      "Ġoutside": 6784,
      "Ġmoder": 6785,
      "oyal": 6786,
      "ÙĪÙĦ": 6787,
      "neming": 6788,
      "OI": 6789,
      "zen": 6790,
      "edig": 6791,
      "Ġmale": 6792,
      "icine": 6793,
      "ĠCr": 6794,
      "irk": 6795,
      "Ġren": 6796,
      "ĠEv": 6797,
      "Ġcomes": 6798,
      "plant": 6799,
      "Ġplane": 6800,
      "ĠAnt": 6801,
      "ĠClass": 6802,
      "ĠSecretary": 6803,
      "hancement": 6804,
      "yne": 6805,
      "Ġoomblik": 6806,
      "Ġregistr": 6807,
      "Ġelectric": 6808,
      "Ġoccasion": 6809,
      "Ġgenerated": 6810,
      "Ã¯n": 6811,
      "ography": 6812,
      "iples": 6813,
      "html": 6814,
      "ĠINSPECTION": 6815,
      "Ġsink": 6816,
      "Ġeight": 6817,
      "pping": 6818,
      "Ġadvert": 6819,
      "Ġplus": 6820,
      "inkryk": 6821,
      "Ġ2021": 6822,
      "Ġverband": 6823,
      "ĠService": 6824,
      "fil": 6825,
      "Ġhang": 6826,
      "icon": 6827,
      "ĠMess": 6828,
      "Ġkoste": 6829,
      "ĠWind": 6830,
      "ĠRS": 6831,
      "Ġbehav": 6832,
      "Asiatiese": 6833,
      "Ġprotection": 6834,
      "Ġregulations": 6835,
      "Ġruim": 6836,
      "Ġadopted": 6837,
      "BR": 6838,
      "erd": 6839,
      "Ġtoep": 6840,
      "Ġeks": 6841,
      "Ġ82": 6842,
      "Ġgevind": 6843,
      "ACT": 6844,
      "ĠØŃØ¯": 6845,
      "Ġwaarskynlik": 6846,
      "Ġmaximum": 6847,
      "Ġafgelope": 6848,
      "-,": 6849,
      "hr": 6850,
      "Ġfuck": 6851,
      "ĠMA": 6852,
      "ĠGees": 6853,
      "Ġverge": 6854,
      "Ġemerg": 6855,
      "Ġmeasures": 6856,
      "Ġcounter": 6857,
      "mail": 6858,
      "Ġtalk": 6859,
      "Ġcategor": 6860,
      "Ġlu": 6861,
      "Ġthou": 6862,
      "Ġstress": 6863,
      "ĠRock": 6864,
      "ĠProte": 6865,
      "iately": 6866,
      "Ġgereeld": 6867,
      "ÃĻe": 6868,
      "Ġdetails": 6869,
      "ĠVirginia": 6870,
      "$\\": 6871,
      "OK": 6872,
      "cr": 6873,
      "win": 6874,
      "ĠMot": 6875,
      "ĠMember": 6876,
      "Ġbeyond": 6877,
      "ĠBet": 6878,
      "ĠNEW": 6879,
      "Ġverandering": 6880,
      "Ġrapid": 6881,
      "Ġwerklik": 6882,
      "ACH": 6883,
      "ĠMethod": 6884,
      "Sec": 6885,
      "Ġtien": 6886,
      "Ġgall": 6887,
      "ĠTwo": 6888,
      "Ġkat": 6889,
      "ivate": 6890,
      "ayer": 6891,
      "ĠED": 6892,
      "Ġcomment": 6893,
      "Ġdischarge": 6894,
      "Ġability": 6895,
      "Ġnuut": 6896,
      "Ġimplant": 6897,
      "Ġfokus": 6898,
      "Ġenjoy": 6899,
      "?âĢĿ": 6900,
      "Suid": 6901,
      "aul": 6902,
      "ba": 6903,
      "fees": 6904,
      "Ġfear": 6905,
      "roud": 6906,
      "Ġretain": 6907,
      "Ġ210": 6908,
      "Ġconver": 6909,
      "Ġverby": 6910,
      "Ġexhib": 6911,
      "Ġ76": 6912,
      "Ġentity": 6913,
      "Ġcarry": 6914,
      "Ġsupported": 6915,
      "ĠSaturday": 6916,
      "ĠØ¹ÙĦÙĬÙĩ": 6917,
      "ellectual": 6918,
      "Ġasseblief": 6919,
      "Cont": 6920,
      "GB": 6921,
      "cur": 6922,
      "mor": 6923,
      "nie": 6924,
      "Ġtale": 6925,
      "Ġpict": 6926,
      "Ġhoekom": 6927,
      "ĠPD": 6928,
      "ĠHill": 6929,
      "Ġverduidelik": 6930,
      "Ġ69": 6931,
      "Ġinterpret": 6932,
      "Ġaccomp": 6933,
      "Ġeasy": 6934,
      "Ġinstitution": 6935,
      "600": 6936,
      "mas": 6937,
      "Ġdele": 6938,
      "aris": 6939,
      "ĠMense": 6940,
      "ocr": 6941,
      "clock": 6942,
      "Ġgebore": 6943,
      "Ġgeweld": 6944,
      "Ġcontinued": 6945,
      "Ġremains": 6946,
      "Posted": 6947,
      "phen": 6948,
      "Ġsouth": 6949,
      "Ġvon": 6950,
      "ĠFace": 6951,
      "ĠWarr": 6952,
      "Ġdiere": 6953,
      "enger": 6954,
      "ĠNews": 6955,
      "Ġdaag": 6956,
      "Ġpossession": 6957,
      "Ġturned": 6958,
      "bour": 6959,
      "Ġ250": 6960,
      "Ġvanity": 6961,
      "Ġnoted": 6962,
      "oster": 6963,
      "resh": 6964,
      "Ġpredetermined": 6965,
      "Ġdomain": 6966,
      "IAL": 6967,
      "itors": 6968,
      "Ġcru": 6969,
      "omat": 6970,
      "Ġlys": 6971,
      "ĠBill": 6972,
      "Ġverspre": 6973,
      "Ġrelation": 6974,
      "ĠArch": 6975,
      "Ġaffected": 6976,
      "Ġresulting": 6977,
      "ĠØ£Ø¨ÙĬ": 6978,
      "Ġofficers": 6979,
      "PI": 6980,
      "core": 6981,
      "Ġtry": 6982,
      "Ġvs": 6983,
      "raak": 6984,
      "rage": 6985,
      "Ġexcess": 6986,
      "Ġchall": 6987,
      "Ġchief": 6988,
      "ORT": 6989,
      "ETAIL": 6990,
      "Ġserious": 6991,
      "nemers": 6992,
      "ĠAfrican": 6993,
      "Res": 6994,
      "Ġsend": 6995,
      "Ġbathroom": 6996,
      "Ġpick": 6997,
      "ether": 6998,
      "stant": 6999,
      "ekende": 7000,
      "ĠEUR": 7001,
      "ĠJer": 7002,
      "Ġ105": 7003,
      "Ġvalid": 7004,
      "ISH": 7005,
      "Ġcenter": 7006,
      "ĠPersoonlike": 7007,
      "Ġdiagn": 7008,
      "PD": 7009,
      "PV": 7010,
      "itud": 7011,
      "Ġpipe": 7012,
      "entially": 7013,
      "irmed": 7014,
      "ĠBE": 7015,
      "abil": 7016,
      "Ġlewer": 7017,
      "Ġ87": 7018,
      "Ġuitst": 7019,
      "2009": 7020,
      "Ġrepresented": 7021,
      "Ġentitled": 7022,
      "riek": 7023,
      "Ġswe": 7024,
      "ĠOb": 7025,
      "ĠKids": 7026,
      "Ġentry": 7027,
      "ĠJohnson": 7028,
      "ĠApplic": 7029,
      "Ġpolitical": 7030,
      "Ġgranted": 7031,
      "Ġenigste": 7032,
      "Table": 7033,
      "pas": 7034,
      "Ġgaste": 7035,
      "ĠTel": 7036,
      "abis": 7037,
      "Ġarray": 7038,
      "Ġvrae": 7039,
      "Ġkontak": 7040,
      "Ġcoupled": 7041,
      "UC": 7042,
      "bok": 7043,
      "ball": 7044,
      "iar": 7045,
      "rument": 7046,
      "word": 7047,
      "Ø¶": 7048,
      "Ġtek": 7049,
      "Ġoore": 7050,
      "alse": 7051,
      "Ġhers": 7052,
      "ĠOor": 7053,
      "artement": 7054,
      "Ġ81": 7055,
      "Ġphot": 7056,
      "MC": 7057,
      "Sch": 7058,
      "inyl": 7059,
      "isation": 7060,
      "irts": 7061,
      "ĠDiv": 7062,
      "Ġverst": 7063,
      "Ġ83": 7064,
      "Ġemos": 7065,
      "Ġends": 7066,
      "ĠScience": 7067,
      "You": 7068,
      "cel": 7069,
      "gas": 7070,
      "Ġvrug": 7071,
      "Ġfol": 7072,
      "ĠRIB": 7073,
      "ĠUSA": 7074,
      "Ġinstrument": 7075,
      "ĠMaroela": 7076,
      "enning": 7077,
      "ĠRobert": 7078,
      "vaardig": 7079,
      "Ġhoriz": 7080,
      "Ġdiscussed": 7081,
      "DR": 7082,
      "uin": 7083,
      "imax": 7084,
      "uidige": 7085,
      "Ġpassage": 7086,
      "Ġindependent": 7087,
      "Ġplekke": 7088,
      "Ġnegative": 7089,
      "Ġeducation": 7090,
      "del": 7091,
      "ĠDR": 7092,
      "osen": 7093,
      "ĠNOT": 7094,
      "orting": 7095,
      "rywing": 7096,
      "Ġcann": 7097,
      "ultuur": 7098,
      "Ġvolwasse": 7099,
      "Ġflash": 7100,
      "Ġ116": 7101,
      "Ind": 7102,
      "ĠceW": 7103,
      "Ġpiston": 7104,
      "250": 7105,
      "veld": 7106,
      "ota": 7107,
      "Ġja": 7108,
      "ensation": 7109,
      "ĠKor": 7110,
      "Ġsoort": 7111,
      "ERE": 7112,
      "ski": 7113,
      "Ġefforts": 7114,
      "Ġequival": 7115,
      "ECT": 7116,
      "Ġtrust": 7117,
      "Ġhorse": 7118,
      "Ġsowel": 7119,
      "Ġbonus": 7120,
      "GK": 7121,
      "Ġburg": 7122,
      "Ġstage": 7123,
      "Ġorders": 7124,
      "ologies": 7125,
      "ĠSoos": 7126,
      "ĠOntmoeting": 7127,
      "Ġtoegang": 7128,
      "Ġfailure": 7129,
      "meer": 7130,
      "mekaar": 7131,
      "Ġsedert": 7132,
      "ĠSale": 7133,
      "Ġeens": 7134,
      "ĠBY": 7135,
      "ĠBed": 7136,
      "eef": 7137,
      "Ġattack": 7138,
      "Ġensure": 7139,
      "sych": 7140,
      "####": 7141,
      "uy": 7142,
      "à¤": 7143,
      "Ġrom": 7144,
      "ĠDen": 7145,
      "ague": 7146,
      "Ġclosed": 7147,
      "Ġevents": 7148,
      "Ġuiteindelik": 7149,
      "Ġot": 7150,
      "Ġoog": 7151,
      "Ġmand": 7152,
      "stryd": 7153,
      "utive": 7154,
      "ĠWall": 7155,
      "vee": 7156,
      "Ġ84": 7157,
      "ateriaal": 7158,
      "ARY": 7159,
      "Ġparallel": 7160,
      "minder": 7161,
      "Ġshowed": 7162,
      "ĠÏĥ": 7163,
      "Ġpolitieke": 7164,
      "RX": 7165,
      "Sub": 7166,
      "besk": 7167,
      "Ġtask": 7168,
      "Ġvote": 7169,
      "Ġkap": 7170,
      "ikipedia": 7171,
      "istiese": 7172,
      "Ġ07": 7173,
      "2014": 7174,
      "ĠOpen": 7175,
      "Ġrecorded": 7176,
      "Ġreduction": 7177,
      "Ġcovered": 7178,
      "Ġbenefits": 7179,
      "Ġindustry": 7180,
      "Ġexemplary": 7181,
      "Cross": 7182,
      "nel": 7183,
      "Ġpump": 7184,
      "Ġfi": 7185,
      "Ġlack": 7186,
      "ida": 7187,
      "ĠMult": 7188,
      "isters": 7189,
      "icht": 7190,
      "Ġskuld": 7191,
      "Ġrecently": 7192,
      "Ġconsisting": 7193,
      "Ġattach": 7194,
      "Ġprocesses": 7195,
      "Ġpursu": 7196,
      "Ġreports": 7197,
      "Ġoffered": 7198,
      "Ġprotocol": 7199,
      "Ste": 7200,
      "Î´": 7201,
      "ieer": 7202,
      "Ġveld": 7203,
      "lei": 7204,
      "ĠDate": 7205,
      "uled": 7206,
      "odig": 7207,
      "nee": 7208,
      "Ġarmy": 7209,
      "Ġeth": 7210,
      "Ġproduk": 7211,
      "Ġsmart": 7212,
      "ĠWhere": 7213,
      "Ġinterests": 7214,
      "Ġeasily": 7215,
      "Ġcollection": 7216,
      "ĠØŃØ¯Ø«": 7217,
      "Ġpark": 7218,
      "ĠTem": 7219,
      "Ġbecomes": 7220,
      "uly": 7221,
      "images": 7222,
      "Ġhear": 7223,
      "Ġsteel": 7224,
      "reshold": 7225,
      "psie": 7226,
      "enna": 7227,
      "Ġsowat": 7228,
      "ĠMaatsoekwebwerf": 7229,
      "wig": 7230,
      "Ġdanger": 7231,
      "ala": 7232,
      "ĠTry": 7233,
      "ulic": 7234,
      "def": 7235,
      "ĠHall": 7236,
      "ĠFort": 7237,
      "weeg": 7238,
      "Ġ96": 7239,
      "Ġrequires": 7240,
      "risis": 7241,
      "Ġextra": 7242,
      "Ġtermin": 7243,
      "ĠkeÃ¢e": 7244,
      "ĠAfsprake": 7245,
      "ĠWestern": 7246,
      "Ġgirl": 7247,
      "Ġfigure": 7248,
      "Ġsulke": 7249,
      "RN": 7250,
      "itative": 7251,
      "rehen": 7252,
      "Ġflex": 7253,
      "Ġ74": 7254,
      "annie": 7255,
      "Ġtraffic": 7256,
      "ompet": 7257,
      "tics": 7258,
      "Ġlooking": 7259,
      "Ġsomet": 7260,
      "Ġbeweeg": 7261,
      "ĠIR": 7262,
      "ĠWH": 7263,
      "ĠLong": 7264,
      "anges": 7265,
      "Ġ600": 7266,
      "Ġ1999": 7267,
      "erved": 7268,
      "Ġbeginning": 7269,
      "Ġfactor": 7270,
      "oxy": 7271,
      "Ġdui": 7272,
      "Ġdiscussion": 7273,
      "ĠSociety": 7274,
      "enigde": 7275,
      "DS": 7276,
      "MLS": 7277,
      "aver": 7278,
      "yder": 7279,
      "Ġexceed": 7280,
      "ĠChild": 7281,
      "Ġtruth": 7282,
      "Ġinside": 7283,
      "Ġcrim": 7284,
      "Ġpremises": 7285,
      "Ġpryse": 7286,
      "Ġkamp": 7287,
      "Ġreeks": 7288,
      "ĠEduc": 7289,
      "essor": 7290,
      "Ġprodukte": 7291,
      "Ġsimply": 7292,
      "Ġalleen": 7293,
      "Ġtechnology": 7294,
      "Ġpromot": 7295,
      "Ġpreparation": 7296,
      "Ġthickness": 7297,
      "gere": 7298,
      "hood": 7299,
      "woorde": 7300,
      "Ġerg": 7301,
      "Ġdorp": 7302,
      "olid": 7303,
      "Ġbeam": 7304,
      "ĠWord": 7305,
      "ĠGlo": 7306,
      "ĠRap": 7307,
      "Ġsoil": 7308,
      "ĠAng": 7309,
      "ï¿½ï¿½ï¿½": 7310,
      "Ġgebied": 7311,
      "arged": 7312,
      "Ġbuilt": 7313,
      "Ġhandelaars": 7314,
      "Ġanti": 7315,
      "ĠFloor": 7316,
      "Ġmembrane": 7317,
      "Ġbegins": 7318,
      "ĠPlaaslike": 7319,
      "here": 7320,
      "Ġmeng": 7321,
      "leur": 7322,
      "ĠSun": 7323,
      "Ġsport": 7324,
      "Ġ103": 7325,
      "Ġminister": 7326,
      "Ġserve": 7327,
      "Volgens": 7328,
      "ETAILED": 7329,
      "lt": 7330,
      "Ġoef": 7331,
      "Ġdek": 7332,
      "icit": 7333,
      "Ġbegan": 7334,
      "Ġreached": 7335,
      "lae": 7336,
      "ĠStock": 7337,
      "Ġadap": 7338,
      "print": 7339,
      "Ġcarrying": 7340,
      "Ġbeskryf": 7341,
      "ipping": 7342,
      "Ġalgemeen": 7343,
      "Ġopposite": 7344,
      "iconductor": 7345,
      "ael": 7346,
      "Ġbloot": 7347,
      "Ġmatch": 7348,
      "ĠCell": 7349,
      "ĠCape": 7350,
      "ĠLife": 7351,
      "Ġcoming": 7352,
      "issie": 7353,
      "omme": 7354,
      "Ġvolle": 7355,
      "grond": 7356,
      "mediately": 7357,
      "Ġcontinuous": 7358,
      "Ġaandag": 7359,
      "Ġcompounds": 7360,
      "Ġpowder": 7361,
      "ĠMonday": 7362,
      "Mar": 7363,
      "Ġsmooth": 7364,
      "Ġwon": 7365,
      "Ġpunt": 7366,
      "ĠDou": 7367,
      "ching": 7368,
      "ections": 7369,
      "encing": 7370,
      "Ġactually": 7371,
      "Ġnumbers": 7372,
      "Ġgereed": 7373,
      "ĠÙħØŃÙħØ¯": 7374,
      "Ġfaith": 7375,
      "ĠSpring": 7376,
      "Ġvorige": 7377,
      "Ġverantwoordelik": 7378,
      "How": 7379,
      "Ġsor": 7380,
      "Ġwish": 7381,
      "Ġweke": 7382,
      "Ġhuidige": 7383,
      "Ġkuns": 7384,
      "ĠWet": 7385,
      "Ġ1996": 7386,
      "ignment": 7387,
      "Ġ91": 7388,
      "Ġgran": 7389,
      "ticle": 7390,
      "And": 7391,
      "Ġpurchase": 7392,
      "Ġeenvoudig": 7393,
      "Ġdelivered": 7394,
      "mi": 7395,
      "Ġooit": 7396,
      "Ġmel": 7397,
      "Ġpyn": 7398,
      "Ġveg": 7399,
      "Ġfra": 7400,
      "Ġfirm": 7401,
      "Ġeye": 7402,
      "ĠDES": 7403,
      "Ġstre": 7404,
      "Ġ77": 7405,
      "Ġraised": 7406,
      "ologiese": 7407,
      "Ġcapable": 7408,
      "ĠGroup": 7409,
      "Ġderde": 7410,
      "Ġgemeente": 7411,
      "Ã¼r": 7412,
      "()": 7413,
      "dam": 7414,
      "wal": 7415,
      "heen": 7416,
      "Ġboodskap": 7417,
      "Ġcert": 7418,
      "icles": 7419,
      "Ġlov": 7420,
      "Ġluister": 7421,
      "Ġbear": 7422,
      "ĠElect": 7423,
      "ksies": 7424,
      "Ġquick": 7425,
      "Ġouder": 7426,
      "Ġready": 7427,
      "What": 7428,
      "Ġeconomic": 7429,
      "Ġfabric": 7430,
      "sig": 7431,
      "Ġwins": 7432,
      "Ġbud": 7433,
      "icular": 7434,
      "ĠDuring": 7435,
      "ĠPC": 7436,
      "Ġincreasing": 7437,
      "ĠMinister": 7438,
      "Ġcycle": 7439,
      "FP": 7440,
      "cence": 7441,
      "mann": 7442,
      "yg": 7443,
      "anal": 7444,
      "Ġrust": 7445,
      "ĠGel": 7446,
      "ĠLang": 7447,
      "Ġmoord": 7448,
      "Ġafs": 7449,
      "Ġperhaps": 7450,
      "Ġblads": 7451,
      "Ġboeke": 7452,
      "ĠKlets": 7453,
      "?\"": 7454,
      "enie": 7455,
      "ici": 7456,
      "ĠHart": 7457,
      "ĠEsel": 7458,
      "Ġ\"/": 7459,
      "Ġdisp": 7460,
      "Ġmeaning": 7461,
      "----------------": 7462,
      "ĠDavid": 7463,
      "ĠSLAT": 7464,
      "Home": 7465,
      "Ġtal": 7466,
      "Ġcivil": 7467,
      "Ġhab": 7468,
      "adies": 7469,
      "ĠFC": 7470,
      "pped": 7471,
      "perty": 7472,
      "ibly": 7473,
      "Ġsales": 7474,
      "Ġwaarheid": 7475,
      "Ġbehalf": 7476,
      "Ġoption": 7477,
      "Ġelkeen": 7478,
      "brid": 7479,
      "Ġcalculated": 7480,
      "ifornia": 7481,
      "ycl": 7482,
      "Ġwest": 7483,
      "Ġtoon": 7484,
      "ĠColl": 7485,
      "Ġrefr": 7486,
      "cht": 7487,
      "Ġ03": 7488,
      "ĠChic": 7489,
      "inkels": 7490,
      "Ġwaarvan": 7491,
      "Ġblue": 7492,
      "move": 7493,
      "airy": 7494,
      "ACE": 7495,
      "Ġverbeter": 7496,
      "Ġidea": 7497,
      "ĠEnkellopende": 7498,
      "Ġparticipants": 7499,
      "Ġmajority": 7500,
      "ĠKaapstad": 7501,
      "druk": 7502,
      "iÃ©": 7503,
      "orage": 7504,
      "Ġmortg": 7505,
      "ĠTwe": 7506,
      "ceived": 7507,
      "ĠKiB": 7508,
      "ĠInst": 7509,
      "ĠStad": 7510,
      "ontal": 7511,
      "Ġemp": 7512,
      "uleer": 7513,
      "Ġextending": 7514,
      "Ġsusp": 7515,
      "ĠFurthermore": 7516,
      "Ġbaba": 7517,
      "Ġdiameter": 7518,
      "atuur": 7519,
      "Ġreken": 7520,
      "ĠPower": 7521,
      "ĠGerm": 7522,
      "Ġspy": 7523,
      "Ġspot": 7524,
      "eping": 7525,
      "Ġchrom": 7526,
      "spel": 7527,
      "oenie": 7528,
      "entrum": 7529,
      "Ġprofile": 7530,
      "Ġopened": 7531,
      "Ġindeed": 7532,
      "Ġimportance": 7533,
      "CRIP": 7534,
      "Ġgestuur": 7535,
      "ĠNuwe": 7536,
      "Ġparameters": 7537,
      "Ġappointed": 7538,
      "Ġpragtige": 7539,
      "cor": 7540,
      "pie": 7541,
      "Ġactions": 7542,
      "ros": 7543,
      "Ġonver": 7544,
      "irth": 7545,
      "apor": 7546,
      "ubbel": 7547,
      "Ġ88": 7548,
      "Ġgesig": 7549,
      "Ġquarter": 7550,
      "Ġblog": 7551,
      "Ġpeace": 7552,
      "Ġproperly": 7553,
      "ĠkeÃ¢er": 7554,
      "Ġannual": 7555,
      "ĠVigrax": 7556,
      "ĠBusiness": 7557,
      "lam": 7558,
      "Ġvary": 7559,
      "Ġharm": 7560,
      "raulic": 7561,
      "oding": 7562,
      "ĠNote": 7563,
      "Ġwaters": 7564,
      "wees": 7565,
      "Ġleading": 7566,
      "prise": 7567,
      "Ġguarante": 7568,
      "Ġcreated": 7569,
      "Ġplaces": 7570,
      "Ġfunds": 7571,
      "Ġontwikkeling": 7572,
      "Ġervaar": 7573,
      "roy": 7574,
      "lets": 7575,
      "Ġearn": 7576,
      "aken": 7577,
      "Ġjury": 7578,
      "Ġindonesia": 7579,
      "volution": 7580,
      "dd": 7581,
      "deling": 7582,
      "gments": 7583,
      "ket": 7584,
      "zed": 7585,
      "Ġaard": 7586,
      "Ġsorg": 7587,
      "Ġverminder": 7588,
      "phy": 7589,
      "Ġscope": 7590,
      "ĠGrand": 7591,
      "Ġpure": 7592,
      "Ġgame": 7593,
      "Ġeuro": 7594,
      "Ġlede": 7595,
      "Ġ230": 7596,
      "Ġheight": 7597,
      "Ġseek": 7598,
      "indle": 7599,
      "poss": 7600,
      "ĠEnd": 7601,
      "Ġcloud": 7602,
      "Ġtrading": 7603,
      "Ġslag": 7604,
      "Ġconstruct": 7605,
      "Ġkleur": 7606,
      "Ġdaughter": 7607,
      "ĠVolg": 7608,
      "Ġderiv": 7609,
      "ĠAtl": 7610,
      "Ġlateral": 7611,
      "ĠCorporation": 7612,
      "Ġarrangement": 7613,
      "iede": 7614,
      "Ġlande": 7615,
      "urer": 7616,
      "open": 7617,
      "rue": 7618,
      "eller": 7619,
      "Ġimmediately": 7620,
      "formance": 7621,
      "Ġpara": 7622,
      "Ġperman": 7623,
      "Ġimproved": 7624,
      "ĠPaulus": 7625,
      "UD": 7626,
      "gang": 7627,
      "mes": 7628,
      "uing": 7629,
      "vat": 7630,
      "Ġcold": 7631,
      "Ġgelyk": 7632,
      "agtes": 7633,
      "ĠLam": 7634,
      "Ġteam": 7635,
      "ensions": 7636,
      "Ġ73": 7637,
      "Ġdaaroor": 7638,
      "Ġ93": 7639,
      "Ġwaarom": 7640,
      "Ġsecure": 7641,
      "inson": 7642,
      "ftes": 7643,
      "ĠDeur": 7644,
      "Ġvlak": 7645,
      "Ġoxide": 7646,
      "Ġpetitioner": 7647,
      "Ġsosiale": 7648,
      "Ġsometimes": 7649,
      "Te": 7650,
      "Us": 7651,
      "Ġaim": 7652,
      "Ġmask": 7653,
      "Ġphen": 7654,
      "odge": 7655,
      "ĠGL": 7656,
      "lax": 7657,
      "eps": 7658,
      "INE": 7659,
      "ohol": 7660,
      "ÙĩØ§": 7661,
      "ĠÃĹ": 7662,
      "Spes": 7663,
      "Ġsig": 7664,
      "Ġduur": 7665,
      "Ġ86": 7666,
      "Ġ89": 7667,
      "Ġgenerate": 7668,
      "OG": 7669,
      "uie": 7670,
      "Ġsac": 7671,
      "Ġdose": 7672,
      "Ġgar": 7673,
      "ilige": 7674,
      "imb": 7675,
      "usal": 7676,
      "ĠFund": 7677,
      "ĠRest": 7678,
      "Ġvoet": 7679,
      "Ġrecommend": 7680,
      "150": 7681,
      "hol": 7682,
      "pop": 7683,
      "Ġvet": 7684,
      "Ġscale": 7685,
      "2010": 7686,
      "Ġhighly": 7687,
      "Ø¨ÙĨ": 7688,
      "Ġdirected": 7689,
      "ci": 7690,
      "Ġpour": 7691,
      "iling": 7692,
      "Ġrus": 7693,
      "ĠWo": 7694,
      "ĠOver": 7695,
      "Ġseem": 7696,
      "Ġclinical": 7697,
      "cknow": 7698,
      "Ġintroduced": 7699,
      "-.": 7700,
      "<\\/": 7701,
      "Ji": 7702,
      "fs": 7703,
      "ĠHa": 7704,
      "ĠJo": 7705,
      "Ãªr": 7706,
      "Ġinteress": 7707,
      "180": 7708,
      "Or": 7709,
      "Î®": 7710,
      "Ġfish": 7711,
      "ĠSi": 7712,
      "ĠSince": 7713,
      "Ġreact": 7714,
      "Ġconven": 7715,
      "Ġjuis": 7716,
      "essment": 7717,
      "Ġblank": 7718,
      "Ġdaai": 7719,
      "ĠParis": 7720,
      "Ġwitness": 7721,
      "Ġfemale": 7722,
      "IK": 7723,
      "fi": 7724,
      "journal": 7725,
      "enter": 7726,
      "ĠMary": 7727,
      "Ġassets": 7728,
      "Ġextended": 7729,
      "Ġexcell": 7730,
      "ĠØµÙĦÙī": 7731,
      "Ġought": 7732,
      "Ġsound": 7733,
      "Ġsulf": 7734,
      "Ġmun": 7735,
      "iler": 7736,
      "ĠMem": 7737,
      "ĠCamp": 7738,
      "Ġkaart": 7739,
      "abilities": 7740,
      "ubb": 7741,
      "clude": 7742,
      "hentic": 7743,
      "ĠChinese": 7744,
      "Ġ118": 7745,
      "Ġlaid": 7746,
      "omself": 7747,
      "ĠBlue": 7748,
      "Ġbedryf": 7749,
      "Ġspesiale": 7750,
      "Ġcitiz": 7751,
      ".âĢĻ": 7752,
      "OOD": 7753,
      "bron": 7754,
      "Î¬": 7755,
      "Ġsj": 7756,
      "Ġvel": 7757,
      "ĠSTR": 7758,
      "omal": 7759,
      "igrax": 7760,
      "Ġasof": 7761,
      "ĠEs": 7762,
      "ĠJack": 7763,
      "ochem": 7764,
      "Ġplain": 7765,
      "Ġgebou": 7766,
      "Ġmodern": 7767,
      "Ġconsent": 7768,
      "Ġstudie": 7769,
      "Ġfacts": 7770,
      "ĠComplex": 7771,
      "ographic": 7772,
      "ĠFacebook": 7773,
      "IX": 7774,
      "chen": 7775,
      "eria": 7776,
      "Ġsand": 7777,
      "Ġvlie": 7778,
      "stract": 7779,
      "Ġreis": 7780,
      "ĠDuits": 7781,
      "ceeds": 7782,
      "anda": 7783,
      "ryp": 7784,
      "oks": 7785,
      "Ġ79": 7786,
      "Ġ97": 7787,
      "bei": 7788,
      "Ġcommission": 7789,
      "iana": 7790,
      "Ġcoal": 7791,
      "Ġestate": 7792,
      "2008": 7793,
      "ĠFIGS": 7794,
      "ĠÙĪØ³ÙĦÙħ": 7795,
      "Ġbalance": 7796,
      "Ġsagteware": 7797,
      "Ġadapted": 7798,
      "hard": 7799,
      "Ġvul": 7800,
      "emark": 7801,
      "Ġprove": 7802,
      "abeth": 7803,
      "Ġverteen": 7804,
      "Ġroute": 7805,
      "wering": 7806,
      "Ġ117": 7807,
      "Ġgevra": 7808,
      "Ġcorrel": 7809,
      "ĠPlan": 7810,
      "ĠØ£ÙĨ": 7811,
      "board": 7812,
      "Ġgreen": 7813,
      "ĠVigRX": 7814,
      "Ġalgorithm": 7815,
      "hydro": 7816,
      "CrossRef": 7817,
      "Diesel": 7818,
      "equ": 7819,
      "hi": 7820,
      "mp": 7821,
      "omik": 7822,
      "ĠMount": 7823,
      "ĠMicro": 7824,
      "Ġconvers": 7825,
      "Ġcompanies": 7826,
      "ancing": 7827,
      "Ġspecifically": 7828,
      "Ġdraai": 7829,
      "liament": 7830,
      "Ġrepresents": 7831,
      "Ġmulti": 7832,
      "Ġconcerning": 7833,
      "ĠJudge": 7834,
      "CRIPTION": 7835,
      "bum": 7836,
      "Ġmap": 7837,
      "ompl": 7838,
      "Ġenk": 7839,
      "ĠCc": 7840,
      "Ġkg": 7841,
      "Ġkinder": 7842,
      "ĠLew": 7843,
      "Ġcomments": 7844,
      "ĠKomm": 7845,
      "ribe": 7846,
      "Ġmee": 7847,
      "cles": 7848,
      "aterdag": 7849,
      "spect": 7850,
      "ientific": 7851,
      "Ġgemidd": 7852,
      "Ġklaar": 7853,
      "Ġsummer": 7854,
      "Ġadjacent": 7855,
      "Ġcauses": 7856,
      "Ġannoun": 7857,
      "Ġdogter": 7858,
      "Ġervaring": 7859,
      "Ġonderwysers": 7860,
      "Ġconventional": 7861,
      "RNAs": 7862,
      "*.": 7863,
      "CG": 7864,
      "jo": 7865,
      "kundige": 7866,
      "ĠNou": 7867,
      "ĠOcean": 7868,
      "appl": 7869,
      "ĠUr": 7870,
      "ultural": 7871,
      "aven": 7872,
      "ĠÎ¸": 7873,
      "iveness": 7874,
      "atters": 7875,
      "ĠDevelop": 7876,
      "Ġsymptoms": 7877,
      "erosol": 7878,
      "omikuj": 7879,
      "Nor": 7880,
      "wj": 7881,
      "Ġavenue": 7882,
      "Ġbatter": 7883,
      "Ġmelk": 7884,
      "Ġgard": 7885,
      "uting": 7886,
      "ĠWoord": 7887,
      "ĠRam": 7888,
      "ĠVis": 7889,
      "Ġ108": 7890,
      "Ġgesprek": 7891,
      "afel": 7892,
      "Ġrecip": 7893,
      "anees": 7894,
      "appye": 7895,
      "Ġdemand": 7896,
      "Ġsentence": 7897,
      "Ġbevorder": 7898,
      "BA": 7899,
      "sw": 7900,
      "uier": 7901,
      "Ġsides": 7902,
      "Ġsamples": 7903,
      "ĠCorn": 7904,
      "agram": 7905,
      "ĠFred": 7906,
      "seer": 7907,
      "ĠOP": 7908,
      "Ġvolled": 7909,
      "Ġlae": 7910,
      "Ġvoer": 7911,
      "Ġsurround": 7912,
      "ĠLesb": 7913,
      "Ġlegislation": 7914,
      "fig": 7915,
      "had": 7916,
      "jer": 7917,
      "ko": 7918,
      "post": 7919,
      "var": 7920,
      "Ġolie": 7921,
      "Ġmouse": 7922,
      "Ġenl": 7923,
      "otter": 7924,
      "Ġgear": 7925,
      "geer": 7926,
      "Ġ05": 7927,
      "Ġskole": 7928,
      "ĠReport": 7929,
      "Ġcombined": 7930,
      "Î¿Ïħ": 7931,
      "Ġofficer": 7932,
      "Ġnavorsing": 7933,
      ",\\": 7934,
      "DB": 7935,
      "hy": 7936,
      "kies": 7937,
      "ni": 7938,
      "Ġere": 7939,
      "Ġgou": 7940,
      "ĠTues": 7941,
      "ĠMel": 7942,
      "ĠPac": 7943,
      "abet": 7944,
      "Ġexposed": 7945,
      "Ġprison": 7946,
      "Ġelk": 7947,
      "Ġagree": 7948,
      "Ġassert": 7949,
      "Ġcontrolled": 7950,
      "Ġprinted": 7951,
      "sim": 7952,
      "uif": 7953,
      "vloed": 7954,
      "Ø®": 7955,
      "Ġign": 7956,
      "Ġfat": 7957,
      "ĠAlex": 7958,
      "Ġenfor": 7959,
      "ĠCL": 7960,
      "amil": 7961,
      "ĠBurg": 7962,
      "Ġstro": 7963,
      "ĠVimax": 7964,
      "Ġhaal": 7965,
      "Ġverkeerd": 7966,
      "Ġbehind": 7967,
      "Ġtakes": 7968,
      "Ġbevat": 7969,
      "ĠJacob": 7970,
      "Acc": 7971,
      "BER": 7972,
      "LL": 7973,
      "zone": 7974,
      "ÏĮ": 7975,
      "Ġ....": 7976,
      "Ġtl": 7977,
      "erings": 7978,
      "rote": 7979,
      "Ġbeide": 7980,
      "ĠGo": 7981,
      "Ġskakel": 7982,
      "ĠConn": 7983,
      "mathcal": 7984,
      "Ġalternative": 7985,
      "Ġcharged": 7986,
      "jarige": 7987,
      "'re": 7988,
      "zi": 7989,
      "Ġwalk": 7990,
      "ĠDIE": 7991,
      "andid": 7992,
      "ĠVAN": 7993,
      "oging": 7994,
      "Ġspreek": 7995,
      "ondig": 7996,
      "Ġgelde": 7997,
      "ĠBorste": 7998,
      "Ġordinary": 7999
    },
    "merges": [
      [
        "Ġ",
        "t"
      ],
      [
        "e",
        "r"
      ],
      [
        "i",
        "n"
      ],
      [
        "Ġ",
        "a"
      ],
      [
        "h",
        "e"
      ],
      [
        "e",
        "n"
      ],
      [
        "Ġ",
        "o"
      ],
      [
        "a",
        "n"
      ],
      [
        "Ġ",
        "s"
      ],
      [
        "o",
        "n"
      ],
      [
        "e",
        "s"
      ],
      [
        "a",
        "t"
      ],
      [
        "Ġ",
        "d"
      ],
      [
        "Ġt",
        "he"
      ],
      [
        "o",
        "r"
      ],
      [
        "i",
        "e"
      ],
      [
        "Ġ",
        "w"
      ],
      [
        "i",
        "s"
      ],
      [
        "i",
        "t"
      ],
      [
        "Ġ",
        "b"
      ],
      [
        "a",
        "r"
      ],
      [
        "e",
        "d"
      ],
      [
        "Ġ",
        "m"
      ],
      [
        "Ġ",
        "p"
      ],
      [
        "r",
        "e"
      ],
      [
        "a",
        "l"
      ],
      [
        "Ġ",
        "c"
      ],
      [
        "in",
        "g"
      ],
      [
        "Ġ",
        "v"
      ],
      [
        "e",
        "l"
      ],
      [
        "Ġ",
        "in"
      ],
      [
        "Ġo",
        "f"
      ],
      [
        "Ġ",
        "f"
      ],
      [
        "Ġa",
        "n"
      ],
      [
        "r",
        "o"
      ],
      [
        "Ġ",
        "h"
      ],
      [
        "l",
        "e"
      ],
      [
        "i",
        "on"
      ],
      [
        "Ġ",
        "n"
      ],
      [
        "a",
        "s"
      ],
      [
        "Ġ",
        "g"
      ],
      [
        "i",
        "c"
      ],
      [
        "e",
        "t"
      ],
      [
        "o",
        "u"
      ],
      [
        "Ġt",
        "o"
      ],
      [
        "Ġan",
        "d"
      ],
      [
        "en",
        "t"
      ],
      [
        "Ġd",
        "ie"
      ],
      [
        "Ġ",
        "S"
      ],
      [
        "o",
        "m"
      ],
      [
        "s",
        "t"
      ],
      [
        "Ġ",
        "e"
      ],
      [
        "Ġ",
        "is"
      ],
      [
        "Ġ",
        "1"
      ],
      [
        "â",
        "Ģ"
      ],
      [
        "Ġ",
        "l"
      ],
      [
        "i",
        "l"
      ],
      [
        "i",
        "d"
      ],
      [
        "c",
        "t"
      ],
      [
        "i",
        "g"
      ],
      [
        "Ġt",
        "h"
      ],
      [
        "Ġ",
        "T"
      ],
      [
        "Ġ",
        "A"
      ],
      [
        "u",
        "r"
      ],
      [
        "o",
        "l"
      ],
      [
        "Ġ",
        "en"
      ],
      [
        "Ġ",
        "M"
      ],
      [
        "Ġ",
        "C"
      ],
      [
        "Ġo",
        "n"
      ],
      [
        "Ġ",
        "k"
      ],
      [
        "r",
        "a"
      ],
      [
        "Ġb",
        "e"
      ],
      [
        "o",
        "t"
      ],
      [
        "i",
        "r"
      ],
      [
        "er",
        "s"
      ],
      [
        "Ġ",
        "re"
      ],
      [
        "Ġ",
        "2"
      ],
      [
        "Ġ",
        "D"
      ],
      [
        "u",
        "l"
      ],
      [
        "e",
        "m"
      ],
      [
        "i",
        "m"
      ],
      [
        "Ġ",
        "I"
      ],
      [
        "Ġ",
        "("
      ],
      [
        "u",
        "s"
      ],
      [
        "Ġ",
        "he"
      ],
      [
        "a",
        "m"
      ],
      [
        "Ġ",
        "B"
      ],
      [
        "Ġ",
        "P"
      ],
      [
        "at",
        "ion"
      ],
      [
        "u",
        "t"
      ],
      [
        "d",
        "e"
      ],
      [
        "o",
        "s"
      ],
      [
        "i",
        "k"
      ],
      [
        "a",
        "ar"
      ],
      [
        "u",
        "n"
      ],
      [
        "Ġv",
        "an"
      ],
      [
        "c",
        "e"
      ],
      [
        "Ġs",
        "t"
      ],
      [
        "a",
        "g"
      ],
      [
        "Ġf",
        "or"
      ],
      [
        "c",
        "h"
      ],
      [
        "i",
        "v"
      ],
      [
        "Ġ",
        "H"
      ],
      [
        "l",
        "y"
      ],
      [
        "Ġa",
        "s"
      ],
      [
        "Ġ",
        "âĢ"
      ],
      [
        "an",
        "d"
      ],
      [
        "e",
        "k"
      ],
      [
        "i",
        "es"
      ],
      [
        "t",
        "er"
      ],
      [
        "0",
        "0"
      ],
      [
        "Ġ",
        "r"
      ],
      [
        "a",
        "d"
      ],
      [
        "a",
        "y"
      ],
      [
        "o",
        "w"
      ],
      [
        "o",
        "d"
      ],
      [
        "Ġ",
        "E"
      ],
      [
        "a",
        "k"
      ],
      [
        "Ġ",
        "F"
      ],
      [
        "Ġ",
        "W"
      ],
      [
        "t",
        "e"
      ],
      [
        "er",
        "e"
      ],
      [
        "t",
        "h"
      ],
      [
        "Ġ",
        "G"
      ],
      [
        "Ġc",
        "on"
      ],
      [
        "Ġ",
        "R"
      ],
      [
        "Ġa",
        "l"
      ],
      [
        "it",
        "h"
      ],
      [
        "Ġ",
        "N"
      ],
      [
        "Ġd",
        "e"
      ],
      [
        "s",
        "e"
      ],
      [
        "Ġ",
        "j"
      ],
      [
        "Ġp",
        "ro"
      ],
      [
        "es",
        "s"
      ],
      [
        "Ġ",
        "L"
      ],
      [
        "Ġb",
        "y"
      ],
      [
        ".",
        "."
      ],
      [
        "Ġ",
        "O"
      ],
      [
        "Ġt",
        "e"
      ],
      [
        "Ġth",
        "at"
      ],
      [
        "es",
        "t"
      ],
      [
        "Ġs",
        "e"
      ],
      [
        "Ġo",
        "p"
      ],
      [
        "i",
        "f"
      ],
      [
        "Ġw",
        "h"
      ],
      [
        "o",
        "p"
      ],
      [
        "d",
        "er"
      ],
      [
        "Ġo",
        "r"
      ],
      [
        "Ġhe",
        "t"
      ],
      [
        "u",
        "m"
      ],
      [
        "Ġw",
        "ith"
      ],
      [
        "Ġ",
        "J"
      ],
      [
        "Ġn",
        "ie"
      ],
      [
        "or",
        "d"
      ],
      [
        "a",
        "b"
      ],
      [
        "Ġv",
        "er"
      ],
      [
        "ĠT",
        "he"
      ],
      [
        "at",
        "e"
      ],
      [
        "e",
        "ct"
      ],
      [
        "v",
        "er"
      ],
      [
        "a",
        "p"
      ],
      [
        "Ġw",
        "as"
      ],
      [
        "Ġ",
        "V"
      ],
      [
        "v",
        "e"
      ],
      [
        "an",
        "t"
      ],
      [
        "Ġg",
        "e"
      ],
      [
        "Ġw",
        "at"
      ],
      [
        "Ġ",
        "3"
      ],
      [
        "Ġs",
        "u"
      ],
      [
        "Ġc",
        "om"
      ],
      [
        "Ġo",
        "m"
      ],
      [
        "Ġa",
        "t"
      ],
      [
        "g",
        "e"
      ],
      [
        "q",
        "u"
      ],
      [
        "Ġ",
        "it"
      ],
      [
        "en",
        "s"
      ],
      [
        "il",
        "l"
      ],
      [
        "Ġ",
        "K"
      ],
      [
        "a",
        "c"
      ],
      [
        "0",
        "1"
      ],
      [
        "Ġ",
        "u"
      ],
      [
        "w",
        "e"
      ],
      [
        "is",
        "t"
      ],
      [
        "or",
        "t"
      ],
      [
        "Ġe",
        "x"
      ],
      [
        "Ġ",
        "le"
      ],
      [
        "p",
        "p"
      ],
      [
        "Ġw",
        "e"
      ],
      [
        "ar",
        "t"
      ],
      [
        "Ġ",
        "'"
      ],
      [
        "m",
        "ent"
      ],
      [
        "o",
        "g"
      ],
      [
        "r",
        "y"
      ],
      [
        "Ġm",
        "et"
      ],
      [
        "ro",
        "m"
      ],
      [
        "a",
        "in"
      ],
      [
        "r",
        "i"
      ],
      [
        "an",
        "s"
      ],
      [
        "en",
        "d"
      ],
      [
        "l",
        "d"
      ],
      [
        "Ġ",
        "4"
      ],
      [
        "it",
        "y"
      ],
      [
        "ĠI",
        "n"
      ],
      [
        "Ġa",
        "re"
      ],
      [
        "o",
        "c"
      ],
      [
        "r",
        "u"
      ],
      [
        "o",
        "k"
      ],
      [
        "or",
        "e"
      ],
      [
        "Ġ",
        "y"
      ],
      [
        "o",
        "or"
      ],
      [
        "e",
        "er"
      ],
      [
        "Ġ",
        "5"
      ],
      [
        "ic",
        "h"
      ],
      [
        "el",
        "l"
      ],
      [
        "ou",
        "r"
      ],
      [
        "Ġv",
        "ir"
      ],
      [
        "Ġs",
        "p"
      ],
      [
        "an",
        "g"
      ],
      [
        "Ġn",
        "ot"
      ],
      [
        "ou",
        "n"
      ],
      [
        "on",
        "d"
      ],
      [
        "Ġd",
        "at"
      ],
      [
        "ig",
        "h"
      ],
      [
        "u",
        "re"
      ],
      [
        "Ġf",
        "rom"
      ],
      [
        "l",
        "a"
      ],
      [
        "iv",
        "e"
      ],
      [
        "Ġs",
        "o"
      ],
      [
        "i",
        "er"
      ],
      [
        "e",
        "p"
      ],
      [
        "l",
        "ik"
      ],
      [
        "f",
        "f"
      ],
      [
        "Ġm",
        "o"
      ],
      [
        "u",
        "d"
      ],
      [
        "Ġs",
        "h"
      ],
      [
        "Ġ",
        "un"
      ],
      [
        "p",
        "l"
      ],
      [
        "ct",
        "ion"
      ],
      [
        "Ġh",
        "a"
      ],
      [
        "b",
        "er"
      ],
      [
        "ar",
        "d"
      ],
      [
        "i",
        "en"
      ],
      [
        "at",
        "ed"
      ],
      [
        "Ġp",
        "r"
      ],
      [
        "al",
        "l"
      ],
      [
        "Ġs",
        "y"
      ],
      [
        "e",
        "c"
      ],
      [
        "in",
        "d"
      ],
      [
        "in",
        "e"
      ],
      [
        "i",
        "al"
      ],
      [
        "id",
        "e"
      ],
      [
        "k",
        "e"
      ],
      [
        "Ġ",
        "-"
      ],
      [
        "Ġwh",
        "ich"
      ],
      [
        ".",
        ","
      ],
      [
        "Ġ",
        "6"
      ],
      [
        "Ġa",
        "an"
      ],
      [
        "a",
        "an"
      ],
      [
        "u",
        "g"
      ],
      [
        "Ġ",
        "us"
      ],
      [
        "Ġd",
        "it"
      ],
      [
        "i",
        "p"
      ],
      [
        "Ġ",
        "."
      ],
      [
        "Ġth",
        "is"
      ],
      [
        "Ġ",
        "U"
      ],
      [
        "i",
        "a"
      ],
      [
        "or",
        "m"
      ],
      [
        "Ġc",
        "h"
      ],
      [
        "u",
        "st"
      ],
      [
        "ing",
        "s"
      ],
      [
        "Ġ2",
        "01"
      ],
      [
        "ag",
        "e"
      ],
      [
        "Ġm",
        "e"
      ],
      [
        "c",
        "c"
      ],
      [
        "Ġn",
        "e"
      ],
      [
        "Ġcom",
        "p"
      ],
      [
        "as",
        "t"
      ],
      [
        ")",
        "."
      ],
      [
        "Ġw",
        "ord"
      ],
      [
        "Ġcon",
        "t"
      ],
      [
        "th",
        "er"
      ],
      [
        "u",
        "b"
      ],
      [
        "Ġr",
        "es"
      ],
      [
        "ĠS",
        "t"
      ],
      [
        "ic",
        "e"
      ],
      [
        "Ġa",
        "d"
      ],
      [
        "it",
        "e"
      ],
      [
        "o",
        "e"
      ],
      [
        "ĠâĢ",
        "ĺ"
      ],
      [
        "p",
        "er"
      ],
      [
        "ab",
        "le"
      ],
      [
        "t",
        "s"
      ],
      [
        "Ġ",
        "Ø"
      ],
      [
        "Ġm",
        "a"
      ],
      [
        "Ġ",
        "\""
      ],
      [
        "c",
        "l"
      ],
      [
        "u",
        "e"
      ],
      [
        "i",
        "z"
      ],
      [
        "Ġon",
        "s"
      ],
      [
        "ul",
        "le"
      ],
      [
        "ic",
        "al"
      ],
      [
        "er",
        "m"
      ],
      [
        "Ġ",
        "0"
      ],
      [
        "Ġm",
        "ay"
      ],
      [
        "âĢ",
        "Ŀ"
      ],
      [
        "ï",
        "¿"
      ],
      [
        "Ġa",
        "pp"
      ],
      [
        "ï¿",
        "½"
      ],
      [
        "ou",
        "s"
      ],
      [
        "Ġal",
        "l"
      ],
      [
        "Ġp",
        "l"
      ],
      [
        "it",
        "ion"
      ],
      [
        "Ġha",
        "ve"
      ],
      [
        "f",
        "er"
      ],
      [
        "âĢ",
        "Ļ"
      ],
      [
        "ou",
        "ld"
      ],
      [
        "Ġm",
        "y"
      ],
      [
        "igh",
        "t"
      ],
      [
        "n",
        "e"
      ],
      [
        "er",
        "k"
      ],
      [
        "Ġs",
        "a"
      ],
      [
        "Ġd",
        "o"
      ],
      [
        "on",
        "g"
      ],
      [
        "as",
        "s"
      ],
      [
        "ar",
        "y"
      ],
      [
        "Ġd",
        "is"
      ],
      [
        "Ã",
        "ª"
      ],
      [
        "ĠT",
        "h"
      ],
      [
        "o",
        "f"
      ],
      [
        "p",
        "t"
      ],
      [
        "Ġ",
        "im"
      ],
      [
        "Ġk",
        "an"
      ],
      [
        "Ġ",
        "7"
      ],
      [
        "d",
        "u"
      ],
      [
        "st",
        "e"
      ],
      [
        "p",
        "r"
      ],
      [
        "ie",
        "d"
      ],
      [
        "om",
        "e"
      ],
      [
        "as",
        "e"
      ],
      [
        "Ġ",
        "8"
      ],
      [
        "t",
        "o"
      ],
      [
        "k",
        "s"
      ],
      [
        "Ġm",
        "an"
      ],
      [
        "ent",
        "s"
      ],
      [
        "i",
        "b"
      ],
      [
        "i",
        "re"
      ],
      [
        "el",
        "e"
      ],
      [
        "y",
        "s"
      ],
      [
        "Ġa",
        "f"
      ],
      [
        "Ġ1",
        "9"
      ],
      [
        "Ġa",
        "r"
      ],
      [
        "en",
        "ce"
      ],
      [
        "Ġc",
        "an"
      ],
      [
        "ĠâĢ",
        "ľ"
      ],
      [
        "a",
        "ct"
      ],
      [
        "an",
        "ce"
      ],
      [
        "t",
        "y"
      ],
      [
        "Ġs",
        "k"
      ],
      [
        "Ġh",
        "is"
      ],
      [
        "o",
        "od"
      ],
      [
        "Ġ",
        "ro"
      ],
      [
        "Ã",
        "«"
      ],
      [
        "Ġg",
        "ro"
      ],
      [
        "on",
        "t"
      ],
      [
        "Ġp",
        "er"
      ],
      [
        "he",
        "n"
      ],
      [
        "Ġe",
        "k"
      ],
      [
        "Ġj",
        "y"
      ],
      [
        "o",
        "st"
      ],
      [
        "1",
        "0"
      ],
      [
        "f",
        "orm"
      ],
      [
        "ation",
        "s"
      ],
      [
        "Ġo",
        "or"
      ],
      [
        "el",
        "s"
      ],
      [
        "ar",
        "e"
      ],
      [
        "ig",
        "e"
      ],
      [
        "Ġu",
        "it"
      ],
      [
        "Ġon",
        "e"
      ],
      [
        "..",
        ".."
      ],
      [
        "ĠD",
        "ie"
      ],
      [
        ")",
        ","
      ],
      [
        "ou",
        "t"
      ],
      [
        "e",
        "ar"
      ],
      [
        "Ġn",
        "a"
      ],
      [
        "Ġa",
        "b"
      ],
      [
        "Ġs",
        "al"
      ],
      [
        "a",
        "ch"
      ],
      [
        "Ġre",
        "g"
      ],
      [
        "Ġ",
        "el"
      ],
      [
        "Ġ1",
        "0"
      ],
      [
        "ĠâĢ",
        "Ļ"
      ],
      [
        "o",
        "ek"
      ],
      [
        "Ġp",
        "art"
      ],
      [
        "Ġd",
        "aar"
      ],
      [
        "is",
        "s"
      ],
      [
        "ig",
        "n"
      ],
      [
        "he",
        "id"
      ],
      [
        "Ġb",
        "es"
      ],
      [
        "en",
        "de"
      ],
      [
        "Ġg",
        "es"
      ],
      [
        "'",
        "s"
      ],
      [
        "on",
        "e"
      ],
      [
        "e",
        "e"
      ],
      [
        "p",
        "os"
      ],
      [
        "Ġw",
        "ill"
      ],
      [
        "ĠC",
        "h"
      ],
      [
        "in",
        "k"
      ],
      [
        "p",
        "le"
      ],
      [
        "l",
        "o"
      ],
      [
        "Ġ",
        "9"
      ],
      [
        "d",
        "ie"
      ],
      [
        "Ġb",
        "et"
      ],
      [
        "ek",
        "s"
      ],
      [
        "el",
        "f"
      ],
      [
        "Ù",
        "Ħ"
      ],
      [
        "7",
        "7"
      ],
      [
        "h",
        "er"
      ],
      [
        "el",
        "y"
      ],
      [
        "Ġh",
        "ulle"
      ],
      [
        "am",
        "e"
      ],
      [
        "Ġj",
        "ou"
      ],
      [
        "E",
        "R"
      ],
      [
        "Ġt",
        "r"
      ],
      [
        "or",
        "s"
      ],
      [
        "Ġh",
        "as"
      ],
      [
        "ĠA",
        "n"
      ],
      [
        "Ġa",
        "g"
      ],
      [
        "Ġp",
        "re"
      ],
      [
        "Ġw",
        "ere"
      ],
      [
        "om",
        "m"
      ],
      [
        "2",
        "0"
      ],
      [
        "ion",
        "s"
      ],
      [
        "an",
        "k"
      ],
      [
        "ac",
        "k"
      ],
      [
        "a",
        "at"
      ],
      [
        "Ġg",
        "en"
      ],
      [
        "Ġ1",
        "8"
      ],
      [
        "b",
        "e"
      ],
      [
        "ul",
        "t"
      ],
      [
        "Ġn",
        "o"
      ],
      [
        "Ġin",
        "ter"
      ],
      [
        "er",
        "v"
      ],
      [
        "w",
        "o"
      ],
      [
        "Ġ",
        "["
      ],
      [
        "al",
        "e"
      ],
      [
        "a",
        "v"
      ],
      [
        "Ġe",
        "m"
      ],
      [
        "ĠE",
        "n"
      ],
      [
        "Ġa",
        "m"
      ],
      [
        "em",
        "ent"
      ],
      [
        "Ġb",
        "ut"
      ],
      [
        "u",
        "it"
      ],
      [
        "p",
        "e"
      ],
      [
        "Ġa",
        "cc"
      ],
      [
        "im",
        "e"
      ],
      [
        "Ġh",
        "y"
      ],
      [
        "l",
        "ic"
      ],
      [
        "Ġ",
        "Y"
      ],
      [
        "Ġv",
        "oor"
      ],
      [
        "at",
        "er"
      ],
      [
        "e",
        "g"
      ],
      [
        "Ã",
        "©"
      ],
      [
        "Ġv",
        "ol"
      ],
      [
        "00",
        "0"
      ],
      [
        "Ġh",
        "ier"
      ],
      [
        "on",
        "s"
      ],
      [
        "ies",
        "e"
      ],
      [
        "ow",
        "n"
      ],
      [
        "Ġth",
        "ere"
      ],
      [
        "i",
        "le"
      ],
      [
        "an",
        "n"
      ],
      [
        "s",
        "k"
      ],
      [
        "Ġu",
        "p"
      ],
      [
        "os",
        "e"
      ],
      [
        "y",
        "l"
      ],
      [
        "Ġo",
        "ther"
      ],
      [
        "Ġo",
        "ut"
      ],
      [
        "oun",
        "t"
      ],
      [
        "ol",
        "l"
      ],
      [
        "un",
        "d"
      ],
      [
        "Ġsu",
        "b"
      ],
      [
        "Ġ",
        "qu"
      ],
      [
        "in",
        "t"
      ],
      [
        "E",
        "N"
      ],
      [
        "Ġan",
        "y"
      ],
      [
        "er",
        "t"
      ],
      [
        "ir",
        "st"
      ],
      [
        "or",
        "k"
      ],
      [
        "Ġv",
        "ers"
      ],
      [
        "re",
        "e"
      ],
      [
        "ï¿½",
        "ï¿½"
      ],
      [
        "1",
        "1"
      ],
      [
        "e",
        "w"
      ],
      [
        "ĠO",
        "n"
      ],
      [
        "Ġ",
        "i"
      ],
      [
        "Ġw",
        "aar"
      ],
      [
        "Ġde",
        "ur"
      ],
      [
        "s",
        "p"
      ],
      [
        "Ù",
        "Ĩ"
      ],
      [
        "Ġ1",
        "2"
      ],
      [
        "Ġbe",
        "en"
      ],
      [
        "Ġas",
        "s"
      ],
      [
        "ar",
        "k"
      ],
      [
        "Ġ",
        "ra"
      ],
      [
        "Ġo",
        "ok"
      ],
      [
        "Ġd",
        "es"
      ],
      [
        "Ġ",
        "Â"
      ],
      [
        "Ġn",
        "et"
      ],
      [
        "Ġc",
        "l"
      ],
      [
        "Ġb",
        "l"
      ],
      [
        "Ġthe",
        "ir"
      ],
      [
        "ik",
        "e"
      ],
      [
        "u",
        "al"
      ],
      [
        "p",
        "h"
      ],
      [
        "Ġ",
        "$"
      ],
      [
        "f",
        "r"
      ],
      [
        "Ġ2",
        "0"
      ],
      [
        "ug",
        "h"
      ],
      [
        "Ġy",
        "ou"
      ],
      [
        "p",
        "ort"
      ],
      [
        "1",
        "9"
      ],
      [
        "el",
        "d"
      ],
      [
        "Ġsu",
        "ch"
      ],
      [
        "l",
        "l"
      ],
      [
        "or",
        "n"
      ],
      [
        "t",
        "he"
      ],
      [
        "Ġh",
        "ad"
      ],
      [
        "â",
        "Ī"
      ],
      [
        "at",
        "es"
      ],
      [
        "en",
        "se"
      ],
      [
        "Ġ2",
        "00"
      ],
      [
        "Ġf",
        "l"
      ],
      [
        "Ġse",
        "c"
      ],
      [
        "o",
        "v"
      ],
      [
        "r",
        "ed"
      ],
      [
        "a",
        "il"
      ],
      [
        "Ġto",
        "t"
      ],
      [
        "Ġ",
        ";"
      ],
      [
        "w",
        "er"
      ],
      [
        "an",
        "c"
      ],
      [
        "u",
        "is"
      ],
      [
        "a",
        "al"
      ],
      [
        "t",
        "t"
      ],
      [
        "Ġsa",
        "id"
      ],
      [
        "Ġcom",
        "m"
      ],
      [
        "Ġge",
        "b"
      ],
      [
        "at",
        "h"
      ],
      [
        "ak",
        "e"
      ],
      [
        "O",
        "N"
      ],
      [
        "r",
        "es"
      ],
      [
        "Ġ1",
        "1"
      ],
      [
        "Ġm",
        "aar"
      ],
      [
        "s",
        "o"
      ],
      [
        "Ġm",
        "ore"
      ],
      [
        "..",
        "."
      ],
      [
        "ra",
        "m"
      ],
      [
        "Ġ",
        "|"
      ],
      [
        "Ġf",
        "irst"
      ],
      [
        "e",
        "f"
      ],
      [
        "Ġh",
        "and"
      ],
      [
        "Ø",
        "§"
      ],
      [
        "u",
        "p"
      ],
      [
        "Ġit",
        "s"
      ],
      [
        "Ġpr",
        "es"
      ],
      [
        "Ġthe",
        "y"
      ],
      [
        "oc",
        "k"
      ],
      [
        "ĠA",
        "s"
      ],
      [
        "lik",
        "e"
      ],
      [
        "is",
        "h"
      ],
      [
        "if",
        "ic"
      ],
      [
        "Ġpro",
        "v"
      ],
      [
        "at",
        "ing"
      ],
      [
        "a",
        "f"
      ],
      [
        "Ġg",
        "o"
      ],
      [
        "em",
        "ber"
      ],
      [
        "j",
        "ect"
      ],
      [
        "p",
        "ro"
      ],
      [
        "Ġin",
        "cl"
      ],
      [
        "Ġtr",
        "ans"
      ],
      [
        "D",
        "ie"
      ],
      [
        "it",
        "t"
      ],
      [
        "ĠâĢ",
        "Ķ"
      ],
      [
        "Ġre",
        "c"
      ],
      [
        "y",
        "n"
      ],
      [
        "o",
        "on"
      ],
      [
        "a",
        "i"
      ],
      [
        "ie",
        "f"
      ],
      [
        "or",
        "y"
      ],
      [
        "ri",
        "b"
      ],
      [
        "en",
        "c"
      ],
      [
        "Ġfor",
        "m"
      ],
      [
        "Ġ",
        "et"
      ],
      [
        "Ġin",
        "v"
      ],
      [
        "u",
        "ur"
      ],
      [
        "Ġun",
        "der"
      ],
      [
        "ol",
        "d"
      ],
      [
        "Ġin",
        "d"
      ],
      [
        "1",
        "2"
      ],
      [
        "Ġmo",
        "et"
      ],
      [
        "Ġl",
        "a"
      ],
      [
        "I",
        "N"
      ],
      [
        "Ġwh",
        "ere"
      ],
      [
        "Ġde",
        "v"
      ],
      [
        "Ġg",
        "r"
      ],
      [
        "y",
        "d"
      ],
      [
        "oun",
        "d"
      ],
      [
        "a",
        "ie"
      ],
      [
        "c",
        "k"
      ],
      [
        "a",
        "ce"
      ],
      [
        "E",
        "S"
      ],
      [
        "Ġp",
        "os"
      ],
      [
        "Ġwh",
        "o"
      ],
      [
        "Ġe",
        "v"
      ],
      [
        "ie",
        "w"
      ],
      [
        "Ġm",
        "od"
      ],
      [
        "st",
        "em"
      ],
      [
        "5",
        "0"
      ],
      [
        "Ġb",
        "el"
      ],
      [
        "i",
        "o"
      ],
      [
        "_",
        "_"
      ],
      [
        "I",
        "n"
      ],
      [
        "Ġdat",
        "a"
      ],
      [
        "e",
        "x"
      ],
      [
        "re",
        "at"
      ],
      [
        "T",
        "he"
      ],
      [
        "Ġo",
        "b"
      ],
      [
        "a",
        "ak"
      ],
      [
        "r",
        "ic"
      ],
      [
        "Ġt",
        "ra"
      ],
      [
        "3",
        "0"
      ],
      [
        "u",
        "id"
      ],
      [
        "o",
        "b"
      ],
      [
        "r",
        "ess"
      ],
      [
        "Ġt",
        "ime"
      ],
      [
        "o",
        "ol"
      ],
      [
        "o",
        "op"
      ],
      [
        "ĠI",
        "t"
      ],
      [
        "-",
        "-"
      ],
      [
        "Ġon",
        "der"
      ],
      [
        "Ġv",
        "o"
      ],
      [
        "he",
        "d"
      ],
      [
        "âĢ",
        "Ķ"
      ],
      [
        "Ġv",
        "al"
      ],
      [
        "Ġp",
        "ers"
      ],
      [
        "Ġd",
        "et"
      ],
      [
        "ter",
        "n"
      ],
      [
        "Ġhier",
        "die"
      ],
      [
        "ed",
        "e"
      ],
      [
        "us",
        "s"
      ],
      [
        "Ġh",
        "er"
      ],
      [
        "i",
        "an"
      ],
      [
        "Ġs",
        "c"
      ],
      [
        "ot",
        "h"
      ],
      [
        "I",
        "G"
      ],
      [
        "ĠA",
        "m"
      ],
      [
        "Ġ",
        "Ù"
      ],
      [
        "A",
        "N"
      ],
      [
        "in",
        "s"
      ],
      [
        "o",
        "ok"
      ],
      [
        "ĠH",
        "e"
      ],
      [
        "is",
        "e"
      ],
      [
        "?",
        "?"
      ],
      [
        "Ġin",
        "to"
      ],
      [
        "Ġcon",
        "s"
      ],
      [
        "ro",
        "ugh"
      ],
      [
        "m",
        "e"
      ],
      [
        "2",
        "2"
      ],
      [
        "t",
        "ing"
      ],
      [
        "ĠP",
        "ro"
      ],
      [
        "Ġm",
        "in"
      ],
      [
        "it",
        "s"
      ],
      [
        "âĢ",
        "ĵ"
      ],
      [
        "1",
        "5"
      ],
      [
        "en",
        "e"
      ],
      [
        "Ġ",
        "if"
      ],
      [
        "ul",
        "ar"
      ],
      [
        "Ġw",
        "hen"
      ],
      [
        "Ġre",
        "l"
      ],
      [
        "Ġ",
        ":"
      ],
      [
        "Ġw",
        "ould"
      ],
      [
        "Ġal",
        "so"
      ],
      [
        "w",
        "n"
      ],
      [
        "Ġe",
        "en"
      ],
      [
        "Ġ1",
        "4"
      ],
      [
        "l",
        "es"
      ],
      [
        "Ġd",
        "i"
      ],
      [
        "Ġth",
        "an"
      ],
      [
        "us",
        "e"
      ],
      [
        "om",
        "p"
      ],
      [
        "er",
        "al"
      ],
      [
        "c",
        "ess"
      ],
      [
        "ĠM",
        "r"
      ],
      [
        "Ġa",
        "c"
      ],
      [
        "en",
        "g"
      ],
      [
        "Ġin",
        "c"
      ],
      [
        "Ġad",
        "d"
      ],
      [
        "ĠâĢ",
        "ĵ"
      ],
      [
        "1",
        "3"
      ],
      [
        "Ġp",
        "ol"
      ],
      [
        "er",
        "y"
      ],
      [
        "i",
        "ous"
      ],
      [
        "Ġs",
        "ome"
      ],
      [
        "r",
        "ing"
      ],
      [
        "as",
        "ie"
      ],
      [
        "ol",
        "og"
      ],
      [
        "A",
        "R"
      ],
      [
        "ĠW",
        "e"
      ],
      [
        "g",
        "h"
      ],
      [
        "Ġ1",
        "5"
      ],
      [
        "on",
        "der"
      ],
      [
        "i",
        "ent"
      ],
      [
        "Ġ",
        "&"
      ],
      [
        "Ġsec",
        "ond"
      ],
      [
        "Ġa",
        "ct"
      ],
      [
        "Ġe",
        "ff"
      ],
      [
        "1",
        "4"
      ],
      [
        "o",
        "h"
      ],
      [
        "ay",
        "s"
      ],
      [
        "i",
        "x"
      ],
      [
        "2",
        "01"
      ],
      [
        "ĠA",
        "l"
      ],
      [
        "Ġb",
        "aie"
      ],
      [
        "Ġo",
        "ver"
      ],
      [
        "Ġ",
        "="
      ],
      [
        "ĠU",
        "n"
      ],
      [
        "Ġg",
        "aan"
      ],
      [
        "g",
        "in"
      ],
      [
        "Ġ1",
        "3"
      ],
      [
        "as",
        "ed"
      ],
      [
        "Ġ1",
        "6"
      ],
      [
        "Ġo",
        "ur"
      ],
      [
        "Ġthe",
        "m"
      ],
      [
        "O",
        "R"
      ],
      [
        "ut",
        "ion"
      ],
      [
        "e",
        "v"
      ],
      [
        "ent",
        "ion"
      ],
      [
        "o",
        "ver"
      ],
      [
        "p",
        "ect"
      ],
      [
        "Ġsy",
        "stem"
      ],
      [
        "Ġh",
        "im"
      ],
      [
        "Ġm",
        "eer"
      ],
      [
        "it",
        "ies"
      ],
      [
        "m",
        "o"
      ],
      [
        "Ġs",
        "ur"
      ],
      [
        "A",
        "T"
      ],
      [
        "at",
        "ive"
      ],
      [
        "Ġd",
        "if"
      ],
      [
[...]
